#version: 0.2
Ġ t
Ġ a
h e
i n
r e
Ġt he
o n
e r
Ġ s
Ġ w
a t
Ġ o
e n
Ġ c
i t
i s
a n
o r
Ġ b
e d
e s
Ġ f
in g
Ġ p
o u
Ġa n
a l
Ġt o
a r
Ġ m
Ġ in
Ġo f
Ġ d
Ġ h
a s
â Ģ
i c
Ġan d
Ġt h
l e
o m
i on
l l
en t
Ġ n
Ġ l
Ġ re
s t
v e
Ġ e
l y
Ġb e
r o
Ġ g
i d
u t
a c
o t
Ġ T
Ġth at
Ġ I
Ġ on
a y
Ġ S
Ġ is
i m
e t
a m
a d
o w
s e
Ġf or
i g
âĢ Ļ
v er
Ġ A
u r
c t
l d
Ġ C
Ġ u
Ġs t
Ġ y
Ġ it
Ġ he
i r
at ion
it h
Ġw h
Ġ M
c e
t er
o l
Ġw e
i l
Ġw ith
Ġa s
Ġ B
c h
i ll
n d
Ġw as
Ġy ou
er s
k e
Ġ P
Ġ âĢ
Ġc on
Ġd e
Ġ r
he r
i f
at e
Ġa t
a g
Ġh a
Ġ W
Ġs e
o re
Ġ H
u l
Ġp ro
p p
m ent
Ġa re
r i
Ġ D
Ġc om
es t
an d
u s
is t
Ġ 1
o p
ĠT he
a in
Ġ R
ig h
r om
Ġ 2
Ġ (
t h
o d
Ġ F
Ġn e
u n
u m
Ġe x
re s
Ġn ot
a b
âĢ Ŀ
Ġ N
es s
Ġ v
it y
Ġha ve
ou ld
Ġo r
e m
or t
Ġb y
Ġ G
o s
an t
Ġf rom
i ve
Ġa l
' s
e l
o c
Ġs u
ar t
Ġ L
Ġs h
n t
Ġth is
q u
igh t
p e
u st
Ġ le
i es
Ġ E
en d
Ġc h
ou t
Ġs a
Ġa b
T he
al l
i e
ac k
re d
0 0
al ly
ĠâĢ ľ
Ġh as
Ġp l
Ġg o
Ġ J
ar d
a p
om e
i v
Ġh is
g h
o st
ou r
e ar
Ġ O
Ġt r
Ġ j
as t
a k
u d
Ġw or
Ġd o
Ġthe y
Ġb ut
r ou
Ġc an
Ġw ill
g e
Ġ U
Ġsa id
Ġw he
Ġ k
ic h
Ġa ll
Ġ "
o k
id e
Ġwh o
Ġin t
am e
i al
t her
an s
Ġo ut
Ġthe ir
f f
ic e
on g
e ct
p l
u re
p t
on e
Ġm ore
ac t
i ke
ag e
Ġm e
ion s
ou s
Ġu p
in e
Ġa d
Ġab out
r a
at ed
b er
Ġon e
Ġs o
Ġwe re
Ġu s
im e
o g
Ġh ad
a re
e p
i a
u b
Ġ K
Ġw ould
c c
a ke
Ġ im
Ġwh ich
Ġc l
in d
Ġ2 0
u e
Ġa g
Ġcon t
ver y
i z
Ġt e
Ġof f
Ġcom p
Ġ en
Ġu n
Ġbe en
ĠS t
s o
p er
a u
ar y
ig n
ĠT h
ac e
i p
Ġy ear
Ġl ike
v en
e w
e re
Ġin c
o ok
ay s
Ġp e
Ġm an
r y
o se
Ġre s
it e
Ġp er
ab le
or d
as s
Ġs p
Ġo ther
i re
m er
i le
ĠI n
Ġs ome
op le
en ce
i b
ul t
Ġthe re
ation s
k s
Ġo ver
ic al
Ġ20 1
res s
in t
Ġd is
Ġne w
ow n
Ġa r
Ġbe c
Ġal so
Ġth an
ou gh
an ce
Ġthe m
ou nt
r u
Ġa pp
Ġwh at
a il
re e
Ġwhe n
Ġyou r
p ort
Ġp art
Ġpe ople
f ter
Ġs c
or m
on d
Ġ qu
a v
as e
Ġj ust
Ġan y
ĠC h
Ġ Y
Ġhe r
Ġit s
Ġk n
Ġt ime
ĠI t
ac h
Ġre c
Ġg et
l ic
Ġm y
Ġ if
re at
en s
Ġ V
Ġint o
. âĢĿ
ir st
Ġwor k
Ġt w
ve l
i an
ou nd
Ġ 3
ct ion
d u
Ġn o
ing s
or y
Ġo ur
id ent
it ion
ic k
or s
Ġ -
o b
Ġp re
an g
w n
Ġc o
au se
Ġpl ay
in k
Ġs he
ad e
Ġp ol
h ing
t e
at es
ar k
Ġ ro
am p
Ġ1 9
ver s
o ve
Ġa fter
Ġf irst
Ġc ould
ĠH e
, âĢĿ
i ous
Ġh ow
Ġh im
n e
nd er
a w
Ġa cc
' t
on s
Ġp o
i ld
Ġf e
Ġon ly
he d
Ġat t
Ġp r
ic t
r it
Ġtw o
Ġcom m
is h
o v
Ġs pe
Ġb l
Ġa ct
âĢ ľ
f orm
. "
Ġs er
w e
Ġbe t
f t
Ġde c
Ġb ack
n ing
o od
c es
Ġm ost
Ġa m
c k
Ġd id
rou nd
o y
if f
at er
rou gh
ĠâĢ ĵ
Ġag ain
Ġd es
Ġu nder
d ay
u al
se l
Ġw ant
is e
Ġcon s
u ll
Ġ 4
Ġn ow
l ud
Ġbec ause
is s
ent s
ub lic
m an
Ġyear s
Ġe ven
ĠâĢ Ķ
Ġ $
ter n
Ġne ed
Ġkn ow
ĠW e
e c
Ġin v
Ġse e
Ġin d
c ed
ment s
, "
Ġad d
t ing
o ld
f ore
Ġse c
u ch
ĠU n
ur n
Ġe very
pe ct
Ġe m
Ġm ake
oc k
Ġthe se
Ġsu pp
o ll
I n
ver n
Ġ 5
ation al
Ġwhe re
j ect
x t
Ġl ook
Ġb u
os s
Ġd on
ro w
T h
Ġw ay
at ing
Ġbe ing
Ġe v
. .
Ġr ight
ĠA nd
Ġm ay
Ġthe n
Ġc all
Ġman y
i ly
Ġre m
Ġd iff
i ed
le ct
as on
n g
as ed
Ġde f
Ġre l
um p
Ġinc lud
Ġth ink
ie w
Ġre g
mer ic
ĠB ut
l es
e ll
at h
on t
ak ing
Ġim p
it ed
Ġs y
Ġth rough
ĠT r
ri b
t y
Ġp res
Ġs ay
Ġsh ould
) .
Ġf l
Ġ very
Ġ [
ow er
Ġl ast
Ġth ose
Ġm uch
ur ing
ot her
ic s
it ies
ĠTh is
t le
Ġsh ow
Ġst ate
s s
at ive
he n
ot h
ar g
Ġ2 00
Ġp h
Ġo wn
ĠW h
v ed
âĢ Ķ
if ic
u nd
Ġc ount
al s
Ġwe ll
Ġdo es
Ġd own
Ġ end
Ġb r
ar ly
Ġbe l
Ġas s
an ge
ĠA meric
Ġbe fore
Ġgo vern
Ġu se
in ce
ter s
w ard
Ġl ong
om et
t s
g r
Ġm on
) ,
u p
ib le
Ġre port
Ġst art
Ġ ke
ĠN ew
u es
b le
if e
ou n
Ġm ade
Ġf in
ol og
Ġsu ch
en er
Ġte am
i x
Ġgo ing
is m
u ally
Ġs m
ers on
Ġwor ld
t ain
ist s
l p
f ul
Ġa c
e k
Ġst ud
I t
it s
re n
il ity
c om
Ġgo od
Ġg ame
Ġs ur
Ġe ff
Ġagain st
Ġs et
or k
Ġ ent
ar s
Ġg u
Ġsu b
a x
st em
y s
g an
Ġpo int
Ġle ad
an k
Ġst ill
im es
l i
Ġm in
rou p
al k
Ġwh ile
Ġ 6
m s
Ġhe lp
v ing
e f
Ġg r
Ġpro du
we en
ill ion
00 0
sel f
Ġs ays
Ġin ter
c y
Ġst r
c ess
Ġo b
Ġc r
Ġs im
Ġin st
Ġcon f
Ġt ake
o ol
Ġth ough
Ġoff ic
Ġc ol
Ġl aw
l and
Ġs ame
Ġ ed
Ġdiff ere
a h
re ad
e ver
a ir
Ġdis c
Ġbet ween
ut ion
u res
i o
Ġo p
oll ow
Ġgovern ment
Ġh igh
w ay
Ġn um
Ġpro v
ar ch
us s
n er
l ed
at ch
h ip
Ġt er
. [
ĠR e
t ed
- -
c ent
Ġs ign
Ġs omet
g g
Ġin s
am es
vel op
Ġre f
t en
an y
Ġa round
he s
Ġm em
a ve
W e
Ġth ree
Ġre al
Ġtr ans
Ġf ound
Ġsy stem
a z
at her
v es
Ġex p
c i
Ġc our
ĠY ou
iv es
Ġhe re
Ġus ed
Ġm ed
Ġr un
et s
ou se
ce pt
c er
Ġre ally
ĠL e
o ot
Ġg roup
Ġ1 0
c on
al e
Ġh and
Ġsupp ort
Ġspe c
Ġp ublic
Ġm od
ĠA r
Ġre t
Ġg reat
in s
p r
Ġ 7
Ġex t
y ing
Ġf act
Ġha pp
Ġf am
ĠC om
m in
Ġc ur
al th
ire ct
Ġc ar
t on
Ġc ap
Ġex per
en se
ĠThe y
Ġd ay
Ġb oth
ĠA l
ut h
Ġd et
Ġl it
ĠI s
Ġf ind
Ġf r
Ġre ad
Ġw om
Ġs l
ĠS h
p h
ul ar
ic es
Ġre p
Ġc re
Ġd uring
e red
Ġmon th
o h
in es
Ġto ld
ĠTr ump
m ed
Ġis s
Ġde velop
Ġp erson
i vers
is ion
ĠA s
Ġs ince
g et
ic ally
a red
t he
Ġf ollow
Ġb ig
Ġ 8
ak es
ag es
Ġw ar
a j
Ġc ent
Ġf ew
Ġle g
i et
ord ing
Ġwe ek
Ġpol it
ĠC l
e x
Ġl ot
Ġbel ie
d er
ch ool
Ġcont in
Ġre qu
Ġg ener
Ġto o
Ġex pl
as h
an c
W h
re nt
Ġf il
Ġc le
n ess
Ġp ut
ĠS e
b ers
Ġc he
at a
ĠF r
iz ed
ĠI f
Ġsomet hing
Ġ 9
Ġc or
Ġo pp
ent ion
Ġ '
Ġdiffere nt
Ġpro t
r ic
Ġs oc
Ġres p
Ġl oc
Ġpl an
Ġinv est
Ġin f
Ġan other
Ġth ings
Ġde p
ĠD e
Ġcomm un
Ġp ower
ut e
th ing
Ġl ife
ar ge
Ġas k
Ġp oss
i ence
ere st
Ġf ar
Ġhe ad
Ġre le
Ġp ass
n ed
Ġne ver
u c
iz e
Ġar t
od y
Ġm et
ro ss
Ġm ight
o x
in ess
Ġc amp
Th is
ant s
Ġv ot
Ġqu est
Ġe ach
ĠF or
i k
v iew
Ġb us
Ġcom e
Ġsec ond
Ġne xt
2 0
Ġ 0
re t
Ġde m
Ġg ot
Ġall ow
i er
Ġad v
Ġb est
ĠA n
Ġop en
Ġm ark
ĠâĢ ĺ
Ġch ild
it al
Ġfe el
i ent
ie ld
Ġ .
Ġse em
ĠTh at
p le
Ġh ome
n ce
Ġper cent
ĠU S
c l
u g
ist r
Ġd irect
i red
or n
Ġinc re
g y
l ess
Ġp ri
gr am
Ġp ost
Ġres ult
er v
os ed
ĠP ro
ĠR ep
Ġcont ro
Ġh um
s on
Ġcomp le
Ġpl ace
Ġim port
Ġwith out
c o
Ġin form
Ġinclud ing
Ġa v
Ġc are
Ġh ard
ate ly
ch n
am a
con om
Ġpro ble
Ġbu ild
Ġnum ber
a im
ĠB l
Ġ ide
one y
ri end
Ġcount ry
Ġg l
Ġto p
Ġst and
Ġle t
Ġe l
r al
_ _
u ro
Ġm illion
Ġm ov
r at
ab ly
is hed
Ġf our
w ays
Ġint erest
Ġrec ent
Ġb ro
Ġcall ed
a pp
Ġt ri
Ġl ess
Ġapp ro
Ġlit tle
Ġbet ter
Ġt urn
Ġc ase
Ġpart ic
Ġse ason
e ad
Ġbe h
Ġd r
B ut
t t
l ine
in al
is ed
Ġp op
Ġan n
Ġf un
l ing
Ġm il
ĠThe re
1 0
en cy
in a
Ġke ep
Ġpol ice
m e
Ġatt ack
Ġdid n
Ġre st
Ġf ull
od e
Ġm ain
aj or
Ġm ove
at ure
er ing
Ġle ft
Ġpre v
ĠI nd
Ġeff ect
b e
Ġser v
Ġe ar
Ġv al
Ġpro gram
Ġw rit
le g
Ġ Z
Ġe conom
Ġs it
r act
in ed
Ġw in
t o
Ġfor m
Ġs chool
Ġt est
Ġus ing
Ġch ar
Ġp ay
ĠAmeric an
olog y
Ġp os
read y
Ġnew s
Ġpro cess
Ġd ata
iv ing
u ck
Ġsm all
re en
r ap
Ġle vel
ain s
id ed
' re
pl oy
H e
Ġch ange
Ġm at
Ġp rom
ĠS o
g er
Ġcomp any
Ġe as
Ġpres ident
ru ct
Ġcur rent
ivers ity
m it
Ġb re
Ġd ri
Ġl ist
Ġal ready
ir d
us ed
Ġs ol
or th
Ġu nt
i ans
Ġt y
Ġwom en
ĠH ow
Ġre ce
ĠO b
ĠUn ited
Ġoffic ial
Ġl ater
Ġh ist
Ġm oney
ĠS he
st and
Ġte chn
Ġal ways
Ġt alk
Ġor gan
r on
Ġth ing
Ġex pect
Ġwh y
ĠP h
as es
Ġdes ign
a ign
Ġbus iness
Ġcl aim
Ġpro ject
Ġ Q
Ġch ang
le ction
S t
Ġinform ation
Ġm ajor
oh n
Ġv is
a ff
Ġhe alth
ĠB e
Ġcl ass
Ġab le
w it
Ġpro f
Ġed it
Ġst ory
Ġj ob
ur s
Ġ =
ard s
ĠA d
iv en
Ġb ook
ĠC an
Ġ1 8
pt ion
Ġb o
he re
Ġ- -
Ġm ust
Ġa way
er tain
Ġhapp en
Ġp ast
ur al
i or
Ġf ree
Ġs k
Ġimport ant
ou th
amp le
Ġre se
Ġk ill
uth or
ur y
Ġc ity
Ġg row
Ġc ost
Ġp at
iss ion
Ġv ar
u red
end ing
Ġo per
.. .
Ġdoes n
Ġt ax
ur ity
Ġcon st
Ġle ast
Ġo ld
r or
Ġ est
Ġh op
Ġst re
er n
Ġd ays
at or
Ġa ff
Ġte ll
Ġcamp aign
ac y
ain ed
Ġpol ic
Ġf ore
id es
Ġl arge
Ġm en
ĠG o
r ist
Ġc ame
ne y
Ġf riend
Ġen ough
Ġd ist
id er
er al
s ide
Ġm aking
el s
cc ess
Ġrec ord
res ident
Ġfam ily
Ġk ind
pp ed
Ġunt il
al ity
1 9
us h
Ġv iew
b y
Ġ1 2
Ġe lect
ĠM ar
Ġv ide
if ied
A s
Ġwork ing
is ter
w are
s c
ri es
al f
au gh
ĠS p
b r
ion al
5 0
Ġpolit ical
b s
iv ed
Ġa ir
le y
ĠRep ublic
e e
u ed
are nt
Ġact ually
o ad
is ing
Ġm ar
Ġde al
Ġbec ome
Ġin tern
I f
Ġl ine
Ġme an
Ġto ok
ĠS c
Ġhum an
ĠE uro
Ġ es
Ġ ve
âĢ ¦
Ġf und
ot t
an e
Ġw on
i ol
ĠJ ohn
ar ing
is on
Ġwor d
Ġt imes
Ġfor mer
Ġor der
m ost
Ġof ten
ap s
Ġe ver
an n
Ġg ive
em ber
on y
oc rat
Ġ19 9
ain ing
ĠP l
Ġn ame
! !
f or
Ġb it
Ġl a
Ġacc ording
ĠA ll
y ear
Ġret urn
o int
w ork
Ġg ames
Ġse ver
Ġde b
w h
ĠM ay
Ġp ar
g in
it her
Ġde v
iz ation
ĠS y
ak en
ĠO r
Ġn ight
Ġchar ac
ĠD em
en g
Ġdo ing
m ber
Ġs ing
1 1
ĠR uss
Ġha ving
i qu
The re
Ġb as
Ġf ac
ut ure
id ence
Ġr a
id d
Ġsoc ial
ĠC on
Ġper form
ic le
Ġse en
Ġo cc
Ġw r
Ġto day
Ġle ar
c hed
Ġmark et
Ġsever al
Ġp ress
or ies
ot s
Ġev ent
Ġapp ear
ĠY ork
ĠA t
ious ly
Ġmed ia
ro p
Ġsu re
Ġe arly
Ġme et
Ġlike ly
Ġc rit
ĠM c
Ġquest ion
Ġmem bers
ra ft
l f
Ġw ent
Ġw ater
un e
ĠP resident
s h
Ġpro p
Ġplay ers
Ġyou ng
Ġf ive
Ġe qu
Ġwhe ther
Ġ1 5
ĠEuro pe
art ment
i ver
in c
Ġs ide
Ġb en
Ġc ertain
Ġsh ort
Ġmil it
at s
Ġcontro l
Ġex ample
ub l
ĠOb ama
Ġar g
Ġ vers
ĠSt ates
and s
Ġh our
E R
end ed
Ġchild ren
Ġinv ol
Ġon ce
A nd
ĠM r
Ġ ]
i um
Ġal ong
Ġen g
en n
Ġsu ccess
Ġd one
n ect
Ġp ot
Ġwith in
Ġmonth s
Ġdes c
ul ation
Ġposs ible
Ġ /
ent ial
Ġcour se
Ġme ans
ur ch
it ing
Ġcon cer
ĠO n
Ġch o
g ress
Ġf ight
Ġprodu ct
Ġan t
em pt
ĠUn iversity
u ff
Ġact iv
Ġunder stand
st er
i ally
ĠC ol
Ġkn own
Ġinvest ig
iv id
p or
Ġa uthor
re w
le t
ag ue
Ġthough t
Ġam ong
Ġloc al
Ġpri v
our n
ver t
Ġproble m
ort un
Ġask ed
Ġav ail
Ġprot ect
Ġn on
Ġf uture
ed eral
Ġ1 1
b all
Ġf ail
iet y
oc i
Ġh old
Ġre ason
gg est
Ġv iol
Ġor ig
im ate
ĠN o
Ġ ,
Ġac ross
ver age
on es
Ġcommun ity
ĠW hen
m y
n ot
al d
Ġy et
ag ed
Y ou
Ġc a
it ive
Ġvide o
b ook
Ġ &
Ġg iven
i ber
Ġsu ggest
Ġstr ong
ĠT e
Ġse x
1 2
âĢ ĵ
Ġl ight
Ġm akes
en e
Ġm us
b ack
an ces
Ġother s
ĠC ar
Ġpro b
Ġl im
ĠB r
Ġann oun
ir on
l er
ens ive
Ġbelie ve
Ġreport ed
ĠSt ate
Ġget ting
Ġ201 6
ore d
it ions
Ġ ident
or ld
ĠC o
o ber
as ter
Ġs ent
Ġde ath
Ġl and
Ġc ut
ur ther
ĠH ouse
' ve
Ġn ational
am s
Ġind ust
Ġstart ed
Ġem ploy
3 0
am ent
Ġsa f
re st
Ġavail able
ĠC ent
Ġiss ue
Ġb ased
Ġc reat
ĠCh rist
Ġs our
as hing
Ġcon d
Ġl ow
Ġser ies
Ġ i
Ġacc ount
sel ves
Ġ3 0
Ġm om
Ġh ig
Ġl ove
F or
Ġcl ose
a i
Ġb at
her s
ĠF l
ĠM in
Ġn et
Ġal most
Ġtr ying
ĠDem ocrat
r ing
Ġcom es
ar m
Ġhist ory
Ġag o
Ġfollow ing
in ation
ĠA m
ition al
ut es
Ġcour t
ie f
ĠWh at
er man
Ġ201 5
res ent
re ed
u ly
Ġpr act
Ġcle ar
Ġto get
Ġtoget her
-- --
ĠAmeric a
Ġfil m
u ment
Ġacc ess
Ġpart y
u se
th ough
ail s
ivid ual
Ġexper ience
Ġcomm it
ort s
ust om
Ġr ul
ab ility
Ġide a
Ġtr ad
A T
. ,
p ro
o f
Ġf oc
Ġis n
at ors
1 5
il ar
ĠP r
ĠCom m
Ġh alf
ra el
Ġadd ed
un ch
a f
Ġ Â
e b
ere nce
Ġlook ing
g ed
ĠO ne
Ġimp ro
Ġany thing
Ġ #
ĠE x
ot e
ra w
Ġ X
ro wn
Ġcomple te
Ġpres ent
Ġt aken
ĠS en
i en
ĠCan ad
Ġpro per
Ġs ix
Ġm iss
Ġsay ing
Ġf ood
a id
Ġ1 6
Ġb ad
Ġare a
ĠB rit
Ġl ive
Ġto t
' m
e v
og rap
Ġh it
Ġbeh ind
Ġan al
ward s
ci ally
Ġ201 4
Ġent ire
Ġf ace
Ġr is
Ġ <
Ġind ividual
int on
wit ter
ot o
id s
os p
ic ult
n es
er t
Ġb ill
Wh at
Ġv ict
min istr
Ġcomp et
Ġne ar
pl ay
u ge
Ġt re
p ar
Ġr ather
Ġm ult
Ġm ind
Ġmilit ary
Ġp ubl
ĠE ng
Ġm ess
Ġsec urity
Ġm or
Ġtr y
Ġwant ed
ru g
ĠP ol
Ġsing le
Ġqu ick
Ġ er
Ġpolic y
Ġf all
ĠT o
Ġth reat
Ġa ut
ir c
Ġf av
Ġbl ack
Ġsome one
Ġ1 4
s y
at ic
Ġdisc uss
am ed
ig r
ĠC al
ĠN orth
I N
Ġstud y
ĠG r
al es
Ġre du
Ġspec ial
O n
o ff
Ġbr ing
ap er
Ġs um
ĠD on
ll ing
Ġcom b
p ly
le ment
v iron
Ã ©
ĠM an
Ġcomp an
ĠS ec
Ġen er
Ġm ass
ow s
w w
Ġplay er
Ġc ult
Ġ z
o ver
ĠIs rael
Ġcon nect
Ġc oun
Ġatt empt
re me
ĠA f
ol ution
Ġ :
A n
/ /
Ġc ou
ĠC ity
ĠW ar
Ġsp ace
Ġnot hing
Ġke y
W hen
Ġel se
Ġ1 3
Ġj o
Ġpre t
Ġben ef
Ġt aking
c ing
ro te
Ġcom ing
Ġf oot
ĠD ep
ĠN ational
ashing ton
if y
d d
Ġprob ably
ull y
Ġex ist
y n
Ġb ody
Ġfr ont
S o
Ġhow ever
g o
ĠB ar
el t
Ġdesc rib
Ġ1 7
Ġre pl
tt p
a ult
O N
I S
Ġfe at
ĠI m
Ġs us
Ġdec ision
Ġen c
r an
as ing
li er
R E
Ġright s
Ġe ither
ac es
. )
ir l
Th at
Ġs w
r is
Ġh ouse
Ġsim ilar
Ġf ederal
ĠW orld
c hes
1 6
Ġcre ate
ĠS u
ĠG u
Ġe y
Ġw a
Ġf ig
m ing
Ġrese arch
Ġwho le
Ġcon v
Ġpoint s
Ġw rote
Ġf urther
ive ly
* *
1 3
s w
Ġiss ues
ĠA ust
Ġro om
Ġevery thing
Ġst ep
ĠCl inton
Ġse lf
1 4
Ġt arg
Ġth ird
Ġbe gin
ĠJ an
ĠH ar
Ġsign ific
Ġst ri
iv il
Ġofficial s
Ġcom pl
an a
Ġtr a
Ġ201 3
ĠG e
Ġim m
Ġw atch
Ġseem s
Ġst op
Ġd ue
Ġd oc
Ġs ound
ro du
ĠW ith
Ġener gy
id ay
Ġsu per
ĠHow ever
ent ly
ri ed
m b
Ġex ec
Ġam ount
Ġcompan ies
se c
an ks
Ġ19 8
pe cially
Ġserv ice
ĠA pp
e al
u ation
ĠW ashington
Ġch all
Ġf ire
n ow
Ġd am
: //
viron ment
a pe
ĠM ed
un g
er y
Ġrele ased
C h
Ġbre ak
Ġbe gan
ĠP art
Ġmat ter
pp ing
Ġst ates
il t
Ġc ustom
Ġdevelop ment
ad es
Ġinf l
Ġc and
p ite
Ġro le
ob al
Ġstud ents
Ġlead ers
Ġfin al
A l
Ġl ab
Ġhim self
Ġme as
is c
o on
ĠD av
Ġf ield
Ġp ick
Ġit self
Â Ń
ĠS outh
Ġcontin ue
ib ility
Ġwas n
Ġbec ame
Ġstate ment
Ġt reat
Ġpos ition
Ġcharac ter
Ġst at
Ġd ou
at t
l ike
ĠG erman
Ġo pt
Ġrel ations
Ġg round
Ġg un
Ġhour s
Ġ201 7
Ġne g
Ġev idence
i od
Ġprov ide
Ġag ree
he ad
Ġthem selves
Ġcount ries
am er
a ul
Ġl arg
Ġ |
ĠIn st
Ġout side
Ġsim ply
Ġgener al
ĠA ss
Ġa ction
Ġinter view
Ġty p
ĠCh ina
Ġoff ice
Ġadd ress
ĠE d
Ġin it
Ġd i
A N
il i
' ll
B C
Ġab ove
1 7
ac ed
Ġr ad
Ġrep resent
Ġgroup s
s er
ĠJ ust
Ġbuild ing
end er
Ġprof ess
Ġ1 00
Ġd om
ace book
Ġvers ion
Ġ2 5
l im
ac hed
Ġcomm on
Ġdiff icult
Ġ201 2
ĠR es
Ġd est
Ġneed ed
l ish
idd le
__ __
Ġb ar
Ġtr ue
ograp h
re g
og n
Ġwh ite
Ġl at
um b
y le
1 8
Ġg en
ĠIn tern
ĠH is
l ight
Ġt em
Ġsignific ant
Ġsa w
Ġinclud e
Ġc op
if t
e ks
Ġspec ific
Ġneed s
Ġch arg
Ġad ministr
ar ter
Ġevery one
at ur
as k
re am
Ġwom an
Ġrun ning
Ġde ep
Ġex c
Ġpret ty
Ġm ag
Ġmus ic
ourn al
Ġin j
Ġan im
Ġl ate
Ġph ys
Ġresp ons
Ġbel ow
o id
Ġd rug
Ġrele ase
ã ģ
Ġshow s
Ġleg al
Ġre d
Ġinst ead
Ġplay ed
r ight
Ġsu ff
Ġindust ry
b ody
Ġfriend s
A R
rib ut
Ġs ense
H ow
og le
Ġp ain
l am
Ġl ost
Ġqu ite
Ġchang es
Ġp le
ĠA b
Ġb all
Ġa p
ĠW est
Ġj ud
w here
Ġbl ock
al t
cc ording
ep end
Ġb illion
Ġes pecially
Ġplay ing
r ay
Ġrecent ly
ĠA fter
Ġh om
Ġe lection
Ġ5 0
b o
ang u
Ġcand id
Ġs ite
ist ic
iv al
Ġab s
Ġal leg
ar c
t ime
os ing
Ġmom ent
Ġval ue
Ġrel ig
Ġm ot
or ing
A S
Ġeconom ic
med i
Ġ )
Ġdet er
Ġwe eks
Ġfor ward
Ġhop e
Ġcons um
Ġper iod
Ġt it
o e
Ġe p
Ġl o
Ġob ject
Ġac cept
ĠM y
ke y
Ġopp ortun
Ġp ie
ag er
du ct
c il
e ed
ĠN ot
Ġtr ack
Ġso on
Ġsh oot
ĠO ct
Ġword s
ĠT witter
om m
Ġvot e
ir m
= =
Ġc red
le v
Ġdec l
Ġwor ks
Ġc irc
op h
ĠC ong
Ġh ost
ĠNew s
Ġon line
anc ial
Ġhig her
ĠWh ite
Ġlong er
Ġtot al
Ġwe bs
ĠW ill
Ġche ck
o ke
Ġ2 4
Ġc e
Ġsh are
iqu e
ĠM us
c ial
Ġwr ong
Ġw alk
ir t
i ents
Ġlaw s
u ary
c le
Ġcons ider
p ut
ul arly
n ers
Ġhe ld
ĠThe se
ĠD o
Ġre ve
on se
Ġp arent
Ġfun ction
ĠSe pt
Ġst ay
Ġpot ential
ĠDep artment
Ġed uc
The y
as ons
ĠA ug
Ġre v
Ġfoc us
n s
id ing
l t
Ġp red
ĠG od
st r
Ġl ed
ĠM arch
ĠSt e
Ġresult s
Ġc ode
Ġen vironment
Ġgo al
f er
h od
Ġst ru
ĠRepublic an
le ge
ĠSy ri
Ġcomp ut
a ut
Ġany one
Ġexp ress
ĠJ une
P h
o le
ri pt
Ġcont ract
Ġd en
Ġtechn ology
k y
Ġa ge
u le
end s
v al
ĠS m
Ġcom ment
act ion
Ġserv ices
it ution
ag ing
ur d
ang er
Ġre view
Ġapp lic
pr il
Ġmin utes
Ġperson al
Ġproble ms
A d
ate g
ĠP e
ater ial
Ġpop ular
h aps
Ġw ays
ĠM ich
n a
Ġart icle
ĠP ar
Ġso ld
Ġear lier
f ect
Ġan sw
c he
ĠM e
Ġde ad
Ġrece ived
is l
Ġ19 7
Ġr ate
Ġd iv
Ġne cess
Ġsur pr
Ġa ud
Ġw ind
Ġannoun ced
Ġup d
Ġsh ot
ct or
Ġ {
ĠE n
h am
Ġres pect
2 5
av ing
Ġtarg et
ĠD r
Ġincre ase
Ġexpect ed
Ġquest ions
ap an
ic ro
Ġh y
her n
ĠJ uly
Ġpr im
Ġcre ated
ud e
Ġimp act
u el
Ġp ack
h ood
b it
Ġcan not
il ities
Ġv ol
Ġpriv ate
Ġp ort
Ġex act
Ġsc ient
ĠCong ress
Ġp ur
i j
Ġintern ational
Ġ201 1
re et
Ġc ivil
Ġfor ce
Ġorig inal
Ġc ases
Ġeas y
Ġant i
ip le
our t
Ġ ur
pl es
it iz
i res
ĠF acebook
Ġst aff
at ives
6 0
Ġexec ut
te e
Ġinvol ved
Ġb ase
e es
Ġne arly
ĠFr iday
Ġc ell
E S
Ġpr ice
Ġle ave
Ġter ror
Ġcap t
Ġhe art
Ġar rest
Ġs en
Ġco ll
ill s
ak er
ĠM ond
Ġfav or
le x
Ġso ft
Ġa verage
Ġkill ed
at ural
ĠR ed
ll ed
ĠAust ral
ip s
ĠA pril
re l
Ġe t
ĠAmeric ans
Ġty pe
Ġris k
Ġins ide
Ġ201 0
Ġsub ject
ok es
Ġreport s
e ch
et er
Ġus ers
Ġph ot
m on
b or
Ġl iving
Ġgl obal
Ġf ans
Ġresp onse
Ġwe ap
Ġcont ent
Ġbec om
Ġst ore
ues day
j oy
Ġ >
Ġbro ad
ĠGo ogle
Ġwork ed
Ġrequ est
Ġmod el
g ing
re m
e xt
A t
Ġde l
Ġwor th
Ġim medi
is es
Ġg ave
Ġresp ond
a el
it es
ĠCal if
Ġter ms
Ġn ation
Ġc al
Ġdirect or
Ġcl ub
Ġl angu
ell ig
Ġ @
Ġdec ided
Ġrelations hip
om b
Ġro ad
Ġg irl
Ġhappen ed
Ġest ab
T o
c ast
" .
ap t
un t
ĠRuss ia
Ġcap ital
Ġcol lect
ĠC ount
ĠW ed
Ġwork ers
Ġt akes
in o
os ition
Ġch ance
Ġm id
op s
Ġfin ancial
ĠA ct
Ġpubl ished
rough t
ĠJan uary
Ġdef in
ĠWh ile
Ġs qu
ĠMond ay
Ġbu y
olog ical
ove mber
ĠE m
Ġab ility
ĠP al
Ġass oci
ĠN ow
Ġph one
Ġf em
he l
ough t
Ġl ack
us ion
ĠS ome
ĠT uesday
iz ing
ĠJ apan
Ġinfl u
istr ict
Ġturn ed
Ġc y
Ġfore ign
Ġsour ce
Ġrequ ire
Ġm other
Ġe mer
f ully
ĠA g
Ġare as
Ġl og
Ġm aterial
ĠB ro
] [
Ġwho se
Ġaff ect
Ġpl ans
Ġsit uation
ru ction
Ġor d
re ct
ict ion
Ġrec ogn
ĠEurope an
" ,
Ġar ri
Ġb ank
nes day
urs day
Ġ4 0
ou d
ic ated
Ġmeet ing
Ġmem ber
Ġcurrent ly
Ġl ives
Ġadministr ation
r ain
b ased
Ġreg ard
ĠGe or
O R
Ġgo es
Ġf elt
Ġcou ple
Ġo il
o or
ĠS und
ov ed
ĠC or
9 9
Ġsim ple
Ġh uge
ĠP er
ĠSept ember
ĠO ff
Ġappro ach
Ġt ou
orn ia
Ġp ict
Ġt al
O ne
ruct ure
ĠG l
ĠH ill
Ġn orm
vert ise
4 0
Ġquick ly
Ġ ill
es e
ĠBrit ish
Ġm is
Ġteam s
Ġp ull
E N
Ġoff er
Ġem ail
ĠF eb
ĠB y
ĠN ovember
Ġp age
Ġth ous
Ġhe ard
Ġm atch
Ġv ia
Ġpartic ip
et y
ĠWed nesday
Ġint rodu
Ġb i
Ġne igh
im ent
Ġev ents
Ġsec ret
ĠC ourt
ĠTh ursday
for ce
ĠT V
Ġ +
Ġmet hod
Ġw ide
a ur
ch ie
Ġf ather
Ġhand s
ĠDav id
Ġto wn
b l
Ġeconom y
Ġh on
Ġco ver
an i
Ġbu ilt
a ily
en ces
ĠS an
Ġkn ew
Ġf re
ce mber
Ġnet work
Ġperform ance
en ed
Ġde li
Ġb oy
Ġre pe
Ġp ers
h a
Ġleg isl
f ace
at ory
Ġsp ent
Ġ2 1
Ġwebs ite
Ġen joy
Ġst e
ĠAug ust
? âĢĿ
ĠE l
Ġtra vel
e g
ess ion
ĠIs lam
Ġimpro ve
Ġto ol
Ġtri ed
' d
Ġl oss
ord er
es tern
Ġreve al
Ġd ig
Ġse par
Ġr ace
Ġ2 2
Ġnum bers
l in
ct ions
ĠAf ric
Ġvict im
l oad
Ġs ize
Ġpop ulation
Ġinclud ed
Ġl ower
ĠCalif ornia
Ġtr ade
Ġcare er
Ġv o
Ġvis it
ce ed
us es
um e
ĠU K
Ġallow ed
Ġwant s
Ġgrow th
or ters
Ġr ound
Ġeng ine
av y
Ġpo ll
Ġprodu ction
Ġf ear
Ġget s
Ġc ause
ĠOct ober
ĠA ng
Ġbeh av
m a
ĠCanad a
âĢĶ âĢĶ
ident s
ight s
2 00
ĠS ch
W ith
is hing
ĠSund ay
Ġbo ard
d own
Ġspe ak
âĢĿ .
Ġper fect
Ġmove ment
ide red
Ġf air
Ġpro gress
ra z
Ġen s
Ġs ong
Ġfe ll
Ġlook s
c ies
ĠH er
Ġpartic ular
Ġte xt
A fter
ĠK ore
Ġfor ces
all ed
ĠS w
Ġprev ious
Ġre ach
Ġb rought
ĠDe cember
ĠQ u
ĠT imes
Ġcont act
ib ly
ĠÂ £
y ond
Ġdem and
g est
ĠP aul
Ġatt ention
le ar
Ġm ention
ar th
und red
ar ily
Ġb an
Ġh ttp
Ġind epend
c ome
s et
Ġve h
Ġmor ning
Ġlead er
Ġr ac
u k
ur ning
Ġc itiz
Ġ2 3
se qu
ĠP ost
en ing
h old
Ġrul es
ec ause
Ġvar ious
ĠP ark
age ment
f ield
Ġh ot
Ġb ud
ic ation
!! !!
ra q
g round
i am
Ġ ess
2 2
A L
Ġlat est
Ġl ink
Ġmed ical
in ks
ĠPart y
Ġdo ll
Ġl iber
Ġcons idered
op e
) ;
Ġh or
ĠCent er
S h
Ġse arch
Ġpre p
Ġfeat ures
z e
ĠI S
Ġsl ow
ĠC ont
A C
om p
Ġre b
I C
Wh ile
Ġtalk ing
atur day
ĠBl ack
Ġim age
Ġco ach
u ments
ific ation
Ġhe ar
ap h
ĠSt reet
ond on
b ed
ĠI ran
Ġcrit ic
O S
Ġst ar
Ġs ens
Ġw ond
ĠK ing
ĠRuss ian
Ġstru gg
led ge
Ġdem on
Ġup on
Ġspe ed
ic les
v ent
o o
r im
Ġinvestig ation
as c
Ġsystem s
Ġs ort
Ġm ach
Ġs n
Ġex am
Ġtr aining
Ġcon duct
Ġf ast
Ġadd ition
co in
im ately
ĠI raq
Ġs on
ellig ence
Ġb ox
Ġp en
w o
ĠM ark
ĠP at
Ġser ious
p s
i ant
un k
t r
Ġsee k
Ġa chie
Ġ200 9
Ġparent s
E D
Ġwrit ten
Ġext reme
T r
in ing
e ff
e ared
Ġincre asing
u it
Ġp aper
Ġcr im
ar ies
Ġu nd
Ġlevel s
he t
Ġsur ve
Ġeff ort
f l
ib r
g es
ru ary
ill ed
im um
sy ch
Ġoffic ers
Ġse ven
Ġsoc iety
Ġprev ent
Ġlook ed
Ġcomplete ly
et h
Ġclaim s
Ġsc reen
ĠSen ate
p ir
ĠCount y
ys is
ic o
Ġcons erv
Ġ ...
Ġc ard
I T
Ġex cept
u f
Ġexact ly
Ġin n
Ġd raw
Ġn atural
Ġpr ison
Ġsp okes
Ġ200 8
Ġjob s
Ġreg ul
Ġmajor ity
Ġpartic ularly
Ġlear n
Ġdoc ument
ist an
Ġlangu age
il le
Ġdou b
Ġrequ ired
Ġexper ien
reed om
Ġr ange
ĠS and
u x
Ġmov ie
Ġob v
Ġext ra
Ġe ight
Ġinterest ing
ĠK e
U S
Ġattack s
Ġcon c
ĠS oc
b an
ad d
et t
Ġopportun ity
ly ing
Ġmess age
ro om
Ġocc ur
2 4
ĠS aturday
Ġpl at
8 0
Ġpri or
Ġimm igr
Ġd ro
ĠInd ia
Ġ *
Ġres our
in ally
Ġl ay
Ġdes pite
Ġh undred
r ast
Ġcar ry
it ch
Ġj ournal
Ġpo or
pp er
n y
ĠL ondon
Ġare n
Ġlead ing
os es
an ced
Ġcon vers
Ġdet ails
Ġst ories
Ġproduct s
Ġansw er
S he
Ġbl ood
ines e
Ġfin ally
? "
Ġst uff
Ġsc ience
Ġsur v
Ġn amed
Ġpract ice
ĠS er
Ġdescrib ed
Ġbig gest
Ġon es
Ġsex ual
Ġm iddle
ab or
ar i
is ions
Ġp aid
osp ital
am ing
Ġprot est
id ge
Ġqu ality
ĠE ast
Ġsomet imes
u ing
ar r
ĠFeb ruary
ĠT ex
Ġim ag
vertise ment
Ġdef ense
ent ially
Ġqu arter
ĠDon ald
i ers
Ġviol ence
h ib
Ġcl imate
Ġmod ern
av es
Ġus er
Ġp an
Ġrem ain
Ġk ids
Ġter m
id a
Ġ }
ĠC oun
Ġcost s
Ġchang ed
F L
augh t
ar a
ren ch
n ces
Ġcertain ly
Ġg as
ĠJ ew
ĠM ore
Ġg iving
Ġsum mer
m p
ĠS pe
ĠMus lim
Ġincre ased
Ġcontin ued
Ġgrow ing
ĠM or
ous ly
Ġdo g
Ġimp lement
Ġu lt
Ġt able
Ġf ix
ĠN et
N o
Ġshow ed
er c
Ġd anger
Ġgu y
Ġdam age
ut ions
Ġthink ing
Ġwrit ing
f ort
O P
Ġh ous
Ġc ross
uc lear
Ġ2 7
Ġp urch
ĠR om
ak ers
Ġa w
Ġstart ing
al y
A M
Ġread y
ĠRepublic ans
Ġr out
Ġrem ains
Ġsaf e
Ġp ath
row d
Ġreg ion
ĠG ener
ĠC he
ĠE ven
Ġd ied
Ġcall s
Ġmain tain
Ġpur p
Ġhist or
ĠI nt
Ġdirect ly
Ġeduc ation
ou l
Ġass ist
ens ion
Ġit em
Ġprov ided
e gr
Ġch ief
ove red
Ġwould n
ast ic
ĠMc C
Ġsp ot
Ġcor por
Ġreal ity
Ġcom ments
ĠLe ague
Ġus ually
ĠDemocrat ic
ĠCh ar
Ġmult iple
ĠD es
mit ted
Ġread ing
ĠC ons
Ġstand ard
Ġal though
p re
Ġper haps
Ġ ver
ĠSt ar
Ġpart s
op er
Ġm ent
in ated
Ġbe yond
z z
Ġro b
Ġcould n
Ġ il
ic ations
ic ks
us ing
Ġce le
Ġm ill
Ġc amer
en ge
in ary
ate ver
Ġeff orts
Ġav oid
Ġcoun ter
ab les
Ġto wards
Ġcon cept
Ġs le
Ġadd itional
ict ed
Ġun f
Ġspe ech
B I
Ġdesign ed
Ġfig ure
Ġse lect
Ġm ob
Ġsc ene
ĠMin ister
Ġ2 8
Ġcult ure
ur t
Ġwr ite
Ġcomple x
Ġfoot ball
Ġproper ty
ĠCh inese
ĠB ill
ur g
Ġcho ice
s p
Ġvot ers
2 3
Ġthrough out
Ġsaf ety
Ġrese arc
Ġsoft ware
Ġ2 6
Ġgu ys
Ġw ife
Ġep is
Ġdis app
Ġt en
Ġt ro
I m
ĠF irst
Ġcons ist
ĠM on
Ġimmedi ately
Ġg one
it or
Ġf it
Ġinclud es
Ġcent er
N ow
y l
ĠMich ael
Ġ( @
f ord
Ġrec omm
Ġthous ands
ag o
ar ian
Ġpress ure
Ġstud ent
Ġal one
w ise
il ies
Ġoffic er
d e
Ġplat form
ci ent
Ġcl os
Ġcomput er
it ute
Ġlet ter
Ġla unch
Ġchall eng
ir th
Ġsus pect
an ch
Ġrel ative
Ġpie ce
ic ient
Ġmov ed
Ġcle an
Ġrece ive
Ġse ll
ru pt
Ġn om
Ġcr is
A ll
ac hes
Ġc at
Ġre ached
Ġbl og
Ġpass ed
Ġc ast
Ġo ption
Ġey es
Ġf ile
---- ----
Ġst age
Ġcomm and
Ġs at
ĠInd ian
Ġto ward
Ġop in
Ġbat tle
Ġcharac ters
Ġs il
ĠJ ames
augh ter
am b
Ġeffect s
Ġre asons
Ġde g
Ġrem ember
ĠThe n
Ġmean ing
ad em
Ġa head
Ġdiffere nce
in n
ĠT ur
Ġag ency
ĠG reen
air s
he st
Ġpre c
ol ute
Ġmov ing
ock ed
Ġinc ome
ĠAss oci
ĠâĢ ¦
Ġ ut
Ġd ate
Ġn ature
ri ef
Ġdeb ate
ress ion
Ġdri ve
ĠE U
Ġf an
ĠR ich
Ġ19 6
Ġbegin ning
ĠTex as
ĠT or
Ġcond itions
ĠS chool
ĠI I
Ġhapp y
il es
o es
Ġd ark
et ro
Ġ ign
Ġtit le
Ġalleg ed
ro y
iv ity
Ġsub st
Ġs we
M y
ĠN e
Ġcent ury
Ġorgan ization
Ġfail ed
Ġdev ice
Ġp ark
om en
ĠApp le
ĠS im
ĠSu per
ust r
st on
Ġt our
Ġsc ore
amp ions
Ġhelp ed
R e
m ore
Ġco ol
Ġb al
ĠB o
Ġsp ending
Ġro ck
Ġc rowd
ven ue
n ew
Ġ Ð
Ġenc our
Ġappear s
Ġ6 0
it ation
Ġconf erence
Ġrelig ious
Ġcitiz ens
Ġdemon str
3 5
Ġst ra
ĠPl ay
Ġbud get
er ve
Ġlarg est
Ġme ant
Ġmy self
Ġpresident ial
ĠEng lish
Ġnecess ary
Ġref er
Ġsh own
Ġa im
ĠJ ack
Ġlim ited
Ġcont ribut
O T
ĠH ere
Ġb and
ch an
j ust
m en
Ġevent ually
ur ance
or ks
Ġmay be
Ġexecut ive
Ġpos itive
or ney
ĠDemocrat s
Ġnot e
ag on
ain t
Ġsc he
Ġconf ir
Ġb ott
Ġa ware
ĠS erv
Ġcop y
ĠR ober
ĠO f
Ġn uclear
Ġpower ful
Ġest im
Ġm ix
Ġs al
ĠSyri a
ent y
port s
2 7
w ood
Ġtr ust
ĠGerman y
uf act
ĠM ex
4 5
Ġdet ail
Ġw all
Ġfor ced
ber g
Ġch arge
Ġtw e
Ġfam ilies
Ġfe ature
Ġbr ain
Ġschool s
Ġstre ng
Ġle ague
Ġaut om
a res
Ġyour self
Ġcol lege
ĠB en
B e
N ew
Ġes c
Ġcandid ate
Ġtou ch
Ġfollow ed
y an
Ġil leg
ĠD ay
Ġfe ed
Ġcomp ared
Ġallow s
Ġcor rect
Ġweap ons
Ġ â
Ġdis p
Ġphys ical
Ġy es
Ġun ique
ĠE arth
le ase
Ġgr ad
2 6
Ġanal ysis
ress ed
ow ers
Ġf irm
Ġ x
D on
ĠM art
E C
en cies
Ġg ives
ĠC ap
Ġfre qu
Ġsen ior
a ud
k en
2 9
ĠA ir
Ġbook s
Ġcris is
Ġcrim inal
in y
Ġcr ime
c ul
Ġeas ily
ĠSm ith
Ġact ions
ir ing
c raft
ĠT H
Ġpolit ics
I s
Ġr ates
Ġcele br
Ġp us
Ġsign ed
Ġover all
Ġdec ades
Ġar ch
Ġus es
ĠF rench
ĠUn ion
Ġan g
Ġprev iously
Ġn ice
Ġcent ral
Ġbenef its
Ġtr uth
ĠGo vern
Ġsus p
Ġr ap
Ġth row
B y
Ġide as
ot i
) :
Ġindividual s
ĠD is
A ccording
Ġsp ir
b and
ĠB el
A P
Ġprom ot
Ġtreat ment
Ġvar i
er ry
Ġdevelop ed
ĠCoun cil
er o
Ġl if
Ġapp eared
r s
b on
Ġbro ther
res h
Ġcontin ues
ĠV al
bo ard
Ġ2 9
Ġcred it
A D
Ġcustom ers
sec ut
S ome
Ġsm art
Ġvo ice
Ad vertisement
2 1
ic it
Ġre form
ĠIntern ational
Ġsp read
Ġdo or
Ġexp and
ĠGeor ge
ut y
ite ly
n own
Ġal tern
P ro
Ġgo als
Ġcle arly
Ġwe b
U n
Ġp sych
on ents
Ġint elligence
Ġproject s
Ġstra ight
ub e
Ġnot ed
Ġpolic ies
p art
Ġapp arent
Ġpl ant
Ġdis play
Ġpl aces
Ġanal y
Ġst o
Ġseem ed
ww w
Ġbe aut
ĠW ind
ĠPol ice
e an
cl us
E T
ĠAustral ia
Ġind ic
Ġl ines
Ġfull y
b um
Ġlarg er
Ġdeter min
Ġstud ies
Ġgreat er
Ġtr aff
ĠAng el
Ġrel ated
2 8
Ġconf lic
Ġr ule
I A
iver se
or ter
se y
Ġst yle
Ġc ities
ĠT om
Ġl ic
ĠR ob
ol ic
ri age
Ġatt ract
d om
Ġdis e
ant ly
ĠM ac
Ġmin or
Ġem b
Ġke pt
Ġhigh ly
n et
Ġf ine
Ġpre m
Ġchall enge
ch ange
Ġinc ident
Ġd raft
I D
at tle
Ġh ar
Ġpr int
Ġsuccess ful
Ġfight ing
ro ll
Ġactiv ity
Ġorgan iz
Ġd rop
Ġpat ients
os h
Ġknow ledge
Ġadv ant
ĠA nt
Ġmeas ure
Ġ200 7
Ġsp end
wh ile
oc ks
Ġg reen
ĠWe ll
od ay
Ġstat us
O M
ĠB rown
ol es
Ġknow s
1 00
Ġca used
ic ed
ter m
Ġm ist
Ġresour ces
Ġsour ces
ate gy
Ġpe ace
Ġs ales
Ġemploy ees
ĠFl or
Ġha ven
Ġint egr
ĠFr anc
Ġshoot ing
Ġprogram s
Ġman ufact
Ġcharg es
b ox
Ġcall ing
Ġown ers
Ġfe et
Ġf a
am m
Ġr are
ĠH igh
Ġmin ister
qu e
Ġresearc hers
Ġlit er
il ed
Ġen force
ĠE very
Ġgr and
p en
Ġs end
Ġla un
Ġman ager
Ġprim ary
Ġem ot
Ġopt ions
Ġh ospital
it ness
ound s
Ġfem ale
7 0
ĠB re
Ġreg ular
Ġle aving
Ġim pl
Ġsa ve
w ide
Ġagree ment
ĠR ec
ĠChrist ian
Ġl ik
Ġen em
al se
. âĢĻ
um an
or g
Ġtrad itional
Ġend ed
i ance
Ġfund ing
Ġadd ing
y a
Ġbe at
id ers
Ġgo ld
k i
ĠF rom
Ġnorm al
Ġp un
Ġr ise
ud d
Ġauthor ities
eng th
ĠCom p
ĠGener al
Ġe le
Ġwa it
Ġclaim ed
Ġact ual
Ġp ush
Ġtr ou
Ġsl ight
Ġconcer ns
lic k
Ġcol or
ve re
ĠAr ab
ing ly
lev ision
m iss
se e
Ġad op
Ġbas ic
Ġsupp osed
ĠRe g
ear ch
Ġb irth
Ġabs olute
S A
ĠEng land
ĠSc ott
if ying
ic ago
Ġens ure
Ġsh ut
Ġ ir
Ġcreat ing
Ġwh atever
Ġhapp ens
ĠB ay
N ot
Ġjud ge
s pect
Ġtem per
Ġref lect
ĠB it
m ark
ĠG old
Ġra ised
H ere
Ġcom mer
3 3
Ġf reedom
Ġsee ing
____ ____
Ġc ry
Ġbehav ior
rib ution
Ġey e
ĠIntern et
ĠD ef
m ission
Ġme chan
Ġf at
A r
ĠU p
C on
Ġn ames
ĠM ost
Ġpr ices
Ġbe g
ol f
ad o
E O
ĠA ccording
ro id
Ġmass ive
Ġestab l
Ġv ac
. '
Ġmost ly
mit tee
Ġfeel ing
ĠM o
Ġj ump
ĠL et
ĠTr ans
Ġval ues
Ġac qu
r am
ĠA lex
ĠB ush
ĠFr ance
Ġrest r
Ġbenef it
Ġweek end
Ġdr ink
Ġoff ered
ĠFlor ida
v est
ign ed
ic a
Ġres idents
Ġprop os
g en
Ġst ation
Ġlaw y
v ille
ĠM ag
Ġr ank
Ġprodu ce
Ġcho ose
Ġarrest ed
Ġstre et
Ġapplic ation
ot a
Ġhe ro
Ġwond er
ĠL ou
Ġar m
on ent
Ġsc en
Ġreveal ed
Ġconfir med
9 0
Ġfavor ite
Ġbelie ved
Ġapp l
Ġob ser
ing er
S c
Ġm ission
Ġd istrict
Ġb rief
Ġwh om
ri al
Ġdev ices
ĠPh il
IN G
Ġte ac
Ġpart ies
ĠHe alth
ro l
Ġw ild
5 00
Ġal bum
Ġinst all
Ġmem ory
Ġindepend ent
t ies
ĠComm ission
ord s
Ġad ult
av a
Ġdoll ars
u ild
Ġpict ure
a e
Ġstr ategy
ist ry
Ġw at
Ġwill ing
âĢĿ ,
ĠL a
Ġet c
Ġ Ã
it ude
ic ial
ĠSt ud
ã Ĥ
Ġqu al
Ġneg oti
Ġag reed
Ġl ose
on a
Ġt ick
ac ing
Ġche m
Ġim ages
p ri
Ġlear ned
Ġass ault
Ġpost ed
ĠPe ople
Ġprodu ced
ĠS un
Ġrecord s
Ġent er
Ġun s
Ġinflu ence
st e
ab y
Ġinvest ment
ĠL aw
ĠB er
Ġspec ies
Ġadv oc
ag s
or ial
ak ed
Ġt end
Ġask ing
c her
ĠHill ary
Ġdeb t
Ð °
E x
ĠP ress
Ġopp osition
Ġshow ing
Ġm ount
Ġe th
Ġ ice
Ġtri al
Ġv irt
ri an
ĠA P
ic ians
E L
Ġlear ning
Ġc ru
ĠO ther
Ġsol ution
ci ence
Ġd ire
ent ed
Ġoper ations
u gg
ĠSec ret
== ==
How ever
or row
Ġc ars
Ġse ction
Ġdef end
Ġwe ight
li ament
n o
Ġc ore
Ġsle ep
Ġeffect ive
Ġrun s
ĠM od
Ġr at
Ġprov ides
ĠW all
Ġinterest ed
Ġwor se
ĠL iber
ĠCh icago
ĠSand ers
Ġcrit ical
ĠP ort
r ont
ri ption
Ġbr and
Ġrepl ace
Ġpat tern
Ġlim it
Ġm ale
ĠWh y
m ine
m ar
Ġdig ital
Ġk ick
Ġtyp es
ber t
ce ll
ect ion
Ġsur round
ĠW estern
Ġgener ally
we ll
p oint
C l
ra v
Ġrespons ible
Ġsh ip
Ġm er
Ġch air
est ic
ĠB ecause
ĠCom mittee
i as
S T
Ġres ist
u ana
Ġneigh bor
ĠJust ice
ĠS am
oc r
Ġm ur
Ġv ill
Ġthe ory
Ġexpl ained
com ing
ĠN FL
ĠPal est
Ġb ur
Ġb order
c ont
Ġth us
out hern
Ġocc as
Ġco al
ĠO h
The se
land s
ĠKore a
Ġdef e
Ġtr ain
Ġopen ing
Ġmill ions
w in
Ġoff ers
Ġunderstand ing
ĠFranc is
4 4
ĠB ank
ĠD el
ort hern
Ġ8 0
ĠV ir
Ġhig hest
Ġopin ion
Ġdest roy
i h
Ġon to
Ġbecom ing
Ġhe avy
ĠM at
Ġte ach
Ġprop osed
Ġnot ice
ill ing
Ġpart ners
ĠO ur
Ġd aily
ĠSec urity
Ġs pl
Ġsepar ate
Ġbas is
Ġre ject
Ġbecom es
h ttp
Ġcond ition
Ġwin ning
re y
Ġhundred s
Ġb ed
ĠM il
ĠC up
i os
Ġob tain
Ġser ve
ĠL ab
ĠJ er
Ġlegisl ation
Ġbott om
Ġn ine
Ġilleg al
Ġte levision
so ft
ad ing
Ġst ructure
Ġredu ce
ĠH all
ĠCanad ian
Ġass um
ict ions
h ouse
Ġadvant age
ĠU k
Ġhe aring
Ġco verage
Ġjo in
3 6
o om
Ġopen ed
Ġextreme ly
ic ip
Ġser ved
Ġb orn
o ly
az ing
I L
ĠComm un
Ġun like
ur ies
k nown
ĠOff ice
Ġl oad
Ġput ting
he m
ĠC r
ĠH am
Ġmil es
Ġepis ode
Ġapp eal
Ġph oto
ĠM any
Ġannoun ce
te red
ĠM ike
Ġbelie f
Ġachie ve
Ġmach ine
ĠM al
Ġas pect
Ġtrans fer
Ġstri k
Ġanim als
G B
Ġst ated
Ġd er
ĠU N
Ġscient ists
Ġneg ative
Ġprofess ional
wit ch
M r
Ð ¾
at ically
Ġr an
ĠO ver
Ġv s
Ġcontro vers
Ġinit ial
ĠF ound
Ġinc red
Ġacc used
Ġmar riage
G et
Ġsh ared
Ġassoci ated
ad a
B A
Ġcamer a
Ġc ateg
i pe
C H
Ġp urs
Ġreturn ed
l a
Ġeas ier
ili ar
i pped
3 2
ij uana
Ġact ive
Ġ200 6
z en
Ġam b
Ġdoc uments
O U
Ġpurp ose
ill er
Ġaud ience
Ġins urance
ĠBrit ain
if ul
Ġdou ble
z a
Ġh arm
Ġveh icle
Ġexist ing
N A
Ġf resh
ĠCh urch
u pp
Ġintern et
Ġdep artment
Ġs un
Ġman agement
Ġm icro
Ġsit es
ĠG et
ortun ately
ĠFr ank
Ġtraff ic
Ġ3 1
Ġloc ation
in ate
om as
ear s
Ġcan cer
ĠY our
Ġvictim s
Ġsol id
ul f
and on
ĠMed ic
Ġleaders hip
ĠA tt
Ġb omb
ĠS up
el ine
Ġinst ance
r ig
Ġdoub t
Ġch urch
w orks
Ġwe alth
and er
Ġh ack
Ġdanger ous
Ġref ere
ak s
Ġm ap
Ġsupp orters
Ġfl oor
Ġlab or
le vel
3 7
Ġsp oke
ac ity
Ġarg ument
Ġwatch ing
Ġsupport ed
Ġcell s
ĠF BI
00 00
Ġdri ver
Ġset t
Ġd aughter
od es
Ġvict ory
B l
ĠW il
Ġfa ith
Ġcharg ed
Ġentire ly
Ġd ed
ant ed
ist ics
ĠG reat
Ġiss ued
Ġcommun ities
Ġ9 0
Ġelect ric
Ġ3 5
Ġcl osed
in ct
go ing
gh an
Ġitem s
Ġc ards
l or
Ġenforce ment
Ġrepe ated
ĠCh ris
Ġnot es
ĠM ad
ĠG ame
Ġcom fort
Ġview s
Ġn or
ograph y
ĠInst itute
Ġexpl ain
Ð µ
S P
ĠG ree
Ġback ground
F C
Ġfr ame
act ions
ĠIn c
Ġlaun ched
ad y
ibr ary
ĠAd d
Ġcommer cial
3 8
ĠAr t
Ġconserv ative
ĠIslam ic
Ġrad io
im b
ĠS ince
Ġsur face
ĠL ike
Ġno vel
Ġn orth
rib e
it t
ĠWind ows
Ġcomp ar
Ġexper iment
Ġjo ined
Ġdefin itely
Ġh us
ct ors
3 4
Ġdisc overed
g ency
Ġm ax
Ġcommit tee
ĠT re
il ing
ĠM icro
Ġun it
O L
Ġrequ ires
Ġ200 5
Ġrest aur
Ġconcer ned
ĠUk rain
ĠJohn son
A meric
Ġdri ving
ĠF in
ĠL os
ar ant
Ġf alse
ĠS il
ĠIsrael i
res p
ĠK h
a it
Ġallow ing
e qu
Ġhold ing
om an
Ġbelie ves
is ation
Ġocc up
ĠE v
ĠD irect
wh ich
Ġs an
ĠRober t
Ġw itness
Ġtre nd
l o
Ġsuggest ed
Ġsmall er
d o
Ġcompet ition
m et
âĢ ¢
rib ute
Ġph il
Ġgener ation
Ġtell ing
az on
Ġwe l
Ġd ie
Ġb anks
our ce
Ġfind ing
ic i
l ant
5 5
Ġt im
Ġe at
Ġconst ruction
Ġplan ning
Ġha ir
Ġwor st
Ġpl ays
n ight
ur b
Ġple ase
ĠM P
Ġjust ice
ĠQ ue
Ġf uel
! âĢĿ
ĠP C
ampions hip
ĠCar ol
o very
Ġbl ue
ĠP ri
ĠF ox
Ġdec ade
Ġphot os
Ġconcer n
Ġ7 0
Ġatt end
Ġtool s
it z
Ġbusiness es
Ġmob ile
e y
Ġaff ord
Ġdire ction
ĠA re
Ġk id
Ġann ual
Ġtr uly
Ġold er
4 8
ul ated
Ġspir it
ĠA M
Ġgu ess
Ġdrug s
N N
n el
Ġhous ing
Ġstreng th
r ad
Ġst ock
ter y
Ġcon sequ
Ġl ength
T C
ĠS al
Ġra ise
Ġc aught
ow l
Ġlarge ly
i ation
Ġc ash
Ġdown load
ĠB ig
Im age
h ow
Ġr ough
it able
Ġcont ext
i pp
Ġear th
iz es
i us
s pe
b ut
Ġpl aced
ĠSup reme
v ention
Ġcont ain
ĠAssoci ation
Ġwa iting
Ġhom es
ĠT y
Ġmur der
Ġpres ence
E M
Ġex erc
Ġg e
app ed
Ġfar m
ã ĥ
ang ing
M ore
Ġrecomm end
s erv
oss ible
Ġestabl ished
ĠM iss
k in
3 9
Ġmiss ing
ĠVir gin
Ġuse ful
Ġprov iding
ph one
ĠP M
an cy
Ġtrans port
Ġactiv ities
Ġgirl s
Ġc ook
se mb
ĠLe g
4 7
b our
and om
as y
P S
Ġb ul
Ġcandid ates
Ġdise ase
ĠLou is
os ure
es c
Ġown er
ann el
wh at
ĠJ eff
ĠA c
Ġstr ateg
cept ion
ĠJ ud
Ġt ask
ĠV er
ĠSt ep
oy al
C C
Ġident ified
Ġacc ur
ĠInst ead
Ġarri ved
Ġc atch
m ail
f erence
i able
ĠG roup
Ġsc ale
az ine
ic y
Ġconvers ation
Ġmention ed
Ġsto pped
ot ed
ĠAf ghan
O ur
ĠS ur
Ġtell s
Ġdeli ver
est s
f e
ĠJ ones
Ġcirc um
h i
Ġdec isions
ĠPro f
b re
w ing
ĠAfric an
Ġspokes man
ar io
Ġg ay
Ġtax es
ck now
ig an
Ġcre w
ve red
il s
ic on
ocr acy
Ġfund s
Ġag gress
Ġ200 0
Ġrelative ly
ĠAngel es
ĠMex ico
Ġhigh light
Ġd at
ont o
ĠM er
Ġtest ing
Ġintrodu ced
v ant
ĠAr my
âĢ ĺ
ver se
Ġse qu
Ġoff ensive
Ġinterest s
Ġsk ills
Ġst ick
Ġmeas ures
re es
P A
is f
Ġconflic t
in ter
Ġsu st
Ġdet ect
ĠJapan ese
ad ium
an ia
Ġconc lud
Ġplan et
st itution
Ġ201 8
om s
Ġconnect ion
ĠAfric a
Ġf ant
Ġestab lish
B S
Ġset ting
k ins
ĠPalest in
oc al
Ġhas n
Ġref uge
gy pt
l ig
up s
Ġupd ate
ĠM et
Ġstep s
Ġman aged
Ġslight ly
ĠK en
Ġthere fore
Ġfeel s
ĠRich ard
4 9
Ġfoc used
r ick
Ġmar ijuana
Ġa ward
Ġs outh
Ġinit i
Ġfour th
Ġident ity
Ġcommit ted
Ġf le
Ġrem oved
Ġstri ke
Ph oto
Ġass ess
ĠC EO
g a
re al
a ven
ĠP re
Ġcomm ission
ag n
ron ic
Ġkeep ing
dd en
ill a
Ġnews p
igh ter
ul ate
Ġinj ury
Ġobv ious
ĠJ im
Ġt ough
D A
Ġgr aph
ul a
ĠM ary
ĠF ore
Ġfail ure
Ġother wise
! "
um n
Ġstand ards
Ġappro pri
ĠGovern ment
c ks
ĠBit coin
y m
ĠY es
e ah
Ġpart ner
m as
Ġapp oint
c ious
anc ing
Ġprotect ion
Ġsurve y
uck y
Ġhus band
Ġbe er
el ess
Ġenvironment al
Ġter rit
it er
ĠM ont
ens es
ĠAl though
Ġab use
Ġoper ation
out s
ony m
Ġspe ct
ĠP ak
Ġpre fer
w ith
Ġmod els
Ġhe at
Ġa cknow
ĠG ood
pl ace
Ġn one
ĠJew ish
** **
hed ul
g u
Ġcor ner
ĠG OP
Ġsuggest s
u ke
Ġtal ks
Ġsecond s
ans ion
Ġplan ned
Ġsu dden
are n
Ġdiscuss ion
Ġsp orts
Ġfig ures
P l
i ams
u ct
Ġfam iliar
L e
Ġst ruct
ĠT im
6 4
Ġneighbor hood
oll y
Wh y
ĠS ub
Ġme re
r ange
R A
ĠN or
Ġfin ished
Ġp et
Ġimmigr ation
Ġorganiz ations
od ies
Ġtrans form
g ar
p et
ĠI r
Ġanim al
Ġdep end
Ġkill ing
Ġex change
Ġphil os
m akers
Ġdef ensive
Ġ200 4
Ġrev olution
se ason
Ġgu ard
id ering
ad ed
Ġr ich
ĠRes earch
Ġaccount s
Ġw ish
Ġve ter
is er
Ġrem ind
Ġdec ide
d en
Ġstand ing
ab b
Ġmult i
ĠTh omas
Ġhappen ing
er ous
ob by
ren cy
Ġsupp ly
!!!! !!!!
Ġele ments
Ġturn s
it ect
Ġcol lection
Ġprofess or
Ġcl ick
k a
g ers
ĠR yan
Ġwe ak
Ġdro pped
Ġfl ight
ĠIn ter
an o
ĠPr ime
Ã ¡
Ġro ll
Ġsub sc
ĠSecret ary
pro f
Ġam azing
in i
Ġp it
Ġfil es
yn am
Ġg ain
Ġpr inc
Ġscient ific
Ġfil ed
Ġvar iety
Ġstart s
ĠR ock
Ġtri p
Ġ3 2
Ġfell ow
ĠT er
ĠThe ir
ack s
Ġthan ks
Ġcar ried
Ġun its
Ġrelig ion
ĠM ars
ĠServ ice
ut ers
and a
Ġhelp ing
Ġsk in
ĠS l
ĠTe am
Ġspe aking
Ġag encies
Ġtwe et
Ġs ides
Ġtrans l
Ġment al
# #
ĠMart in
Ġtest s
Ġwor ry
u ate
Ġhum ans
Ġbig ger
Ġm igr
Ġtw ice
hen s
ĠSyri an
G o
ĠT wo
Ġcut s
ĠF ed
Ġsc hedul
ĠB ern
g n
ost on
Ġincreasing ly
Ġac adem
re ci
Ġimp ossible
Tr ump
Ġun ivers
Ġcorpor ate
ste in
Ġsound s
ort ion
Ġset tle
Ġv ast
ĠO ut
ĠAnd roid
ĠU s
ĠJ ose
Ġhon est
ag ues
R ead
ĠE gypt
Ġp air
Ġsol ar
ĠCol lege
ĠT ime
Ġpay ing
Ġco ld
i ot
Ġl osing
Ġinn ov
Ġseek ing
L ast
ĠC amp
Ġbal ance
Ġauthor ity
ic ide
Ġdeg ree
Ġabsolute ly
ip ment
Ġsc ript
] .
ĠL at
Ġm ut
âĢĶâĢĶ âĢĶâĢĶ
7 8
ĠB ur
Ġco vered
Ġt ast
Ġfund ament
Ġdom estic
ol a
ĠR o
anc he
u nder
Ġpro spect
Ġaltern ative
r d
Ġd in
ad er
ru it
rast ructure
ĠAl so
is her
ĠP et
Ġun less
Ġposs ibly
ĠS T
Ġult imately
Ġcol le
st ream
Ġchang ing
Ġapp ly
ĠMicro soft
ĠR ub
ĠD ec
Ġcap acity
Ġmark ets
7 5
U p
Ġwind ow
ĠCent ral
Ġsit ting
Ġvot es
Ġh ate
ĠAm azon
H L
Ġun ion
Ġar my
Ġsh all
O f
ol it
0 1
c ons
en ced
Ġimag ine
as hed
Ġdevelop ing
Ġfam ous
Ġapparent ly
ay er
E ven
ĠJ oe
Ġl ived
Ġatt orney
Ġregard ing
st ate
Ġv ision
Ġint ended
Ġposs ibility
Ġexp ensive
oc ol
Ġopt im
Ġsc r
w ar
Ġdevelop ers
Ġf ired
Ġgu arant
Ġt ack
ĠL ast
Ġpresent ed
rou d
ist ed
ap ers
ĠFound ation
Ġclos er
C A
Ġstre ets
Ġel im
Ġst ars
Ġsold iers
Ġfore st
ore s
Ġbeaut iful
ĠP ublic
ar ks
Ġfact ors
Ġpro secut
rib le
ĠTor onto
Ġhealth y
Ġar ms
Ġoccur red
Ġ4 5
Ġap art
ĠM ass
r un
6 5
J ust
ĠM iddle
Ġcar bon
Ġbro ke
Ġoper ating
ĠD istrict
Ġapplic ations
at ures
ĠUS A
Ġo dd
por ary
our s
Ġbro ken
Ġcons ult
ed ia
ĠF ire
ĠAn y
Ġfl ow
Ġexper t
Ġ ;
ur ation
ĠPl an
rel ated
ĠCarol ina
Ġ19 5
3 1
F rom
9 5
in ating
Ġexper ts
Ġcoun cil
ĠFrancis co
c oh
Ġwrit er
Ġpie ces
ĠC ath
ĠJ o
Ġtr ail
ĠVirgin ia
v is
Ġp il
Ġpr ime
ĠO pen
Ġg ar
ain e
ĠU nder
Ġsurpr ise
le ts
cl ass
Ġrap id
Ġqu e
Ġex clus
a wn
p erson
Ġf if
Ġrul ing
Ġintern al
Ġr id
ĠD en
l ook
ĠJ on
olog ies
Ġg ender
ĠIm ages
D es
D o
Ġt on
u zz
Ġde ploy
ĠO nce
os en
Ġpers pect
Ġb reat
Ġgovern ments
ĠS ol
ĠCh ief
ust er
Ġer ror
p m
idd en
Ġchem ical
Ġelect ions
L et
Ġelect ed
th at
ov ing
ĠWe b
Ġmin imum
ĠAt lant
ĠWh o
Ġad just
ĠSoc ial
p ire
ĠWill iams
Ġse a
Ġinst it
Ġhelp s
ĠGu ard
I V
Ġbring ing
Ġb row
Ġtro ops
Ġfor ms
I P
on om
ĠTh ose
Ġequ al
ĠLe e
Ġv ul
an ish
ĠCons erv
c ol
ĠJ es
ph as
Ġf ol
et ic
Ġse asons
Ġher self
Ġse ctor
Ġvot ed
Ġdeter mine
h and
ri e
ress ive
g l
Ġmin ute
re ens
h y
Ġspecific ally
ra ud
Ġt ourn
Ġrespons ibility
Ġsy mb
Ġre venue
Ġconv ention
ĠF e
Ġpl us
I G
ter day
Ġser ver
ock ing
Ġweap on
ĠJ ournal
.. ..
ĠPar is
Ġm ort
Ġveh icles
A pp
Ġestim ated
Ã ¤
ĠF ederal
Ġprep ared
Ġst ret
Ġref used
Ġconduct ed
ĠB oston
Ġ id
Ġequ ipment
o ch
od d
ic ate
ĠA ri
Ġhe av
ĠP ut
Ġh un
Ġc as
ap ter
D P
Ġsec ure
4 6
Ġdr am
Ġinf rastructure
ĠS ing
A b
ĠP eter
Ġte en
E very
Ġsp ort
stand ing
ĠB oth
ĠA T
all s
Ġrem ained
Ġpropos al
Ġv ir
Ġreg ime
Ġa st
Ġh urt
Ġs ch
Ġoff ering
ĠG al
ĠD uring
ĠS her
ĠS pr
ro ad
Ġpriv acy
ro s
ot y
Ġb ought
ri er
O W
Ġ199 0
Ġm aster
ol ved
Ġs ale
Ġgreat est
l ife
as p
Ġre act
Ġt ight
Ġcl in
cl usion
Ġear n
Ġorig inally
Ġpro ve
ĠF ree
Ġappear ance
Ġp owers
in ent
Ġwide ly
Ġsh ape
Ġcomb at
( )
Ġwere n
, [
n oon
Ġse lling
Ġredu ced
Ġf aster
cent r
Ġbo ost
Ġst ress
Ĥ ¬
Ġpl ants
Ġc art
Ġer a
ĠB BC
Ġpl enty
Ġhand le
Ġaffect ed
Ġobv iously
Ġloc ated
Ġt act
Ġwe aring
ru ption
ar p
Ġj ail
ĠM os
au c
p ired
ve y
Ġpull ed
Ġpot entially
Ġpoint ed
Ġret ail
ĠA N
use um
m osp
Ġexpress ed
igh ters
Ġacc ident
ĠM el
i pping
M A
ĠR iver
Ġb ound
Ġfact or
Ġcritic ism
Ġchalleng es
Ġpos itions
ĠAustral ian
S S
Ġinvol ve
Ġexperien ced
C L
ĠB ook
ce an
Ġr andom
S ince
F irst
or age
ĠTH E
W ell
I ON
Ġpolit icians
ro g
Ġdep art
Ġpred ict
Ġsh ift
Ġpercent age
Ġexc ited
y r
Ġn ut
Ġrem ove
Ġlead s
6 6
ĠC ur
Ġtalk ed
Ġmethod s
Ġun iversity
s en
ĠM ur
Ġcl ot
Ġcons idering
I nd
Ġp ages
Ġfin ish
Ġhy p
Ġcult ural
Ġgl ass
Ġrem aining
Ġat h
t ion
Ġb aby
Ġth r
Ġpro ceed
Ġrecord ed
Ġconst itution
Ġtyp ically
] ,
ĠR em
ess ions
Ġdisc l
ol t
Ġconst ruct
ĠB et
Ġarg ued
Ġqu ant
Ġdist ance
Ġfac ing
Ġn ar
ĠFor ce
Ġmod e
EN T
Ġy ards
Ġhop es
Ġup gr
Ġpurch ase
Ġe c
Ġapp reci
ĠB at
al ing
ash ion
Ġcomb ined
Ġvot ing
Ġsurpr ising
re land
un ction
Ġemer gency
ll er
Ġg rew
Ġte le
ow nt
Ġse at
Ġsign s
app ing
Ġsignificant ly
Ġafter noon
Ġind eed
ĠP lease
Ġthan k
Ġag ent
Ġ5 00
om pl
ra wn
g ment
ĠD aily
Ġsat isf
Ġopp osed
Ġdep th
Ġend s
Ġref erence
Ġcomple ted
Ġident ify
Ġtr ig
Ġair craft
ĠSte ve
he red
ly n
, âĢĻ
Ġyou th
Ġmat ters
4 3
Ġtre ated
Ġs witch
Ġdef ault
h ab
Ġfr ustr
Ġden ied
Ġa id
Ġd ream
it a
ok en
Ġsupport ing
Ġfil ms
Ġmot iv
Ġm al
Ġopportun ities
id el
Ġpro ced
Ġtrou ble
Ġdetermin ed
ĠPro t
Ġre new
Ġbel ong
Ġdisapp oint
ĠLab our
Ġappro ved
Ġw ood
Ġbuild ings
c are
Ġ200 3
ĠP enn
Ġeven ing
ĠH aw
ens ions
ang ed
ac he
z er
ul ations
Ġlot s
ĠS cience
P e
r ant
Ġcon centr
coh ol
T V
at o
Ġvul ner
h ost
ĠM att
ĠR ad
Ġpan el
or al
Ġdis miss
ly mp
Ġthough ts
Ġinj ured
Ġb odies
Ġmov ies
l ines
ĠSt an
Ġstrugg le
O ver
Ġd im
Ġt urning
tern al
Ġcre ation
Ð ¸
Ġappro x
Ġexp ansion
ani el
Ġun able
Ġreport ing
P R
Ġm arg
Ġd ial
Ġ200 1
Ġrep orters
er ved
Ġf ish
Ġh ol
4 2
à ¸
om a
ĠI N
raz il
Ġsub s
Ġvis ual
Ġse m
S e
P U
Ġz one
Ġbas ically
ce l
Ġconsum ers
ov es
ar l
Ġcont rast
Ġrespond ed
Ġvide os
P D
Ġlist en
ne ll
al ed
Ġsp ring
ĠIs land
Ġconf ident
Ġco ord
Ġpack age
end ment
Ġcoll abor
Ġs ac
ĠS um
ĠN AS
Ġour selves
, '
ive red
Ġb urn
h t
m m
t op
ĠS aud
Ġspl it
Ġnum erous
Ġattempt s
ĠY et
Ġre nt
os ite
Ġinst ruct
ĠSh ow
Ġord ered
resp ond
Ġcircum st
Ġarch itect
Ġfl ood
Ġbroad cast
on na
ĠS ant
Ġprom pt
az a
Ġadv ance
Ġdiffere nces
Ġfor get
Ġliber al
Ġc raz
Ġupd ates
Ġqu iet
Ġfor g
C ont
ans as
Ġexpl os
i i
ist ered
Ġcap able
Ġwrit es
ĠR oad
ok ing
L E
ob e
Ġacc ompl
Ġval id
Ġsuff ered
Ġ198 0
Ġdisc rim
I M
w ord
il it
ĠT oday
im al
Ġdis s
ribut ed
ff ee
Ġtechn ical
Ġpass ing
us iness
Ġent ertain
Ġdat ab
p ass
Ġp roud
w rit
ĠGr and
f ree
Ġtrad ition
ound ed
Ġc raft
Ġtrans ition
u ous
ĠPh ot
Ġconnect ed
Ġser iously
ĠI reland
Ġon going
ner gy
k et
Ġexperien ces
in als
T H
is hes
D e
Ġcal cul
Ġset s
Ġg ather
Ġsu it
is ters
Ġphilos oph
amp ion
An other
Ġg ra
Ġi Ph
Ġcr imes
0 5
il ty
ill ance
ĠH uman
Ġdecl ared
Ġdel ay
ĠDirect or
H is
er ation
Ġar ray
Ġgun s
Ġat mosp
uth ors
ĠChrist mas
Ġapp s
Ġedit or
Ġv an
ĠR on
Ġcent re
ĠC ru
og ue
S p
ĠMed ia
ap ed
Ġstate ments
c an
Ġinstit utions
Ġexpl ains
Ġl oved
Ġre action
Ġpick ed
ab ilities
du le
ĠPh oto
Ġcr ack
Ġconf idence
un te
ĠB ack
Ġpict ures
Ġexpl o
ĠO lymp
Ġe lement
Ġt ree
ad or
Ġadv ice
Ġcapt ion
Ġcopy right
ed s
ĠS ov
a o
Ġperspect ive
ĠUkrain e
Ġpract ices
Ġenem y
ill y
Ġar med
res ents
es ters
Ġeffect ively
Ġco ast
Ġf illed
Ġse vere
Ġad mitted
u ations
or se
Ġfac es
Ġwith d
Ġshould n
Ġ \
ĠS qu
ĠM em
Ġpublic ly
Ġconf irm
Ġsecret ary
ell ow
k ay
as tern
Ġcont ains
Ġart ist
ain ts
ĠR el
Ġwe ather
Ġab andon
Ġag ents
x ual
ĠW ood
ĠChar l
f ire
em ploy
Ġsubst ant
Ġem ails
Ġwalk ing
Ġstand s
ĠSy stem
Ġmess ages
4 1
Ġpat ient
Ġp itch
ĠCol umb
Ġmar ried
ĠP ower
Ġfl at
Ġf raud
ĠAnd rew
n ame
Ġnewsp aper
ĠP ac
Ġgovern or
ĠWill iam
ĠMich igan
R ep
Ġviol ent
Ġco oper
C an
ed d
Ġlawy er
ĠT al
ĠL ake
ell y
Ġs am
o oth
c alled
ĠF ollow
Ġcl oud
O h
Ġm and
l aw
or ry
Ġt un
ab in
Ġem phas
ĠW al
Ġle aves
Ġne ither
uc ks
r id
ent ure
ĠAfghan istan
Ġdel ivered
av or
Ġreported ly
Ġexam ples
en ger
Ġpo ol
ĠSp ace
Ġtemper ature
Ġf ly
Ġex cell
en a
Ġdes ire
Ġmag azine
Ġs ession
Ġleg it
Ġg iant
ess or
A m
Ġdeb ut
Ġappropri ate
Ġdo ctor
ĠSc ot
Ġca uses
Ġhttp s
M any
l ong
ion ally
ĠPro ject
ar ters
Ġrad ical
Al though
ĠPak istan
T A
L S
ĠM ount
Ġper man
Ġsub sequ
Ġinc or
ĠW ars
Ġsh op
Ġreal ize
D uring
Ġrout e
0 4
Ġcl ient
ad ow
O ther
Ġdecl ined
T ER
d ate
ĠJack son
Ġarg ue
form ation
Ġpr in
ĠSw ed
pl om
Ä ĥ
ide o
Ġro t
r ich
Ġp hen
Ġout put
Ġnear by
Ġactiv ists
ab led
Ġs ad
Ġres ident
Ġappl ied
ĠB razil
ĠCol or
Ġindust rial
Ġl ie
ĠRe ad
ac ter
ĠN ov
Ġlink ed
= "
al a
Ġread ers
ev in
Ġconsum er
Ġobject s
ĠTur key
end a
Ġschedul ed
ĠD an
Ġtot ally
ul s
ĠG ames
Ġs ke
Ġth inks
Ġres olution
ĠG en
it ors
Ġsurpr ised
ĠF er
Ġmiss ed
ĠS ky
Ġinit ially
Ġquarter back
Americ an
Ġfact s
Ġincre ases
I I
Ġd ynam
Ġfac ed
Ġin put
Ġad vert
ed y
Ġlaws uit
Ġed ge
Ġp ra
Ġwar ned
Ġess entially
Ġsu c
Ġsong s
O D
Ġs ought
ĠOh io
Ġfr anch
Ġexist ence
ic ing
w hel
Ġis land
Ġplan e
Ġperform ed
Ġfor t
Ġwe ar
ĠL in
hip s
r um
ĠBar ack
as ure
Ġterror ist
Ġsc ored
Ġp ure
Ġhe ll
ang ers
ĠSe e
ar n
ĠW ork
Ġev al
Y es
ĠK im
Ġfind ings
F ollow
ĠH en
ord ers
Ġsqu are
6 8
Ġto w
act ive
Ġgu ilty
Ġexpl an
ĠKore an
ĠT ra
Ġdeath s
ot ic
Ġtal ent
Ġmy ster
etro it
Ġstr ing
Ġb ull
d is
Ġdec re
ag ers
Ġfl ag
Ġannounce ment
est ival
ĠV ict
Ġadd s
Ġyes terday
ĠRe v
Ġexerc ise
Ġaccept ed
ĠD ou
Ġlist ed
Ġrep resents
Ġa f
it tle
st ood
ĠOn ly
Ñ Ĥ
Ġb ond
i est
ac le
Ġdiscuss ed
Ġyoung er
Ġsuff ering
R es
Ġ ing
us al
b orn
ĠH y
The n
Ġte ch
Ġwar m
Ġfair ly
m ates
ĠW alk
Ġfollow s
Q u
Ġexpress ion
ĠA ff
ĠC ard
Ġst ood
Ġj oint
Ġdem ocracy
Ġdri vers
Ġm ir
ĠSt r
Ġr ail
b ur
Ġart icles
Ġch art
our ney
Ġconsequ ences
ĠC NN
Ġpro hib
Ġcreat ive
ĠJ ul
w est
ri p
Ġal t
ĠI ll
Ġevery body
Ġinj uries
T ube
Ġst orm
Ġcan n
Ġlab el
Ġf ill
ĠMuslim s
Ġre in
Ġn ations
ĠS ign
ate ll
ok ed
iss ions
ath an
Ġb oss
ic ian
Ġsh ots
Ġpl ot
u a
Ġb are
ĠA v
Ġinvest ors
ic an
um ber
ĠIt s
O b
ĠH ol
ĠDe velop
d ef
Ġres c
g ia
ĠCl ub
Ġsa v
ĠTe chn
Ġk it
Ġrem ark
Ġany where
Ġwar ning
Ġcomb ination
Ġrough ly
ĠP rem
Ġnet works
C om
Ġmaterial s
Ġrestaur ant
Ġem pt
Ġent ered
Ġfun ctions
Ġdiv ision
Ġbeg ins
Ġb ot
ock et
Ġr ain
Ġmov es
M an
Ġl ibrary
ĠR ights
I F
ĠH el
Ġint ention
ĠD iv
Ġmor al
Ġalleg ations
S pe
ic ious
Ġl iqu
ĠiPh one
Ġsuc ceed
p ret
ob b
Ġess ential
ĠR E
Ġcor respond
ĠE r
Ġclass es
Ġcolle agues
M ost
Ġstore s
Ġcommun ication
g ent
i at
het ic
Ġun iverse
Ġcur rency
ad el
Ġ3 3
ĠDe v
Ġl augh
Ġadv anced
ĠW he
Ġev olution
Ġ/ /
Ġr ising
Ġche ap
Ġhead s
ĠL ife
Ġmanufact ure
I R
Ġreturn s
Ġnecess arily
Ġbr ings
Ġhop ing
Ġbu ying
Ġdist ribution
Ġcy cle
Ġm ine
ere nces
Ġsp ons
er ate
Ġthreat s
Ġt iny
es ome
ir ty
ĠAn other
Ġhard ware
ĠMay be
Ġcamp us
ĠSov iet
Ġal cohol
Ġse es
Ġrele vant
Ġimpro ved
Ġad m
Ġent ry
Ġr ide
Ġrepl aced
ĠW atch
ĠSe attle
Ġen h
Ġ3 00
Ġmet al
Ġ< /
Ġto m
Ġe gg
Ġg rown
Ġs ick
ocrat ic
Ġbehav i
8 8
ĠG M
Ġsy m
Ġheav ily
w ater
Ñ ģ
Ġalleged ly
Ġpus hed
g reg
Ġst orage
ĠBl ue
semb ly
em en
Ġb on
Ġbr ight
Ġimmedi ate
Ã ³
st yle
ĠD C
Ġ3 7
T S
Ġdo ctors
Ġboy s
Ġfeat ured
Ġsh if
Ġ3 6
Ġtourn ament
ĠR od
Ġunlike ly
Ġsome what
Ġsurve illance
Ġn av
f ortunately
ĠB oy
" :
Ġca using
oc key
P ol
ĠSaud i
Ġsh aring
Ġplay off
E n
Ġ= >
Ġmarket ing
ĠBo ard
Ġtarg ets
Ġro w
ĠSoc iety
ĠC IA
ĠWe ek
< /
Ġext ent
ĠW ik
lud ing
ig ure
ard en
Ġhold s
z ona
ĠL ong
Ġfl o
omet imes
l v
S ee
Ġb ike
ĠY ear
Ġoff ense
u gh
Ġn ative
Ġcircumst ances
Ġfew er
Ġh at
Ġbut ton
du c
Ġa uthors
ch o
Ġme at
Ġbl ow
Ġprom ise
ĠSu pp
ĠEn ter
Ġconsist ent
p o
Ġ200 2
x y
ĠB ob
Ġtr ick
Ġmot or
Ġdetail ed
Ġis ol
ef ully
Ġimport ance
Don ald
Ġb ird
Ġob serv
Ġdi plom
ol ve
ĠH ist
Ġser ving
Ġregul ations
m ond
Ġl inks
et her
Ġsk ill
Ġanaly st
g ame
ĠW ild
Ġur ban
Ġr um
Ġbu g
ay ers
Ġstr ange
Ġpl ed
Ġopp osite
Ġpar liament
Ġwalk ed
Ġgr ab
Ġfav our
n am
Ġcont est
ang es
b el
cer tain
Ġman age
ĠI D
Ġsy n
pr int
Ġv ice
Ġra pe
ĠIS IS
Ġint ent
' ,
Ġcommit ment
p ower
Ġdef ined
L ike
ĠE ach
Ġwas te
Ġch ain
al ty
Ġclass ic
Ġcustom er
P er
Ġass ets
A dd
Ġteac hers
ic er
Ġattempt ed
ĠCath olic
ĠE nergy
T wo
Ġmom ents
Ġvol unte
c hen
u y
Ġh all
ĠF ar
Ġfac ility
al ian
Ġr ally
Ġman ner
ĠAs ia
b oy
et te
ĠD i
ĠSec ond
e z
iqu es
p an
Ġfundament al
Ġcraz y
Ġbat t
ĠA ut
Ġsqu ad
op y
8 5
Ġs ample
Ġd ownt
Ġus ual
olog ist
Ġrepeated ly
Ġsymb ol
ĠL ib
f riend
Ġmechan ism
Ġwin ter
m l
st one
ĠAn n
ĠRom ney
olly wood
ĠD ie
Ġem br
Ġhouse hold
ke l
Ġeff icient
Ġbre aking
Ġc ere
Ġfl u
Ġpus hing
p ress
ou ston
Ġvers ions
er ves
ap se
Ġded icated
O r
al le
Ã Ń
Ġad apt
Ġprotest s
Ġw ake
st ers
Ġterror ism
Ġs and
Ġslow ly
Ġn arr
Ġcarry ing
Ġrefer red
Ġsche dule
Ġc ert
i xt
ul ous
Ġact s
ĠE conom
ĠL ord
Ġhistor ical
ĠD etroit
Ġsust ain
Ġdes k
Ġclose ly
Ġse lection
ĠIm age
h us
Ġd iet
Ġg ang
ig er
ĠDav is
ut ch
Ġord ers
ĠE lect
Ġsurround ing
at i
Ġan cient
om in
0 7
ter ing
ĠD NA
Ġshe l
Ġacknow led
ĠWil son
ĠE ll
and al
Ġz ero
u ated
Ġfrequ ently
Ġh ur
Ġrece iving
c hers
Des pite
Ġexcell ent
m es
Ġdom in
Ġown ed
Ġalong side
Ġadult s
Ġcontrovers ial
ot al
am in
Ġun us
Ġover whel
Ġgu ide
Ġart ists
Ġfor med
Ġact ing
Ġf ashion
ĠN BA
all as
Ġb ag
Ġter min
Ġm outh
aw a
ĠCon stitution
Ġan x
Ġsent ence
Ã ¶
Ġs ister
Ġmot ion
ici ency
Ġbl ame
Ġhot el
Ġphen omen
ĠJ r
ĠW ay
Ġhard er
-------- --------
Ġcon gress
ĠAg ain
O RE
u able
Ð ½
or a
Ġkind s
ĠT it
or ation
Ġup coming
Ġstru ck
Ġwat ched
b urg
Ġr ing
Ġl ock
ĠM ot
I nt
n ic
ĠH ome
az i
iam i
Ġs now
ult ure
ĠYou Tube
Ġproper ly
Ġtarget ed
am ily
Ġdeal ing
Ġemot ional
Pe ople
iven ess
ag an
Ġear ned
ĠT op
ĠBro ok
ĠG ar
ĠPalestin ian
7 7
Ġth read
ĠF il
ĠStep hen
Ġproper ties
Ġath let
Ġw ins
Ġw ave
Ġe ating
ce ived
ĠF ord
Ġins pired
ĠC y
Ġreal ized
Ġdescrib e
Ġpass ion
i ro
ĠM en
ĠF our
isc ons
Ġre ward
Ġh its
Ġparticip ants
f oot
Ġcol umn
az e
Ġchair man
8 6
Ġd u
iscons in
ĠW in
Ġinst ru
5 4
Ġf uck
ĠM s
ens us
Ġl ies
an es
Ġg od
Ġprotect ed
O C
Ġ197 0
ĠB ell
Ġpre gn
Ġrep ut
ĠJew s
Ġliter ally
ĠChar les
Ġopp onents
Ġreg ional
Ġstre am
Ġas ide
Ġknow ing
k o
r ison
ĠC le
ĠSp anish
Ġapprox imately
rom e
Ġsh o
Ġterrit ory
Ġprec ise
Ġsudden ly
Ġstud io
Ġdisc over
t witter
v in
y ou
Ġne ut
Ġprom ised
Ġresist ance
Ġsim pl
Ġrequire ments
Ġcon ver
Ġag enda
Ġrequest s
Ġdatab ase
ĠG ra
ĠC ub
ĠIt aly
Ġcr ash
Ġloc ations
ch ain
Ġco ffee
ren ce
ĠJes us
Ġsubs id
w an
ĠR ight
Ġfor th
Ġp ip
au g
ĠL and
ord an
Ġnews let
A A
." [
Ġcomfort able
ĠYou ng
Ġexpl ore
Ġcateg ory
el lect
ĠS ports
ĠE ric
ĠR am
Ġab ortion
Ġcol on
ĠPut in
Ġs oul
so le
Ġsign ing
Ġw ire
ĠD am
Ġg ap
Ġ3 8
Ġrem ote
5 9
ĠAri zona
Ġdec line
F P
Ġnot iced
p ost
as ks
Ġn orthern
ĠR og
Ġwor ried
ĠPol it
b ar
Ġsch ol
ĠM a
m un
Ġpost s
ĠDef ense
ay lor
Ġcompet itive
Ġlat ter
Ġcons cious
ĠM iller
Ġappro val
Ġris ks
Ġnom ine
Ġwel come
l ies
Ġw age
Ġpro te
Ġany way
ty pe
Ġmax imum
Ġun employ
Ġfem in
Ġcompar ison
ĠJ ava
Ġdeep ly
Ġupd ated
Ġdr ag
ograph ic
ĠAg ency
Ġun cle
Ġs ending
Ġex hib
Ġlik es
ĠC ast
Ġattack ed
Ġf asc
ĠVal ley
Ġmain stream
Ġinvol ving
Ġmere ly
if orm
ĠE p
Ġimmigr ants
Ġteac her
onym ous
Ġ ì
Ġsu icide
ĠV an
k l
Ġtop ic
5 7
h an
ld er
Ġthem e
anche ster
Ġtyp ical
Ġ4 9
Ġimp ressive
un ning
adel ph
um s
Ġk ing
Ġun known
Ġdestroy ed
Ġs outhern
ĠAd am
Ġexc iting
Ġf ighters
we ight
Ġconst ant
Ġfix ed
Ġj ourney
Ġmat ches
Ġselect ed
Ġal ive
c ers
Ġcour ts
Ġw id
ĠD ar
Ġobser ved
Ñ Ģ
Ġbat tery
Ġrecogn ize
ing u
Ġd ress
ot ten
ĠT O
Ġb unch
Ġe ast
Ġph ase
Ġr ub
Ġdog s
ĠJer sey
ri ve
Ġobtain ed
Ġext ended
Ġtest ed
as er
Ġch annel
Ġp ed
iz z
ĠN ations
Ġlic ense
Ġp al
Ġass ume
r ors
Ġunder stood
Ġarg uments
Ġ3 4
w oman
Ġdis ag
ast s
Ġ4 8
Ġt ort
Ġatmosp here
ĠK evin
Ġrul ed
Ġfranch ise
5 6
0 6
p ool
Ġconf ront
Ġsk y
Ġstrong ly
Ġrelationship s
0 8
ort ed
Ġret ire
Ġext ract
l ock
ĠP R
ĠBr ad
Ġbas ket
Ġamount s
ĠNet work
ĠL u
Ġtre es
Ġill ustr
Ġpo ver
Ġcontro lled
Ġd ry
im ents
ce ler
Ġmist ake
Ġfol ks
Ġm urd
ĠD own
ĠD aniel
Ġstret ch
Ġnar row
N C
Ġvol ume
Ġreg ions
Ġconst it
Ġsome how
ens ity
Ġopp onent
Ġaspect s
adelph ia
Ġdi agn
Ġob lig
F r
ac c
Ġch ose
Ġbre w
uild ing
Ġhe ight
red it
Ġem issions
Ġjournal ists
Ġdefe at
Ġpover ty
Ġall ies
Ġso le
Ġcommun ications
ĠS ar
ig ation
ĠH ouston
ĠAd ministr
ĠM ax
ĠP y
Ġpl ug
reg on
M ay
s hip
ĠW isconsin
in ations
Ġempt y
Ġesc ape
l ist
Ġgot ten
m od
Ġmed ic
Ġcrit ics
Ġemploy ee
g or
v a
d ro
Ġpain t
Ġenem ies
or ic
Ġfind s
ĠP an
em s
Ġw est
ĠS P
% )
Ġstrong er
Ġvill age
ack ing
Ġhon or
ĠIr ish
ĠW at
ĠL ove
Ġf lex
ow ered
Ġlim its
Ġdefin ition
ĠC at
Ġprom ote
GB T
D S
ĠI P
Ġput s
g ender
Ġre tain
Ġsche me
Ġpun ish
V ER
Ġ7 5
ax y
ĠB est
Ġform at
0 2
ĠColor ado
i pl
Ġreject ed
Ġsign al
s m
Ġs atell
ĠG i
Ġgood s
Ġcho ices
ĠSt and
Ġfall ing
ĠSte ven
Ġansw ers
Ġcapt ured
Ġend ing
Ġprot esters
is an
Ġexp osed
Ġ icon
ĠSe a
Ġd rawn
Ġtrans p
Ġequ ival
Ġrefuge es
Ġpurp oses
Ġfac ilities
a ire
ob ile
Ġde als
Ġout come
M S
Ġfe es
ph y
ĠRe al
Ã ¼
ĠN Y
Ġenc oun
ger y
r ary
Ġin qu
ĠC ivil
Ġclaim ing
Ġcut ting
Ġemploy ment
Ġsupport s
Ġreason able
Ġf lying
ĠM iami
ra id
Ġwin ner
Ġtr uck
Ġch ampion
ann y
Ġdoll ar
Ġlet ters
Ġim per
R el
Ġprof it
ĠNAS A
ĠO ld
An y
Ġsome where
ĠB ru
Ġprim arily
Ġdevelop er
Ġben ch
Ġb id
ot es
ĠF ort
it arian
Ġany more
Pol ice
ick en
ĠC D
Ġconf ig
T e
re hens
Ġswe et
Ġt ies
ĠScot land
b al
Ġdes per
Ġcontribut ed
ĠAtt orney
ĠM ic
ow ed
d r
Ġbe ar
ig g
Ġr ival
Ġdec k
ĠH ollywood
Ġdirect ed
9 8
ar ity
ĠL ew
pect ed
Ġperson ally
Ġdri ven
Ġconst antly
Ġbit coin
ĠC amer
Ġw al
Ġb le
Ġp ic
Ġcont em
ins on
Ġdem ands
ĠW ater
ĠD ark
ĠN ight
Ġsh it
Ġeng age
a un
Ġhous es
Ġst im
Ġthreat ened
> >
Ġdist inct
Ġpl astic
Ġthe rap
Ġde leg
Ġide al
Ġsit uations
Ġdeg rees
Ġr u
Ġpro of
az z
Ġdrink ing
ost er
Ġg ear
Ġad mit
L A
ci ples
Ġang ry
Ġtick et
Ġreg istered
er a
âĢĻ .
Ġu pper
ĠP S
ret t
ĠB owl
Ġk il
Ġnew ly
ĠCar l
Ġcon ven
Ġoffic ially
Ġgener ate
z ens
Ġb oot
Ġno body
Ġha bit
Ġt all
ĠD allas
ar ry
Ġp in
Ġmy th
Ġlo an
Ġfif th
+ +
ĠTh ank
Ġcom ic
Ġap artment
Ġfeed back
im a
ĠV ol
Ġestim ates
om ing
ow a
Ġent hus
Ġencour age
9 7
it ar
Ġex ists
ĠAr ch
Ġmix ed
Ġret urning
Ġc up
ĠV iet
ĠK n
oc ation
Ġext ensive
ĠGeor gia
v y
Ġph r
Ġcond em
Ġincred ibly
T oday
Ġag ric
C S
in em
Ġreg ularly
as ters
O nce
Ġpoll s
ĠB alt
ap es
ĠSpe cial
n i
ĠB rian
os is
isc al
F F
Ġwe ird
Ġfield s
==== ====
ĠCru z
Ġprof ile
ĠW omen
Ġcomp rom
Ġrac ial
end ers
og an
Ġtrad ing
m ont
ĠCon f
il arly
Ġr ig
a a
ĠE nd
Ġkeep s
3 00
Ġmeet ings
ke ep
Ġpark ing
Ġconsum ption
Ġf old
ĠA R
ĠA uthor
ĠAc adem
Ġconclud ed
Ġter rible
Ġtit les
f ast
Ġsym pt
Ġev il
Ġsome body
Ġeng aged
ĠDes pite
Ġvac c
Ġt aught
al o
Ġpar am
Ġrec on
ĠB udd
ĠH ot
Ġrep orter
Ġelectric ity
Ġt rib
Ġrec overy
ific ations
ĠOr gan
Ġvirt ual
ĠS k
ĠD un
ĠPhil adelphia
Ġinst itution
ĠB usiness
re te
ur a
C E
Ġs ight
ĠW here
Ġch at
Ġresult ing
ut s
Ġdec ent
Ġsol utions
Ġcru cial
in er
ĠJ osh
Ġcontin uing
Ġcontrol s
Ġperfect ly
Ġinform ed
Ġman ip
ĠC am
o il
u ine
ĠL abor
Ġcapt ure
Ġnarr ative
ĠI d
Ġcomp onents
Ġmay or
Ġcompl aint
ĠMcC ain
Ġprov ince
ll s
Ġst ead
Ġmon it
Ġt ur
idel ines
ĠB as
Ġbl ocks
Ġaccur ate
Ġch osen
c ow
se a
Ġint ellect
g ets
ĠTur k
B ecause
ĠI T
ĠA h
Ġun p
ĠCh ampionship
Ġincred ible
ĠO regon
Ġinst alled
Ġnegoti ations
Ġtast e
ad s
Ġdo zen
Ġelse where
Ġsan ctions
Ġfound er
Ġw estern
ind er
Ġinc l
Ġwrit ers
ul es
ĠZ eal
Ġwithd raw
Ġtechn ologies
Ġcollect ed
Ġautom atically
Ġteach ing
9 6
Ġgr anted
Ġinf ect
ĠVict or
ĠM anchester
ĠTh ough
ĠIt alian
Ġinter pret
ĠS outhern
ĠN ic
Ġ4 2
k er
ĠIn f
Ġlawy ers
Al so
Ġ iron
Ġch ances
s he
Ġt ied
ĠCh ild
Ġra ising
Ġcon clusion
ĠN BC
Ġworld wide
Ġrout ine
Ġf ake
Ġest ate
ed a
Ġsuccess fully
ĠGree k
Ġaggress ive
nes ota
the re
ess ed
Ġro ot
Ġorgan ized
Ġtax p
Ġrepresent ed
5 8
Ġst uck
Ġgr ant
ĠJose ph
p es
Ġhar ass
se x
Ġsh ares
Ġbill s
ĠJ ordan
________ ________
ĠN HL
Ġposs ession
ĠAs ian
Ġcount y
Ġcor ruption
Ġpay ment
int end
ent h
ĠPro gram
Ġregard less
st ar
Ġex cess
0 3
l ers
ĠH un
l s
es y
Ġcomp ens
et ary
Ġcompl icated
Ġhe l
Ġin ev
Ġpro ved
ack ed
ĠIn vest
Ġatt ended
Ġpay ments
Ġ Î
Ġ( $
Ġhad n
Ġsol ve
in ity
Ġt ank
Ġbrow ser
D r
Ġse ats
Ġpil ot
Ġf ir
Ġmach ines
Ġclub s
) )
qu arters
Ġsuff icient
Ġcoal ition
% .
ĠTh anks
Ġext rem
ĠDis ney
Ġg ro
ĠC oll
ĠH as
Ġthous and
Ġ âĢĻ
Ġins pir
ĠT ony
Ġvis ited
us hed
Ġexplan ation
cl ing
Ġ199 9
c ript
Ġassist ant
6 7
r age
Ø §
ĠL GBT
Ġc ited
ever al
St ate
Ġinn oc
ab is
Ġoper ate
Ġmag ic
0 9
U R
Ġg onna
ĠC are
Ġtrack s
Ġaim ed
J ohn
Ġun certain
k ed
t a
ĠS C
Ġrec ording
Ġacc omp
or ne
pr ise
Ġaw esome
Ġassist ance
ĠK urd
Ġover se
id ency
Ġve get
Ġun w
Ġp ace
ag ram
ĠR ose
ars h
Ġvis ible
Ġact or
S ec
Ġg aming
Ġpen alty
u an
ĠC ross
Ġimplement ation
b ro
Ġmark ed
ri a
ar on
Ġsu p
Ġmain ly
ĠMo ore
ll a
In st
ĠL ook
ian a
Ġg all
ĠO per
ĠN ation
Ġprocess es
Ġd ict
Ġcl ients
ind ing
Ġport ion
M P
Ġl oud
Ġb orrow
ĠO S
ĠV iew
Ġlaw makers
Ġperman ent
ĠT ake
ĠA venue
Ġy ield
ĠE duc
Ġfun ny
Ġdis aster
ĠComp any
Ġad s
P r
Ġel ite
Ġprom inent
Ġadop ted
Ġsp in
i el
Ġscen es
ĠFore ign
E d
Ġtechn iques
ĠPar liament
5 3
Ġaud io
Ġbase ball
ĠZeal and
re p
Ġdef ence
Ġth in
b ell
ĠCl ass
ib ilities
5 2
t es
ry pt
ĠSer ies
m al
Ġind ex
Ġcompet e
Ġen able
ĠBe fore
ĠSp ain
Ġf ought
te xt
Ġemer ged
Ġcry pt
N e
f rom
ĠA li
Ġ4 4
ĠDe ad
ĠKing dom
ĠL ight
Ġsa ved
ĠServ ices
Ġh idden
Ġ1 50
Ġro ster
r as
Ġm ail
sy lv
im ore
ĠL ive
v iously
re ams
al i
Ġacadem ic
ĠPac ific
Ġminor ity
Ġbeh alf
M ar
ĠO ak
Ġenjoy ed
Ġaf raid
ĠT urn
Ġstr ict
p read
Ġform al
N E
Ġval uable
Ġreput ation
Ġ4 00
Ġdescrib es
up id
Ġent it
Ġpattern s
ĠK ent
ĠMar c
Ġprin ciples
b n
it als
ĠT w
Ġequival ent
Ġd uty
Ġj u
ides pread
atur ally
if ies
Ġcoun sel
rap h
ĠF C
er m
ĠT aylor
Ġst adium
ĠF und
Ġcorpor ations
Ġdownt own
Ġla id
Ġrel ief
ĠR et
the w
O ff
g un
Ġcons pir
Ġsurv ive
ĠC ome
Ġint ense
Ġgen uine
gor ith
Ġb es
o z
ĠK ir
ist ent
Ġt or
ĠPol icy
ĠPrem ier
ĠF re
Ġap olog
Ġmed ium
rent ly
Ġant icip
Ġm el
ĠO tt
Ġresult ed
Ġloss es
Ġcamer as
ĠColumb ia
ĠN orthern
ĠSt ill
ĠCo ast
ili pp
ĠCont in
or ough
Ġbus y
Ġr ating
og en
ĠB ry
ol is
f ront
et ts
ink ing
ĠM oh
ĠE astern
ĠMin nesota
Ġunus ual
Ġen orm
Ġdep ending
Ġsh ock
Ġrare ly
Ġrec ip
Ġphilosoph y
Ġe lev
ĠJ ac
Ġ3 9
Ġperson nel
ĠLin ux
ĠSen ator
ĠU t
Ġprop ag
Ġparticip ate
Ġhistor ic
ĠF air
Ġexpl icit
Ġar range
e lect
Ġb om
Ġtrou b
Ġcomput ers
Ġexcept ion
M e
th is
Ġstrik es
im p
Ġext ension
u ce
sylv ania
ĠC apt
ĠG all
Ġshort ly
Get ty
ĠI owa
Ġbl ind
Ġfin ance
Ġp od
Ġd istr
am ber
ig en
um er
ĠC H
Ġwar ming
Ġdest ruction
at hered
Ġveter an
ath y
on ic
Ġch ampionship
Ġrec ru
Ġac celer
Ġdisc ipl
Ġc able
ou ch
Ġv en
ear ing
Ġwork er
Ġ199 8
ĠMark et
im m
mon th
Ġf ault
Ġbelief s
Ġexpect ations
5 1
Ġph ones
Ġcy ber
Ġper mission
j a
Ġbr ut
ĠM ah
Ġpriv ile
iz on
ol en
f all
ĠF red
m aking
Ġc rop
Ġto x
R ec
Ġcreat es
f r
ĠRep ort
as ion
Ġsh ips
int erest
Ġvulner able
Ġ ?
Ġfound ed
ĠM S
Ġth ick
Ġredu ction
U s
ĠN ext
ĠK elly
ĠO s
ĠV R
Ġh ired
ĠF ood
ĠE SP
ion e
Ġpass es
Ġst able
ĠDevelop ment
Ġsh arp
Ġun iform
Ġdin ner
p at
ĠTh us
enn y
Ġneigh b
Ġgener ated
p age
Ġevery where
og ether
Ġst ations
Ġsy nt
Ġcontract s
ĠH om
Ġmag n
ri ent
Ġwonder ful
Ġnomine e
ĠH ard
ure au
oun ced
Ġ6 4
M ean
ĠG reg
ĠIn s
c les
ĠS now
Ġro les
ann a
Ġinc ent
St ar
Ġadv is
Ġfeel ings
Ġaff ili
Ġmil k
c ar
ĠO F
Ġprodu cer
Ġlight s
ant ic
ĠDie go
ĠM u
Ġcoll apse
ou red
Ġh ole
Ġconv icted
Ġw idespread
ĠTh ree
ĠAn th
he nt
Ġb ail
ĠM ajor
Ġhead ed
Ġprofess ion
w orld
ĠH T
ĠN avy
Ġprinc iple
ul ating
Ġlik ed
ĠR ay
aw ay
Ġob st
Ġstrugg ling
r ical
um a
Ġinter face
b ec
et ime
M L
il ton
Ġsur gery
Ġindic ate
Ġdiscrim ination
R S
Ġch a
Ġent ering
Ġexp osure
d a
ar lier
Ġdraw ing
Ð¾ Ð
Ġdeli ber
ĠHen ry
ĠT em
sc ape
6 9
r ific
Ġmanufact uring
Ġa ver
Ġdo ors
wh o
8 7
ol ves
Ġelect ronic
Ġre ly
Ġ4 7
Ġrid ic
Ġsp r
Ġsp ark
ĠH D
Ġachie ved
Ġm o
Ġh ang
ĠB ull
Ġdo zens
j o
Ġb ath
Be fore
T ile
C ol
as hes
Ġ19 60
M c
Ġto ler
Ġsens itive
Ġprogram ming
Ġun com
b a
Ù Ħ
ĠRub y
ĠPenn sylvania
Ġbeg un
y stem
Ġfound ation
Ġcap tain
Ġrecogn ition
ĠN ote
Ġcampaign s
Ġe uro
ĠN ick
el and
te en
Ġfe e
ã Ģ
ĠAdministr ation
ĠAl bert
ad i
ĠK at
Ġrestr ictions
Ġscen ario
ĠCent re
Ġscore s
olog ists
le te
ĠA L
ĠâĢ ¢
ĠKe y
port ion
Ġgr ass
Ġmove ments
Ġnorm ally
ĠLat in
E A
ĠS n
ĠP ay
Ġwebs ites
AT O
Ġprior ity
Ġjournal ist
ĠMos cow
us se
all ing
Ġcare fully
ĠJud ge
t hen
ĠAs h
eng ers
Ġstruct ures
Ġfir ms
ach us
Ġengine ering
Ġp ounds
ĠL ittle
Ġphot ograph
Ġrecogn ized
Ġprogress ive
ĠJ ason
omet hing
prof it
Ġ4 3
ĠS cient
Ġh o
abin et
Ġg ained
ĠR ick
ve ary
Al veary
Tile Alveary
u er
B O
Ġ- >
Ġup set
AT E
Ġexclus ive
Ġ5 5
ĠGl obal
ĠRom an
" .[
Ġex ceed
Ġal gorith
ri ers
Ġun ex
Ġlist ening
ĠF oot
Ġp ump
us hing
Ġfore ver
Ġmind s
ĠT est
Ġcont aining
Ġgen etic
âĢĻ ,
ple te
Ġpl ate
Ġt ail
Ġr if
Ġtick ets
c a
us ive
op her
Ġso il
Ġneut ral
Ġc os
L C
Ġhuman ity
Ġsettle ment
Ġrapid ly
R ef
m ate
ose xual
Ġrec over
ick et
Ġinter act
Ġprodu cing
Ġground s
e en
am i
Ġro se
ĠP en
ab s
ab ama
Ġcont ained
achus etts
ab il
ĠO l
Ġreach ing
f ound
he ast
y e
ĠR oyal
Ġcomp onent
Ġsc oring
ask a
un ior
app y
Ġprocess ing
Ġdeep er
Ġpract ical
ĠMed ical
Ġban ned
Ġtack le
ach ing
Mean while
Ġt ag
Ġt ip
Ġfriend ly
Ġh ide
x it
Ġinterview s
ĠF ull
Ġas ks
c ore
Ġdev ast
!!!!!!!! !!!!!!!!
Ġfoot age
an ing
ĠM ir
Ġchalleng ing
â ĸ
ĠRe uters
Ġre n
ĠL o
man n
Ġmat hem
ĠMedic ine
Ġs in
ĠT enn
Ġv ary
Ġsm ooth
ĠBro ther
Ġepis odes
Ġeas tern
ĠAcadem y
ĠD ata
Ġprep are
ĠM id
Ġper pet
Ġbr anch
Ġfl aw
Ġl obby
Ġtechn ique
Ġfarm ers
Ġal ien
Ġleg end
ĠConserv ative
Ġliqu id
ĠA S
ik es
Ġadvert ising
Ġrac ist
Ġany body
Ġbasket ball
ĠPer haps
Ġrat io
ĠBalt imore
ĠV eg
we et
ow ing
Ġsuggest ing
Ġback ed
Ġequ ally
Ġassoci ation
Ġo cean
Ġbr idge
E G
Ġf iscal
Ġp apers
if est
Ġredu cing
ĠMus ic
ĠMay or
Ġlay er
Ġw ing
Ġed ition
ĠH or
Ġterror ists
ĠL uc
Ġair port
Ġneigh bour
o en
Ġan ger
ĠN ob
Th ose
r ine
kl ah
ud es
ĠSh are
Ġwall s
Ġestablish ment
Ġcas ual
ĠWalk er
C o
ou ver
ĠL A
Ġ6 5
ĠB attle
Ġpro ven
Ġind icated
Ġindepend ence
ĠA I
l og
ĠS af
Ġhand ful
Ġdep uty
ĠPh ilipp
Ġ4 6
inc luding
Ġf inger
Ġex ternal
Ġsu gar
Ġ199 6
ĠH it
Ġcont ribute
Ġrefere nd
Ġfl ash
Ġconv in
Ġuncle ar
P G
ro lled
Ġfear s
Ġut il
ĠEduc ation
Ġcivil ians
Ġconstitution al
ĠJ am
ĠRe view
Ġunemploy ment
ĠM ult
Ġnot ion
Ġhit ting
v ard
Ġl ists
ut ies
k ill
ĠH o
Ġdesc ription
u per
it i
ĠG aza
Ġus age
ĠS ir
B M
Ġb ra
ĠO K
less ly
ĠR and
Ġoverwhel ming
U nder
ac on
Ġwe lf
ang el
Ġ4 1
D av
Ġg athered
ĠF urther
Wh o
ay ing
Ġinv ent
ĠC irc
anc ouver
ĠAb out
Ġroad s
Ġbare ly
: :
U N
ĠR a
Ġview ers
Ġrefer ring
Ġl oyal
sen al
" )
h ar
Ġb urd
Ġinvolve ment
h ot
Ġpro sec
Ġrob ot
bur gh
o ice
il a
ob s
Ġel ig
Ġpurch ased
Ġr ural
Ġmin ing
Ġconnect ions
ino is
Ġwelf are
l ad
ĠN SA
ĠCommun ity
f are
ĠI ce
ĠD id
ak a
Ġinv ited
ĠGree ce
d ney
ip al
Ġstat istics
arr ass
Ġf oss
Ġh ook
ĠHow ard
Ġ199 7
ag g
Ġhard ly
iver pool
klah oma
Ġste el
ĠSqu are
l an
Ġdeli very
4 00
ĠK ansas
ĠCon ference
P resident
rou s
Ġcitiz en
P P
Ġvers us
Ġt asks
um es
Ġfail ing
ĠMass achusetts
Ġj ury
ĠAm endment
ĠDiv ision
h o
is a
Ġcomp rehens
ĠHar ry
ĠInd epend
ĠSt adium
ec ut
Ġtrans gender
Ġexpand ed
Ġdisag ree
Ġreview s
Ġincor por
Ġattack ing
ult ural
ĠGuard ian
es ter
we red
w orth
Ġv ital
% ,
Ġth rown
Ġst upid
ĠL yn
Ġill ness
ĠAtlant a
d em
Ġsubject s
F A
W ill
ĠA p
ĠL y
Ġret ired
Ġcollect ive
Ġintellect ual
Ġplatform s
New s
L ook
Ġsc reens
ĠG ov
our se
Ġast ron
k ind
Ġhand ed
Ġleg s
ĠQue en
ĠTurk ish
ĠESP N
Ġser ves
Ġhol iday
C he
Ġbro wn
Ġrepresent ative
Ġsympt oms
ĠR os
Ġover t
Ġrem arks
ĠMc G
Ġimprove ments
Ġg am
Ġg ift
ĠRad io
Ġw ww
Ġrem em
ust ed
ĠAr m
ĠR en
ĠN ever
Ġinvestig ate
ĠMin istry
is p
Ġr iver
Ġs oph
ĠU FC
ĠAl abama
Ġjo ining
Ġign ore
Ġne uro
h our
um in
em an
H A
ix ed
ivers ary
Ġc oc
Ġowners hip
Ġfr ag
Ġrespect ively
Ġsam ples
og s
Ġsm oke
Ġimplement ed
Ġbrother s
Ġrep rodu
ĠF ield
Ġreg ister
Ġent r
Ġsett ings
Ġconvin ced
ĠR oss
Ġne ck
E r
Ġf ab
Ġp orn
Ġaff airs
ĠS uch
co ver
ol n
Ġdisc overy
Ġpublic ation
Ġf iction
Ġl uck
ĠLew is
ed ing
Ġdef ine
Ġeth nic
c ase
Ġw ars
ĠAll en
P C
ĠA ction
Ġatt ached
ag h
Ġpe ak
Ġpar alle
Ġtem porary
Ġsuff er
7 6
ĠH on
Ġest imate
Ġf ro
Ġt one
ĠC O
Ġco vers
U L
Ġgu est
Ġmen u
ut en
Ġacc us
Ġsuspect ed
a ver
Ġst eal
od ing
Ġoffic es
Ġfall en
Ġstay ed
Ġspirit ual
ri k
Ġre ven
Ġwhe el
ĠSt one
Ġreg istr
Ġâ Ĥ¬
Ġcare ful
ĠMar vel
ĠPat rick
ol ph
ĠH ay
Ġj oy
Ab out
Ġreferend um
Ġst one
ĠU lt
Ġdep ression
Ġfeat uring
ĠAust in
N ote
Ġover s
Ġvisit ors
Ġenorm ous
Ġaware ness
A ss
S D
ĠH ind
Ġreg ulation
Ġdep ends
Ġth rew
Ġinvol ves
Ġinvestig ating
c ific
ĠL ind
Ġdram atic
Ġtom orrow
E E
Ġcompl aints
Ġcontrovers y
m at
ĠP oint
ĠR ef
Ġcl imb
Ġdiscuss ions
Ġlangu ages
Ġlegit imate
Ġsusp ended
S m
Ġpo ly
ir a
ĠF reedom
Ġext end
Ġtest im
Ġlic ens
ĠBern ie
Ġ %
Ġult imate
Ġfant astic
ĠP ent
ĠBl ake
Ġbehavi our
ĠA D
Ġstrateg ic
Ġdynam ic
ĠC ore
Ġread er
Ġwar rant
Ġ201 9
Ġr aw
ĠPr ince
d ri
Ġeff iciency
ĠD ig
Ġinvestig ators
Ġdom ain
Ġsil ver
ĠII I
ĠT own
Ġsc andal
qu est
ick ing
Ġaddress ed
ĠS us
Ġconvers ations
Ġj ur
ĠY emen
ĠAr k
Ġi P
7 9
Ġresour ce
U T
ĠCh air
G E
Ġdep os
Ġex it
Ġdem ocratic
Ġprote in
ĠT our
ir lf
Ġj e
ĠM aster
Ġr aces
Ġsubstant ial
ĠE s
ĠAd v
R I
a us
ĠR oy
ann els
Ġfant asy
Ġentertain ment
Ġsatell ite
u its
ĠSe ason
ams ung
Ġabandon ed
B ack
H S
Ġs orry
Ġc ust
ect ive
Ġing red
irlf riend
Ġpre ced
Ġprof its
Ġiniti ative
Ġun c
Ġhead ing
ĠIraq i
ĠMex ican
ition ally
Ġam id
Ġpop ulations
Ġb read
' .
ĠBe ach
Ġmar ks
Ġextra ord
Ġtweet ed
P ost
Ġf ruit
Ġd ance
Ġfact ory
Ġb ub
Ġbr ill
Ġreplace ment
Ġw ages
Ġdef icit
cl aim
ĠA BC
ĠA le
ĠSpr ing
Ġin ner
ĠV ancouver
ĠPl us
Ġadvoc ates
Ġframe work
a is
Ġin ject
Ġl es
Ġprom ises
Ġanx iety
Ġg al
m ary
Ġbar rel
ĠMat thew
. -
ĠArab ia
ĠCamer on
ĠProf essor
Ġabs ence
ij ing
7 2
ĠM oon
Ġpres um
Ġmount ain
Ġno ise
Ġguarant ee
Rel ated
re c
re ts
ic ity
ĠC ow
Ġb ars
Ġattempt ing
Ġcover ing
Ġhor ror
Ġcann abis
Ġd iversity
it age
Ġres ign
Ġst olen
ĠP ot
iv als
Ġmon itor
Ġrecomm ended
Ġinqu ir
Ġh int
Ġtr ained
Ġinc idents
Ġview ed
ĠIran ian
Ġemb arrass
Ġst ake
Ġcon ce
level and
Ġf ed
am med
Ġmort g
Ġf ulf
ĠB a
Ġbreak s
Ġtri es
Ġlo ans
Ġr ational
ĠO klahoma
Ġinter vention
ĠB ang
ab eth
Ġatt itude
Ġpet ition
ĠIll inois
Ġnot ing
g ener
Ġact ors
Ġpass engers
Ġimprove ment
ĠAnt on
8 9
ĠN ATO
p ed
ĠS at
Ġseem ingly
Ġmus cle
oty pe
ĠIn formation
Ġactiv ist
ĠA ud
ĠM useum
Ġcontribut ions
W here
our ces
Ġsm ile
Ġperson ality
Ġrank ed
Ġl ucky
ĠC ost
ist ing
Ġvirt ually
Ġl ying
Ġsal ary
Ġr anks
Ġdis pl
ov al
Ġvot er
ĠCo oper
Ġjo ke
Ġprem ium
Ġtemper atures
in ch
Ġd ump
Ġsc ope
Ġmiss ile
Ġencour aged
7 4
Ġtr ave
Ġsp aces
Ġdis rupt
Ġappreci ate
Y our
ep ing
Ġhead quarters
ĠCon nect
ĠPr ice
Ġclot hes
Ġre vel
ĠB ra
Ġtw enty
R C
Ġschol ars
sel s
ĠChe ck
Ġinnov ation
Ã ¢
Ġco aches
H er
Ġh am
ĠHe ad
Ġthe at
er ted
re f
ag ic
ĠWith out
Ġd rew
Ġopin ions
Ġthrow ing
P lease
Ġl ocked
un es
Ġport ray
Ġs alt
ĠP it
ĠInd eed
ĠHar vard
Ġmedic ine
Ġprotect ing
ĠC all
Ġsp oken
Ġst ages
Ġlow est
Ġi OS
Ġarri ve
Ġcommon ly
ĠT ri
Ġy ellow
Ġex ch
pl oad
ĠDe ath
Ġrepl ied
Ġch apter
aw are
Â Ĵ
es h
Ġl i
ĠBat man
ĠHist ory
r ace
Ġr het
Ġdist ributed
Ġ199 4
Ġpartners hip
Ġh ockey
ĠT ai
Ġsh out
ĠJust in
ĠRev olution
Ġg rav
Ġpers ons
c ut
ĠB rew
ĠSy dney
Ġimpro ving
Ġmid field
Ġsurv ival
Ġconsist ently
s ub
ĠM ake
Ġche st
Ġinfl ation
ĠSt art
Ġhand ling
ugh t
c ription
a eda
Ġ5 2
Ġ199 5
Ġg ains
! )
u i
Ġ 00
ĠC ook
rop ri
st ract
et ers
Ġshould er
ĠB all
S te
ien ces
Ġtransport ation
w as
it ure
Ġappoint ed
Ġsho pping
ĠVeg as
Ġb acter
Ġcl osing
Ġspeak s
Ġmonit oring
et he
ĠWh ich
Ġjud ges
Ġdiv ided
Ġign ored
ĠAN D
d es
y ard
Ġhom eless
S en
Ġlog ic
ĠEn vironment
Sc ript
Ī Ĵ
ar ms
Ġgu itar
ĠGold en
Ġhyp ot
C omp
Ġfund ed
ĠTe ch
ge on
ĠChrist ians
ĠB ron
6 2
P M
b i
Ġresc ue
ib an
com es
Ġorig in
Ġpurs ue
ĠAnth ony
B oth
m aker
R uss
hes is
inc oln
ĠBel g
ĠF orm
Ġl ands
Ġcom edy
Ġout s
Ġpre f
W S
ĠFr ont
Ġmembers hip
l ow
Ġins isted
or ge
iet ies
Ġassess ment
u h
ĠPro v
Ġsubsequ ent
m o
p ie
hel sea
Ġupgr ade
Ġo kay
if er
Ġtre m
Ġin equ
7 3
in f
Ġd ad
ik a
Ġbo at
S ub
Ġr om
ph ones
A re
Ġsc an
Ġstud ied
usal em
ian o
Ġcritic ized
re ate
ĠB ad
Ġvis iting
ĠCor por
Ġconserv atives
Ġpropos als
Ġleg acy
Ġske pt
Ġw ine
al ia
un icip
omm od
ĠA z
Ġcop ies
ĠMe an
ĠP D
Ġspokes person
om es
Ġperform ing
ĠA k
ĠB uff
ag a
ig are
ĠF amily
Ġunivers al
ĠA cc
ĠS ometimes
ĠB on
ĠP ack
ĠU se
Ġconspir acy
se ct
Ġacknowled ged
d oor
ĠW olf
Ġw rest
od ed
P art
z ed
ĠA ward
Ġsur f
Ġhor se
Ġprison ers
ĠS et
el a
iz abeth
ĠH ospital
Ġcol ors
Ġper mit
ail ed
Ġmonth ly
am ac
Ġblock ed
ĠSt at
Ġphr ase
ĠJ ay
Ġmist akes
T ON
y er
Ġth orough
AN D
Ġrac ism
Ġliter ature
Ġst y
Ġst ored
ĠSant a
z ing
ĠCont rol
it ting
Ġte a
Ġ199 2
Ġconc rete
ĠL iverpool
ĠUn fortunately
ĠBro ad
Ġprov iders
Ġland ing
Ġaut hent
Ġc ogn
ĠC leveland
Ġpl ain
Ġ5 1
ĠDo es
ĠC BS
Ġcent ers
ĠA C
th on
ĠDes ign
ĠX box
Ġwat ers
is k
Ġ20 20
ult ane
Ġdr ama
is ons
Ġd iverse
Ġcom pe
ĠHe ll
Ġtrans it
Ġinvestig ations
Ġbeaut y
Ġwealth y
Ġappro ached
ĠW W
Ġdr one
Ġaut o
ĠSwed en
d it
Ġ _
ĠE xt
Ġvari able
Ġdismiss ed
w alk
ĠMary land
ĠN ev
pl ed
Ġgr ade
the less
Ġord inary
m ad
ĠEm pire
il er
i y
port ed
ĠTechn ology
Ġread s
Ġrequest ed
Ġentit led
u ction
ĠU r
ĠBe ijing
on ly
Ġaccompl ish
ĠB ase
Ġclass ified
Ġappear ances
back s
h op
ing ton
ĠEng ine
ih ad
6 1
B N
Ġ ),
re pre
ĠO nt
Ġrespons es
tr ans
d on
ass ador
**** ****
Ġt ap
Ġt ape
ned y
Ġfall s
R L
ĠV is
Ġh ung
Ġsupp lies
Ġsav ings
Ġm arch
ut ed
Ġhy per
Ð »
ĠAb b
Ġur ged
Ġbu ff
Ġass ign
ĠDo ctor
Ġbreat h
Ġcongress ional
intend o
ĠCapt ion
z y
ĠD et
ĠAnd erson
p a
r ite
pp ers
Ġ( "
## ##
ĠD ave
Ġre nder
th rough
Ġsub mit
Ġdemonstr ated
br idge
repre ne
row s
Ġhop ed
ĠAss ad
amac are
d ed
Ġl unch
Ġr amp
Ġacc ommod
Ġwar n
Ġm ad
ĠS ony
Ġequ ality
Ġn aturally
Ġnom ination
Ġcont rad
Ġpolit ically
Ġche cks
Ġabs or
Ġpopular ity
Ġsen ator
K e
h igh
ic ism
ĠPort land
Ġtact ics
av al
Ġprogram me
Ġle ts
Ġweek ly
nt il
Ġgr id
min ute
Ġqu oted
Ġball ot
Ġden y
6 3
d ated
iss ue
ĠOr ig
Ġsw ing
Ġdiv or
ĠS on
Ġwhen ever
Ġtarget ing
ĠMars h
Ġch annels
Ġcl ock
Ġfl ags
icult ure
c r
m ax
pl ate
ĠIndian a
Ġgu idelines
Ġrepresent ing
Ġconvention al
ir ts
ĠInt elligence
A ct
i ate
ĠN OT
Ġbl ast
8 4
ber ry
Ġact ively
Th ough
ĠBre xit
oun ce
F acebook
ĠG un
Ġsw im
âĢĶâĢĶâĢĶâĢĶ âĢĶâĢĶâĢĶâĢĶ
act s
ecut ive
Ġcon sole
Ġm os
Ġun pre
Ġdro ve
Ġaward ed
Ġpre par
Ġcelebr ate
Ġc ro
Ġm oon
Ġphot ograp
ĠJer usalem
Ġm aps
ocol ate
Ġmus ical
S C
S ource
ast y
Ġm ole
Ġ( âĢľ
ĠV ideo
8 00
Ġd ub
ĠE th
Ġro ok
Ġunivers ities
Ġton ight
ĠâĢ Ŀ
Ġpro s
ra pped
Ġt ie
Ġbon us
V P
Ġd ust
Ġcl im
it ary
ĠC redit
Ġwe igh
od ox
pl us
ĠSil ver
ĠOlymp ic
f und
Ġcl ar
Ġcount s
Ġhealth care
ĠFoot ball
T y
Ġcivil ian
ĠL as
the y
Ġd ates
Ġbut t
ĠK ar
b ow
c os
ĠC ustom
Ġprot ocol
ĠViet nam
Ġw aves
ĠA ge
sh ire
Ġencoun ter
Ġw ider
Ġsa ving
Ġqu ote
m ath
at ar
ĠT el
ĠG T
Ġmaintain ed
Ġtestim ony
Ġf ool
Ġf ighter
est y
Ġdisc ount
Ġcre am
ĠPat ri
Ġphenomen on
Ġinstru ment
er g
ĠM ill
Ġr ush
Ġarg uing
fl ix
Ġveter ans
id en
ik i
Ġacqu ired
] :
m ony
ĠD utch
Ġre ar
Ġpres idency
Ġhelp ful
Ġpred icted
ĠC ro
Ġag es
Ġcomp are
Ġgener ations
ack et
Ġdist urb
Ġviol ation
ĠAssoci ated
Ġfoss il
9 2
act ed
Ġoverse as
ah u
Ġbank ing
Ġprep aring
ĠGra ham
ond er
Ġemploy ed
ĠP A
Ġab road
room s
ord on
ĠL incoln
Ġsh r
con f
Ġm useum
ĠS amsung
Ġ199 3
em ed
Ġtherap y
Ġcan ce
Ġt ips
Ġc ul
es see
ĠAtlant ic
ĠB ible
ĠSt ory
Ġsure ly
Ġintrodu ce
arg o
http s
Ġprov ision
ĠP o
ĠE qu
iff s
h att
Ġreve als
sc ale
Ġtr illion
ene z
Ġan s
ig s
Ġmeas ured
ĠH op
Ġsuspect s
ĠL ine
ip edia
ier ce
Ġlo ose
Ġconsider ation
C ons
k ing
en cing
or gan
Ġp atch
Ġrel ax
Ġlet ting
oen ix
Ġsett led
iz er
Ġsub mitted
Ġspokes woman
S im
er ies
ĠP op
um ble
ĠK ong
ĠHaw ai
he ld
ing ers
m ade
Ġg irlfriend
Ġcont ribution
Ġfore cast
Ġprosecut ors
ĠPhot os
Y et
Ġun ions
ĠGovern or
ĠT ro
ĠA st
Ġsim ultane
Ġrele ases
Ġtrack ing
Ġpip eline
Ġt ens
ou ri
Ġd ying
ĠInd ust
Ġn in
Ġsm ell
Ġob s
Ġann iversary
Ġarchitect ure
ĠBru ce
O K
Ġsy mp
Ġdocument ary
Ġde lic
est ed
Ġunex pected
ĠT ed
ced ented
Ġass ert
Ġform ation
Ġdemand ing
part y
re ction
Ġb owl
Ġmiss ions
Ġrestaur ants
m ers
or ous
Ġb urning
orm on
Ġac id
ER S
ĠCar ter
vern ment
ound ing
Ġsoc cer
af e
Ġfor cing
Ġdesign s
Ġw ounded
9 3
er ts
it ol
ĠTal iban
Ġf iring
Ġro of
Ġland scape
l ined
Ġtit led
Ġgraph ics
Dav id
8 1
t c
ĠN E
Ġstre aming
Ġreform s
s ay
Ġa er
Ġintrodu ction
Ġretire ment
j ud
it o
ent er
Ġimportant ly
Ġimpl ications
bre ak
y o
ĠG ulf
ak i
pt on
av ed
ĠAP I
ig ate
ĠC lick
Ġcom ics
Ġsm oking
Ġf estival
ĠPalestin ians
ĠH ur
St ill
ĠAm ong
ĠGet ty
Ġdomin ant
Ġkil omet
Ġp uzz
as ury
Ġre vers
ke e
t ra
ĠS ix
Ġexpand ing
Ġg ent
Ġar bit
ĠY ang
ĠEd ward
ĠGal axy
7 1
f ol
ar re
Ġint im
Ġfocus ing
Ġinnoc ent
âĢ ĭ
Ġprodu cers
ĠDen ver
Ġrece iver
ĠCap tain
O s
Ġre verse
ĠT en
Ġbl ank
yl um
Ġtouch down
a fter
m ind
u j
Ġquestion ed
Ġsil ence
ĠKh an
Ġodd s
Ġbrill iant
ig ious
arch y
Ġins pect
Ġassum ed
Ġbe ating
Ġcal m
Ġdemonstr ate
Ġcomprehens ive
Ġse ar
old s
ĠPro p
ĠEx pl
Ġcust ody
Ġdis order
Ġrepresent atives
Ar t
Ġcateg ories
Ġb in
Ġwant ing
ĠRober ts
Ġal arm
Ġk m
Ġsequ ence
ĠOak land
Ġpropag anda
Ġb orders
Ġh osp
ĠM etro
rib utes
ĠLe ader
Ġfac ilit
Ġroom s
in ction
St ep
Ġarg ues
Ġprinc ipal
or ious
Ġf ate
th rop
oc ial
Ġdri ves
Ġround s
Ġp a
Ġdead ly
Ġso vere
Ġrel iable
hold ers
ĠBer lin
ten ance
Ġstrik ing
ĠL ow
Ġadv enture
ĠKen nedy
ĠB ureau
ĠH ave
ĠEl izabeth
Ġtrans actions
Ġexper iments
Ġdifficult y
Ġobject ive
Ġindic ates
Ġwhere as
Ġhy dro
in ator
ĠE ag
Ġad min
port ation
ĠAlex ander
Ġman ifest
op en
Ġste pped
Ġcontact ed
E l
he im
Ġst em
Ġpr on
Ġinvest ments
9 4
Ġser vers
Ġmem ories
Ġaccess ible
Ġenthus i
ĠG irl
Ġpoint ing
Ġsh ield
Ġrec all
ĠTe le
Ġt ab
ix on
Ġcap abilities
Ġsem i
ĠBe ck
Ġtrem end
H z
Ġe ager
ĠL t
Ġwind ows
Ġregul atory
ĠScott ish
Ġremark able
8 2
Ġex ha
G e
s es
ĠBl oom
ES T
Ġcere mony
ĠL ist
Ġconscious ness
b ian
ĠB al
ore t
Ġscient ist
Ġbroad er
ie v
ĠC helsea
Ġlegisl ative
P L
ar ia
Ġopen ly
ere nt
Ġtri als
Ġer rors
ĠWar ren
ĠInt el
Ġprecise ly
ĠMean while
Ġse vent
Ġsh ame
ĠV ice
Ġab ilities
Ġsp an
ov a
Ġmeaning ful
ì Ŀ
Ġl ad
ĠG DP
ĠComm on
Ġdam aged
Ġafford able
st ep
Ġl oves
ac co
ĠC A
Ġthreat ening
Re uters
ĠCr ime
Ġst ability
ol i
Ġart ific
Ġdifferent ly
Ġtort ure
Ġg ate
Ġdes erve
Ġgreat ly
6 00
Ġf ur
Ġsp ots
ĠEm ail
a uthor
Ġdiscuss ing
Ġg ross
Ġtrig ger
Ġbe ings
Ġmin istry
Ġexec ution
Ġproced ures
Ġb ow
ap ing
Ġinc hes
land o
ĠMag ic
ĠB ud
ĠJ ean
St ory
Ġgrad uate
Ġsubsc rib
Ġm it
ĠP ass
el son
Ġro y
Ġend orse
Ġmod ule
br id
Ġvo ices
ĠLiber al
ĠTh rough
Ġcompet ing
Ġs orts
ĠB ox
ile y
Ġindust ries
Ġsmart phone
ar ation
Ġm ac
Ġsecond ary
Ġmathem at
et ch
ĠW as
ĠV ill
ĠAff airs
w atch
Ġt ired
as ant
Ġdis h
Ġfl ed
Ġchild hood
Ġfood s
M ark
ap olis
ok er
Ġemer ging
Ġrepe at
Ġke ys
Ġaut onom
Ġh al
ĠTr ade
Ġ9 9
ĠOb amacare
ĠS ab
Ġspect rum
Ġcomp at
Ġkn ee
Ġ5 3
Ġinf o
Ġch icken
Ġposs ess
el f
ĠO p
Ġtown s
Ġkit chen
Ġcirc le
Ġpers u
Ġdisp ute
ï ¿
ĠH old
ors hip
Ġinstruct ions
ĠF all
Ġfollow ers
Ġjud gment
ĠUt ah
F i
oc ument
ixt ure
Ġnewslet ter
u z
Ġn ic
ĠS S
Ġman aging
ĠSe an
Ġsubst ance
it udes
Ġshe ll
Ġphys ically
Ġvir us
ĠN intendo
ĠG ary
ĠLe on
D em
Ġc ow
Ġsh adow
ct ic
Ġco inc
Ġal ter
Ġleg ally
Ġfunction al
Ġscr ut
o is
ĠTr ust
Ġocc urs
Ġeduc ational
Ġprom ising
Ġstay ing
Ġcounter part
Ġans wered
d y
ĠM ach
Ġdefe ated
ĠTenn essee
Ġcoll aps
omp son
Ġstrateg ies
e als
Ġst amp
Ġspe aker
urn s
Ġpull ing
Ġfrequ ency
ĠHam ilton
ĠH a
ater al
ĠBudd h
ri x
Ġgather ing
Ġp icks
Ġviol ations
e ven
Ġorgan ic
Ġhighlight s
it ual
Ġsurv iv
Ġbird s
Ġe ase
Ch rist
Ġass ass
c est
h ire
Ġ19 50
Ġtrans action
enn is
Ġcapital ism
Ġbot tle
W atch
Ġl apt
ĠV ik
Ġout rage
Ġengine er
s a
Ġrequ iring
he rent
Ġdef ending
Ġrec ruit
Ġinter f
Ġsent enced
Ġblock chain
Ġv es
ge red
o ir
Ġunder lying
Ġsearch ing
ï¿ ½
om y
ĠMr s
Ġhost ed
M ich
Ġint r
ĠY eah
Ġcent uries
Ġhop efully
" >
T P
Ġw edd
Ġl ux
ĠHar ris
igen ous
ĠC ra
ĠM it
Ġover come
Ġass igned
Ġunpre cedented
s l
Ġa x
Ġg if
Ġun ve
Ġelig ible
b ered
ig e
ĠA ccess
ĠBr idge
Ġperiod s
ĠT ok
ĠH ong
ĠAr senal
Ġreb els
ĠW ales
th ird
ĠF al
orm al
Ġph arm
ĠMar x
Ġpick ing
Ġt ables
ĠM ain
Ġ5 6
Ġ9 5
Ġfrequ ent
Ġcooper ation
Ġegg s
m ic
ish op
Ġparticip ation
Ġhero es
ĠP res
Ġsh oes
Ġenh ance
am ous
Ġse ed
Ġro ots
Ġadv iser
b its
r if
Ġconstit u
v an
Ġe lder
ĠKe ep
Ġut ility
Ġrat ings
Ġdial ogue
pt ions
Ġmin i
Ġtop ics
Ġdist ingu
r ation
ĠS ound
P re
ĠJon athan
ĠKent ucky
Ġv ig
ch ild
Ġal ias
art ed
Ġag ed
Ġman agers
Ġ199 1
ĠPent agon
T op
Ġm ath
Ġent reprene
Ġpass age
Ġdon ations
w ill
ak h
ĠD ick
Ġexecut ives
Ġrequire ment
Ġtim ing
Ġproced ure
8 3
ĠP ict
Ġcons ent
Ġem p
Ġexpl aining
ĠCon st
ĠC ode
vertise ments
se ction
Ġ5 4
sc ribe
st al
ĠMedic aid
om ed
ĠN on
ap ore
og y
v ision
Ġn erv
Ġstrugg led
S U
st ring
Ġmigr ants
ist a
th ood
ĠPri v
Ġparalle l
T E
Ġ2 50
Up date
Ġ ë
ern and
Ġstop s
Ġbatt les
ĠSar ah
en ess
ĠCo al
Ġrestr ict
Ġop ens
ĠEconom ic
V iew
Ġrec ipe
Ġrel ation
Ġsub ur
Ġpoll ution
ĠCome y
Ġextraord inary
Ġv ocal
ĠL i
Ġbill ions
D ef
Ġs ne
Ġse ized
Ġbirth day
T R
c or
Ġn a
ĠF inal
Ġcons ensus
ative ly
ĠU ber
ĠInst agram
D C
or able
Ġpart ly
Ġimp ression
Ġpromot ing
Ġpubl ishing
Ġrhet oric
ĠH art
ĠD er
Ġcl er
Ġstud ying
ĠT ax
ĠP erson
Ġse ctions
ri v
Ġengine ers
Ġinequ ality
ĠM ORE
ag ger
Ġper ceived
Ġbad ly
Ġst ance
ĠAs sembly
Ġarri val
ĠNet flix
Ġconv ince
ĠSim on
ll y
Ġsh ipping
Ġharass ment
ĠEx per
val ue
Ġrock et
E P
ĠT ower
ĠG O
lic op
li est
Ġinter pre
Ġgen es
Ġmag net
Ġlog o
Ġdemand ed
Ġclot hing
C ur
Er ror
r ated
ĠT rib
ab e
Ġunf air
9 1
Ġcl ip
ĠMan agement
Ġm ood
Ġgl ad
Ġburd en
Ġregistr ation
ĠF inally
Th anks
Ġt ons
ĠCap ital
b ing
Ġm ask
est yle
os ystem
Ġide ology
Ġaddress es
Ġb old
Ġline up
Ġsustain able
A g
ĠHe art
Ġless ons
Ġbul let
Ġcontem porary
le e
th odox
ĠSt ore
Ġunder t
Ġclin ical
b ury
Ġo xy
Ġse gment
ĠD O
Ġtr aged
ne cess
Ġrep air
ĠL ibrary
ut er
aren cy
du ction
ĠLe ft
play er
w a
Ġ1 20
Ġad equ
ĠK ick
Ġpo ison
alt ies
m ir
ĠI M
Ġmarg in
ol ving
ist ical
Ã ±
Ġt ut
ĠI ron
Ġres erved
we ek
Ġtox ic
A F
Ġp ocket
Ġh ire
boy s
Ġpunish ment
ot ing
V E
ĠS om
Ġrad iation
ĠOnt ario
Ġg ene
tain ment
j ava
Ġins ight
Ġtrend s
Ġneighb ors
Ġhosp itals
Ġhe licop
20 16
ĠPl ace
ĠC reat
ĠW H
Ġdram atically
Ġc iting
al ysis
Ġinterview ed
Ġcommand er
Ġat he
ĠGi ants
Ġfab ric
Ġar ts
Ġsh ocked
Ġle ct
Ġass et
Ġrecommend ations
ï ¼
ĠB ow
C omm
Ġr iding
Ġpresent ation
Ġc ock
ĠS ci
Ġout lets
Ġbu ck
Ġcol our
Ġcommun icate
ent al
Ġst ere
row ing
Ġfl our
Ġdistrict s
F O
d s
ac hel
Ġsign als
0000 0000
Ġaim s
Ġdise ases
M od
M s
g us
ĠS ure
ĠE vent
ĠLib ya
i ac
ater n
Ġdiplom atic
ro ph
ĠO cc
Ġint ellig
Ġpar ad
Ġadop t
Ġ ~
str ong
Å £
Ġs ed
ad ers
ĠH ide
ump h
Ġmet aph
Ġemploy ers
Ġaccomp an
Ġridic ulous
Ġthe ories
Ġst ro
Ġro lling
ĠEx ecutive
Ġsuper ior
Ġrem oval
Ġset up
ĠRep resent
Ġple ased
Ġg est
Ġpat ent
opy right
E arlier
it ter
em ic
Ġinv asion
Ġmod erate
Ġcoach ing
Ġdisappoint ed
Ġplayoff s
rib ed
ĠB oe
Ġinter action
Ġinst ances
ĠPh oenix
** *
Ġencour aging
ĠCap itol
Ġd ating
ĠAnd re
Ġche aper
20 15
Ġacknow ledge
ol as
ht ml
ĠMic hel
he ro
Ġl in
Ġe cho
ib l
Ġbox es
e h
Ġob sc
ĠAl an
Ġdr unk
Ġbur st
M us
ĠJ ere
Ġpri ze
igr ation
Ġcou p
Ġtravel ing
Ġo w
ĠV en
Ġback ing
Ġ8 5
Ġmanufacture rs
c ur
Ġp ill
Ġh anging
ĠT es
N ame
Ġbe ach
Ġdeploy ed
Ġprofession als
R eg
Ġins ult
Ġconcer ning
ĠMor gan
enez uel
R em
Ġres olve
Ġexc lud
d iv
er ia
Ġcou ples
Ġcorrect ly
Ġec osystem
ac re
el ing
ĠE ve
Ġar c
Ġorgan isation
Ġsix th
Ġprospect s
orne ys
f ather
Ð º
Ġper ception
Ġmain tenance
Ġchar ity
ro t
D is
ĠO N
ĠRe agan
ĠCo le
ĠMc K
Ġprompt ed
O ut
Ġex port
Ġconcept s
Ġemot ions
ĠAuthor ity
C O
Ġdead line
Ġs essions
ac her
Ġsh irt
Ġsc ar
Ġshe et
Ġelim inate
ĠBrook lyn
h ard
Ġan onymous
le ft
ĠD V
ĠR oll
arg et
ĠSh ort
ĠPh ill
ĠOr der
che ck
unicip al
Â °
is dom
ist ant
Ġcred its
Ġattract ive
Ġweak ness
Ġas ylum
B ook
Ġk iss
ult y
Ġrook ie
ere r
Ġgame play
Ġathlet es
F inally
ĠM ess
ĠK al
Ġtem por
Ġut ter
Ġfle et
Ġbut ter
ass y
Ġsign ature
cept ions
Ġpost ing
Ġbi as
Ġdisplay ed
Ġfat al
ĠTre k
Ġmin imal
re ll
ĠW rit
Ġprint ed
ĠS av
Ġche ese
Ġdesign er
Ġassoci ate
Ġbank rupt
Ġlif etime
Ġpsych ological
Ġn ose
ĠH oll
Ġevery day
Ġappro aches
ĠOff icer
Ġv end
Ġsc ream
Ä ģ
ĠR un
ĠR ather
f it
igh th
Ġjump ed
Ġsurround ed
ĠM LS
). [
ĠThere fore
Ġland ed
che ll
mark et
Ġoccup ied
Ġ198 9
Ġmyster y
Ġinspir ation
Ã ¨
Tr ans
ĠSher iff
C al
N BC
P aul
Ġacc um
ĠRes erve
ĠCharl ie
l u
Ġkn ock
Ġgen re
Ġprefer red
G A
Ġesc al
Ġoccas ionally
Ġf el
Ġinst ant
20 14
Ġadvoc ate
Ġisol ated
ĠG il
ĠHar per
hatt an
- >
o j
ab et
Ġcar ries
Ġmaintain ing
Ġann oy
ĠOr lando
c ott
r ac
Ġst ating
oc a
ĠL im
Ġsol o
Ġperform ances
Ġrac ing
Ġn u
ĠG iven
ĠDel hi
Ġin her
Ġown s
Ġearth qu
ĠWhe ther
e le
Ġspe ll
Ġm ales
sc reen
ann on
N ext
Q L
el le
Ġdef ender
lim ited
Ġphys ics
Ġconsider able
ro ck
gr ade
Ġwitness es
Ġembr ace
ure auc
Ġexclus ively
Ġingred ients
ĠB i
oll ar
Bl ack
Ġvolunte ers
Ġp unch
Ġdo ct
Ġref use
Ġfight s
r ate
ĠM un
ubl ished
ĠRog er
Ġs li
Ġre nd
Ġcor rupt
Ġlo op
tr ack
ĠMur ray
Ġsubsequ ently
ĠChild ren
Ġnot able
ĠY OU
Ġexp ense
Ġmod ified
ĠSupp ort
ĠC ase
Ġde light
ĠF ive
bour ne
h as
at us
Ġconf used
med ia
Ġtal ented
Ġin ch
ĠB u
Ġar r
Ġcollabor ation
ĠCh annel
Ġimp osed
Ġopp ose
AT CH
Ġr ic
ĠE ff
ĠTh ompson
Ġsusp ic
Ġprosecut or
ĠSing apore
Ġb its
ab ies
iz za
Ġcompens ation
y es
ĠH al
ĠH and
miss ions
re nd
ĠE ver
app ropri
Ġbur ied
ĠDig ital
at tered
Ġgu ests
ĠBar b
s ome
Ġg ri
ĠF estival
ĠEnter tainment
G u
N et
Ġret ro
H D
re ck
ĠL ink
Ġaccept able
ear ly
Ġcor rel
Ġjournal ism
Ġrevolution ary
is d
Ġintegr ity
ĠW right
ri ors
ĠPit ts
e lection
ĠJava Script
Ù İ
inc ome
Ġintegr ation
Ġcert ific
Ġt ear
ĠK now
ĠZ e
ĠAll iance
Ġdisapp ear
Ġinquir y
? ?
j s
ĠTre asury
Ġtaxp ayers
b ase
Ġless on
ades h
st arter
Ġres erv
Ġatt ending
ĠSte el
US T
Ġexplos ion
in st
ad gets
Ġcharg ing
Ġs its
own ed
Ġem bed
Ġexecut ed
Inst ead
m ap
ĠF riend
Ġqu it
gg ed
Ġstrugg les
ĠPlay er
Ġmer ch
ĠC ould
ĠSt aff
Ġam endment
Ġcrim inals
Ġir re
C lick
Ñ ĥ
Ġref ers
Ġer u
Is rael
Ġvari ables
Ġkid n
Ġs wit
ĠL am
Ġrepresent ation
Ġinterpret ation
Ġf ert
Ġunder ground
Ġimpact s
Ġrefere nces
ĠMiss ouri
2 50
ell ing
Ġfail s
Ġme al
ach ment
Ġexp enses
Ġmoment um
Ġpregn ant
Ġh ip
ĠM A
Ġrem oving
ĠLe ban
Ġblock ing
Ġper m
ou b
ĠB ol
Ġdom inated
Ġrepe al
ĠW i
Ġ5 8
ĠCl ark
Ġsum mit
ĠMont real
ĠEx p
ĠUs ing
E F
Ġo rient
com mun
Ġent ity
Ġhom osexual
usse ll
W he
v i
ĠB an
Ġexist ed
Ġagree ments
ĠEvery one
f unction
Ġd reams
Ġh arsh
Ġu pload
Th ank
Ġpass word
Ġeconom ics
ĠProt ection
Ġstim ul
G l
v ia
ĠC PU
Ġinter ior
Ġelect oral
Ġlab our
Ġguarant eed
N S
Ġter r
Ġbi ological
Ġoccas ional
Ġpo et
Ġspec ulation
Ġanalyst s
Ġentr ance
Ġthe r
is hers
ĠM L
Ġfund ra
Ġl ift
os a
Ġkn ife
Ġgu id
io x
Ġcamp s
20 13
Ġtwe ets
ac les
ĠP ers
ĠWe iss
ĠNev ada
L Y
re ated
Ġc abinet
ĠS EC
new s
Ġnerv ous
ĠS a
ĠK ings
Ġtremend ous
Ġj unior
Ġgu ards
ĠAre a
Ġconf usion
Ġdescrib ing
Ġacqu is
Ġout comes
book s
Ġcy cl
Ġsold ier
Sh are
7 00
t est
Ġte eth
ĠTh ings
Ġprof ound
ol id
Ġstead y
o ft
st op
ĠB ul
ĠSt ation
sec urity
Ġload ed
ĠiP ad
Ġmortg age
v ar
ĠG ordon
ĠK it
Å Ł
ĠJ enn
C or
on ed
ĠM ove
ĠD u
Ġcur ious
Ġstreng then
Ġbrut al
G ener
th ur
ĠO x
b ound
Ġ !
Ġb ureauc
Ġh oles
ĠAr gent
ĠMan hattan
Ġeng aging
Ġkick ed
Ġdepend ent
Ġinev itable
h uman
n an
Ġle aked
Ġj er
Ġintegr ated
ĠStan ford
ĠN azi
ĠG ro
Ġall y
Ġdesper ate
J P
ĠP ope
ok Ã©
Ġun con
Ġjust ify
ĠCh ange
Ġev ident
Ġcreat ures
Ġpromot ion
Ġhun ting
Ġsoph istic
Ġbacter ia
A B
Ġstri p
ĠEd ition
1 50
Ġan cest
Ġh iring
Ġconcer t
ĠFollow ing
Ġcon clus
ĠSp ir
Ġy eah
os er
ang le
ĠComm and
Ġl ane
Ġad ap
Ġbomb ing
Ġd ies
ll or
ĠC as
ĠO cean
rim inal
le ans
ĠL ear
Ġforg otten
m ble
Ġend ors
ĠMount ain
Ġ5 7
li hood
Ġ6 00
Ġartific ial
t own
Ġf ingers
Ġl obb
Ġab stract
Ġwond ering
d ep
Ġfl avor
Ġ6 2
Ġpack ages
in ite
Ġg host
Ġch ips
i ens
gr ad
âĢ¦ .
ĠEgypt ian
ĠP ant
Ġcon vert
ag en
Ġ7 2
Ã §
Ġde emed
ĠE b
Ġtow er
Ġm ile
Ġmin isters
Ġbre ast
od ge
Spe aking
on z
Ġsurprising ly
Ã³ n
Ġd ual
Ġst ack
ĠM ail
ag ine
end ar
ĠAn na
Ġple asure
ethe less
Ġg ym
ist le
Ġ1 000
ial s
Ġprov ider
20 12
Go ogle
ĠH ug
Ġfle e
Ġsimultane ously
og a
ĠV enezuel
Ġnow here
Ġregard ed
B r
ĠH ung
ĠH aving
ĠD uke
ab out
Ġdevelop ments
ut ter
ur se
app er
Ġpeace ful
m ay
Ġin aug
ĠUS B
bl ock
Ġspeak ers
Ġcomplex ity
Ġbom bs
in stein
Ġprov isions
wh ite
res hold
Ġcont rary
Ġkill er
b es
Ġv enture
Ġpr ide
ĠCon vention
Ġl ibr
am ine
ĠP age
Ġedit orial
Ġsurv ived
Ġburn ed
r ition
el ve
ĠG ard
Ġtrail er
Ġt orn
unt u
ĠStud ies
B ar
T ime
ĠL es
Ġch ip
ĠY ah
Ġdro pping
Ġbrief ly
Ġrel uct
ĠMar ine
Ġoxy gen
iz arre
Ġun re
Ġrec alled
ĠUn ivers
Ġhost s
Ġcogn itive
n ie
ĠS N
ĠB ond
Ġv it
ĠG ib
ĠBel ow
Ġagric ulture
P al
ant e
ĠE T
M AN
g ate
Ġn urs
Ġdec or
Ġ6 6
Ġpass enger
Ġfig ured
? âĢĻ
m illion
Ġd iver
ĠD ream
ĠN one
ĠAb u
Ġep ic
ĠS ource
ĠG h
Ġsa ke
Ġcheck ing
Ġpack ed
Ġattract ed
im ize
ĠL ater
Ġle ak
o op
Ġ Ø
Ġcon secut
ĠD al
Ġinflu ential
Ġmurd ered
Ġcha os
D R
Ġb ands
Ġfor um
Ġoper ator
ĠOn line
ĠH an
ĠD ur
op t
ous es
Ġun necess
Ġdes p
ĠSo ft
ãģ ®
ut her
ĠR ow
ĠR ome
Ġbo om
ĠOr leans
Ġcho osing
id al
Ġexpect ing
ĠEd it
Ġdi am
Ġrout es
TER S
ĠC S
Ġpro portion
oc ated
Ġfl av
ism s
R ed
Ġ Ù
ĠB C
Ġpro be
ist ically
H T
Ġd a
ail able
Ġsl ot
look ing
Ġmotiv ated
Ġfuck ing
ew art
He y
ĠStand ard
Ġtraged y
R ight
Ġbel t
Ġ/ >
Ġrob ust
Ġresearc her
ĠR aj
ĠV lad
ĠAd ams
ĠQu est
Ġresident ial
Ġdesk top
Ġb ases
ou p
st ruct
ĠY an
Ġchalleng ed
Ġ vert
Ġthe ft
ĠF uture
Ġvis its
Ġtransp arency
on ing
im ir
ĠSc he
ĠCanad ians
ipp i
z one
ĠA ren
Ġas sembly
Ġrest ore
Ġpar ks
Ġsing er
ĠRob inson
L ist
l ink
Ġb one
ĠD ak
St ation
ĠTai wan
h r
Ġt ears
er r
Ġpro l
Ġle an
ast e
Ġout standing
ĠBe ing
ir ates
Ġev olved
Ġtele phone
ol s
ĠH IV
Ġdocument ed
Ġlif estyle
ĠS in
ĠW ould
ri or
Ġcontro ller
Ġbat ter
w ords
â Ĥ¬
ĠA aron
ĠU b
Ġsub tle
Ġav o
as m
Ġ8 00
W A
Ġbul k
Ġt um
Ġ6 3
Ġmilit ants
Ġprosec ution
Ġintim id
Ġre ass
Ġconcentr ation
ĠK a
Ġmon ster
ĠNet her
n on
Ġo ught
Ġc igare
ĠM other
ĠD or
Ġhe s
Ġen for
Ġfil ter
Ġf u
Ġke en
20 17
ĠS U
Ġneighborhood s
Ġshel ter
ĠAnton io
C ar
u ates
ĠJ un
Ġ5 9
Ġpan els
Ġclos est
Ġpres ents
Ġconfig uration
Ġcomprom ise
Ġsy nd
ĠWik ipedia
ĠC R
Ġatt orneys
Ġorgan is
Ġsh ops
Ġcontin u
Ġopp osing
Ġcharacter istics
ĠRes p
Ġoccas ion
w ind
ĠH amp
un a
ub s
Ġback s
ĠUn like
for mer
Ġtransfer red
ĠSnow den
ĠPitts burgh
g al
Ñ ı
Ġb arg
ĠN ature
Ġsc rew
Ġelect ron
Ġappl ies
ĠMP s
ĠSum mer
an im
Ġb ags
ĠP sych
Ġev ac
ĠSh ould
Ġcompl ained
Ġfunction ality
ĠMod i
bre aking
Ġuncertain ty
rif ice
ot te
ms g
Ġra ises
Ġproduct ive
Ġcourt esy
Ġadop tion
Ġexplicit ly
ĠA y
for ward
il st
Th ree
Ġrank ing
Ġc ens
Ġas semb
ĠH ad
ĠC ON
Ġexpect s
c ap
Ġacc ord
F l
g ood
Ġw ise
ĠTh ink
Ġrec overed
put er
ĠMor ris
ĠUkrain ian
Ġsubsc ribe
Ġg ig
Ġsc ared
rat ors
Ġanal ys
Ġconsecut ive
Ġinter actions
AR T
G r
ic ating
be ing
ĠMiss iss
Ġdepart ments
Ġhousehold s
ĠColl ins
ĠPhilipp ines
Ġwedd ing
ĠF ather
Ġor bit
ĠMod el
ĠCorpor ation
Ġm ice
ĠWar ner
ĠMore over
Ġrefuge e
ĠW y
Ġv ent
ĠO il
Ġeng agement
Ġpromot ed
Ġcook ing
Ġgraph ic
c at
Ġbet a
Ġm art
Ġin box
In ter
ĠAnd y
Ġhand led
Ġcap s
Ġnation wide
Ġautom atic
ĠChair man
? )
Ġall iance
Ġfil ing
Ġ) ;
S L
ment ed
Ġsu ck
ĠO pp
Ġmir ror
ĠI V
Ġpo lling
amp a
Ob ama
p g
ing e
le ep
Ġpres erve
For mer
Ġkey board
p ack
Ġc inem
ĠP ear
Ġass ists
ĠInd ones
sc ar
Ġconv iction
Ġrenew able
Ġimp ressed
Ġpat ri
ĠGr ant
Ġjur isd
Ġm ic
im mer
Ġrec ession
Ġdef ended
Ġplan es
ĠLouis iana
ĠCoal ition
Ġin hab
Ġhe aven
ĠB or
ĠB and
us er
ĠLe vel
Ġpolit ician
ĠSte am
Ġquant um
D B
Ġ `
Ġw et
Ġbl amed
Ġexpl oration
ĠNot hing
ĠRed s
Ġf ires
ĠT otal
ĠJ ane
ĠRed dit
Ġlay ers
Ġrob ots
Ġg arden
am ents
Ġsim ilarly
Ġang le
c al
d esc
ĠP okÃ©
ĠL ad
ĠJ erry
Ġdecre ase
ĠHit ler
Ġl ens
ĠB ir
ĠE st
Ġinflu enced
ĠOtt awa
Ġdest ination
ĠDr agon
ĠOther s
Ġprodu ces
Ġsex ually
B en
o vers
p ing
ri ke
Ġhapp iness
ĠFil m
u ating
Ġd ressed
ĠB M
friend ly
Ġconven ient
Ġdet ention
Ġeng ines
Ġpubl ish
Ġcop s
Ġaccept ing
d og
ĠWh it
ric ane
G O
s uch
âĢ Ĳ
un ity
Ġbr ands
Ġdisapp eared
Ġign or
b at
ĠE PA
Ġcons ists
Ġsen ators
Ġsil ent
F urther
Ġb ump
le ading
ĠN i
Ġmod est
Ġrele asing
Ġadv ent
Ġcreat ure
Ġbeat en
Ġsole ly
gr aph
ik h
sh ore
fort able
Ġsust ained
Ġj ihad
ry ing
Ġdes ert
Ġqual ified
Ġdepart ure
Ġpled ge
ĠB aker
Ġdon ors
cent ury
off s
ĠTy pe
auc us
ĠTes la
ate ful
Ġimp rison
oph ob
Per haps
S upp
ĠF A
ĠO R
Ġdis abled
Ġcle ared
Ġaccompan ied
Ġthe ater
Ġre ign
ĠS H
Ġch ocolate
Ġfl ights
ars on
Ġproject ed
Ġlaunch ing
c itation
l ied
ĠT am
ter ror
ard ed
Ġpain ting
Ġvol unt
Ġrif le
ĠN orm
ick ed
Ġident ical
Ġb other
Ġpubl isher
ĠFore st
Ġdim in
Ġcompe lling
Ġbe ef
Ġprem ie
S E
g ly
ru p
Ġins ist
Ġoper ated
ĠPol and
ĠGr iff
Ġconstruct ed
Ġmet h
Ġtechn ological
Ġrese mb
ows ki
Ġpod cast
Ġa wards
Ġb ol
ĠH u
Ġsa uce
Ġaffect s
f ish
Ġover night
Ġel abor
Ġcheck ed
ĠPer ry
Ġalgorith m
Ġguid ance
I O
Ġp our
ĠS everal
sel ess
Y eah
Ġpol ar
olit an
k es
ch ron
ĠPost s
f irst
ĠC old
ĠChrist opher
Ġarrest s
Ġemphas is
w ich
ar med
Ġbe ars
Ġsur ge
Ġben e
Ġca ution
Ġpra ised
v as
ĠL og
ard o
Ġinnov ative
Ġf ut
Ġf its
Ġg ut
ust ing
Ġamong st
Ġadministr ative
ĠR aid
Ġhead lines
ĠCor p
G ood
Ġr anging
ĠMan ning
AS H
ĠFin ancial
Ġicon ic
om ic
Ġg olf
ĠD a
ond uct
ock ets
Ġlux ury
l aim
Ġre wards
Ġteam mates
Ġcour age
Ġinvest ed
ĠFl ash
d i
ĠM arg
Ġr ivals
Ġch amber
Ġprivile ge
ð Ł
ra h
Ġgold en
hy th
ĠVictor ia
M B
or ical
Ġin ex
Ġwh is
ĠB art
Ġen abled
mer ce
Ġent ities
Ġwor ship
Ġman ual
Ġsl ide
Ġdest ro
h ill
ĠCh ampions
Ġro lled
ix el
ĠRe id
ĠAl aska
ĠDe b
to o
Ġcompet itors
r ons
ist ance
ĠR s
ere n
Ġemploy er
bit ious
Ġreflect s
ĠTh ird
Ġspot ted
Ġact ed
Ġnight s
ĠN az
Ġt ent
Ġproduct ivity
c ular
o pp
is ode
le ted
ĠH oly
ĠG ill
Ġdr inks
ĠNether lands
c ode
ree k
ĠA lp
ĠSwed ish
Ġsafe ly
Ġcour ses
Ġt el
Ġt issue
ac o
Ġare na
Ġviol ated
Ġaw ful
Ġunf ortunately
Mich ael
Ġw ore
ul se
Ġliber ty
olit ical
Ġrec k
Ġcount ies
Ġhigh way
Ġgl obe
viron ments
k ward
Ġquiet ly
pie ce
Ġbene ath
ĠM ap
ĠP a
qu es
Ġlegisl ature
Ġmigr ation
ĠD A
ress ing
com p
Ġposs ibilities
Ġprotect ions
Ġ198 8
Ġexam ine
Ġscrut iny
E ach
l arge
ar o
ĠF O
Ġor ange
Ġsee ks
ur ities
ass ion
Ġcol leg
Ġreal istic
Ġbath room
r ics
ĠBl ood
Ġmiss iles
Ġaccur acy
ĠS D
ĠE nt
Ġconflic ts
ĠJere my
ĠR ussell
ĠN a
Ġhor rible
cons cious
D id
Ġb ip
Ġp y
Ġan onym
Ġd uration
ll ers
Ġv oc
Ġch ronic
Ġinter ven
go vernment
Ġoccas ions
ĠJim my
f i
t te
ĠK l
ĠD isc
Ġcrit eria
ĠIm m
ĠCamp bell
Ġb izarre
Ġd irty
ĠL uke
ĠV ar
ell er
ĠCom ics
Ġreview ed
Ġmyster ious
. ]
C D
ur i
ĠR ap
ĠDe ep
co ins
Ġbo ards
ĠRuss ians
Ġce ase
ĠContin ue
Ġaccus ations
Ġthe oret
au kee
any ahu
Ġdesign ated
Ġparticip ating
d ict
es ides
Ġst atic
ren cies
Ġliber t
ĠMedic are
Ġoccup ation
ĠT s
Ġabs urd
ĠPlay Station
win ning
Ġh unt
ĠD og
ĠG PU
Ġal ert
ĠU I
Ġlong time
Ġmet ers
ke ley
Ġdelay ed
ĠIndepend ent
Ġintellig ent
E m
w art
ot ion
Ġcon ced
ĠR est
Ġquestion ing
On ly
Ġcollect ing
ĠN ap
Ġres ort
Ġcount less
ah a
Ġpost er
Ġaddress ing
Ġint rig
ne g
Ġinvestig ated
Ġrad ar
Ġgent le
Ġf er
ĠE mer
Ġreg ret
Ġ6 8
ĠBe at
om ach
Am ong
K E
Ġr iders
ĠN ash
Ġmean while
Ġ198 4
angu age
Ġsepar ated
EM ENT
u ccess
} }
Ġt u
ĠL en
Ġrel ie
Ġphotograph s
Ġbub ble
ĠCow boys
at re
al id
Ġl yr
Ġfavour ite
Ġpain ful
ĠQue bec
ĠCra ig
iz ations
ĠPro duct
Ch ina
ĠPe ace
Ġdevast ating
ĠA w
Ġview ing
Che ck
b en
it ate
Ġis lands
Ġann ually
Ġimm une
Ġsto pping
ĠEvery thing
Ġcomb ine
Ġcross ed
Ġver ify
Ġsusp ension
ĠHot el
C P
Ġp ose
ĠN iger
Ġform ula
Ġball s
w aukee
or ate
Ġth reshold
ch ing
Ġcur ve
Rep ublic
J o
Ġrestr icted
ĠM ind
ĠF act
ia h
Ġ198 6
ĠPort ug
Follow ing
Ġsophistic ated
s ize
ĠS ong
Ġdet ained
Ġ' '
Ġexc use
Ġcirc uit
Ġsupposed ly
Ġelect rical
arent ly
Ġ197 9
Ġaccompl ished
m aster
Ġt ension
am an
Ġback up
Ġdocument ation
Ġconver ted
ĠS port
ĠH ub
ĠR angers
Ġover d
Ġexperiment al
b ably
Ġw isdom
ĠM and
inc ial
ĠI RS
Ġrepl acing
Ġexplo it
ĠTok yo
Ġth ro
Ġcom ed
ĠL arry
ĠK night
ĠPark er
P s
Ġt ale
Ġh iding
Ġl ady
ĠL ions
Ġover l
aw ks
Ġcomment ary
Ġst ir
ers ion
Ġme ets
Ġsp ray
ier re
Ġlight ing
if ier
ĠW ard
ER E
Ġcreat or
Ġ198 7
at al
be at
inc inn
Ġprevent ing
Ġnewslet ters
n atural
Ġend less
ern el
Ġspeed s
Ġexam ined
Ġforest ry
Ġobserv ations
Ġven ue
Ġw rap
ab a
Ġp m
ĠP H
Ġdr um
i ors
Ġs ons
ĠSt ock
Ġimp ose
Ġ6 7
oc ur
ĠSt ewart
Ġfin ishing
pro duct
ĠHamp shire
f ile
or i
Ġm ouse
ĠG a
ĠK r
Ġthem es
Ġappear ing
Ġlog ical
Ġgra ve
Ġal ign
ite ment
Ġsec ular
B el
Ġas h
ĠR ain
Ġworld s
incinn ati
ow der
Ġch ap
ĠPh ys
Ġpress ing
Ġcrowd s
Un fortunately
Ġhonest ly
Ġmand ate
ĠFer gus
p ot
Ġt une
ĠL ady
Ġtr ains
ry ption
Ġwin ners
Ġfrustr ation
Ġsp y
ug by
Ġparam eters
Ġm isc
Ġl un
Ġam bitious
Ġold est
Ġchemical s
ĠHawai i
ĠM ormon
ĠN ik
ĠMc Donald
Ġ198 5
prof ile
ĠWay ne
Ġexch anges
ĠD rug
ight ing
ber y
Ġreb el
ĠMarsh all
B re
C T
d rop
p in
ĠN elson
iv an
Ġen vironments
oy d
Ġdeal t
Ġprevent ed
Ġpra ise
Ġtrad ed
Ġalt ogether
Ġwire less
Ġorient ation
Ġt ends
Ġv oid
Ġcelebr ated
Ġbug s
Ġprepar ation
N D
ĠE lection
Ġsupp lement
ĠCor ps
l ib
Ġanim ation
ĠRob in
Ġappoint ment
Ġwal ks
Ġdeleg ates
U D
is ive
Ġpart ially
Ġstart up
b u
r in
ĠA wards
Ġind ication
Ġequ ipped
Ġp ension
Ġco ins
ĠDe an
ĠArk ansas
Ġto ss
ĠS essions
Ġv iable
ĠL ocal
Ġ6 1
Ġant ib
ari os
ĠOlymp ics
g i
t ics
al in
Ġm akers
il ation
od a
Ġcomm ands
Ġexpl oring
Ġoper ators
Ġhost ing
Ġamb assador
ĠRon ald
Ġab und
Ġad j
Ġpred ec
ĠMel bourne
Ġper mitted
Ġpr icing
Ġcross ing
Ġcat ast
Ġdemonstr ation
Ġshoot er
CA A
Ġdiscipl ine
B ig
Ġin du
ĠF ig
Ġfrustr ated
ĠMit chell
M art
Ġdes erves
Ġbuild s
Ġincor rect
Ġmechanism s
Ġfasc inating
Ġto ile
Ġcomp r
Ġcomp osed
lect ed
Ġear ning
Ġoper ational
Ġcoord inator
Ġl one
Ġre actions
ĠN ich
ĠO w
Ġsent ences
Ġtravel ed
ĠMag azine
ĠStan ley
d el
Ġan ch
ĠF ant
el come
Ġbit ter
Ġsignific ance
ĠProf ile
ĠAlbert a
D own
les h
Ġdam n
ĠKurd ish
Ġlapt op
Ġm unicipal
ell o
AT ION
Ġf ishing
Ġm m
ay a
ail ing
eral d
amb ling
Ġp ending
Ġfac ulty
Ġsac rifice
Ġf o
Ġst ats
ip her
Ġcar rier
May be
Ġuncom fortable
E uro
i per
Ġfor b
Ġcomm od
Ġcap ability
ĠCommission er
ĠOrgan ization
h l
ĠJ ets
Ġco in
ĠCl oud
Ġinf ant
ĠFed eration
Ġpregn ancy
m n
ast ed
Ġsing ing
Ġens uring
Ġagric ultural
ar ians
ĠN O
ĠL ie
Ġinst antly
Ġaw kward
âĢĿ )
ĠSt orm
Ġ3 60
M on
W orld
er ving
Ġw ound
Ġres erve
ĠCl ar
Ġreflect ed
Ġt anks
ch arg
Ġadvoc acy
Ġfle w
ĠFurther more
Ġdispl ays
g ence
n amed
Ġwitness ed
Ġconfirm ation
Ġsup rem
Ġreven ues
Ġgr ants
ĠMad rid
A c
ĠP oll
Ġsupp orter
Ġsocial ist
Ġavail ability
Ġsuggest ions
ĠQue ens
Ġaggress ion
ĠC ry
Ġse eds
ell ed
Ġsuggest ion
Ġcitizens hip
Sec ond
u ably
st ory
ab ling
ĠG ene
Ġadv ised
Ġcontro lling
Ġlibr aries
ĠC itiz
ug s
Ġtri ps
Ġpoor ly
ut t
qu er
Ġinf ection
Ġcompl ain
ĠMississ ippi
M ed
S everal
b in
ĠS A
ĠC L
Ġas pir
The ir
Ġpe er
ĠAr ts
20 10
uck er
ĠMan ager
Ġpros per
Ġbound aries
ĠJac ob
ĠD est
ac cept
ĠW ord
Ġj okes
Ġres idence
Ġtable t
A tt
T O
o a
Ġd uties
ĠA FP
Ġdivor ce
ĠF CC
olog ically
Ġcalcul ated
Ġhack ing
Ġimper ial
Ġt ill
Ġto b
Ġst un
ĠB iden
ore r
Ġsent iment
lyn n
Ġd ensity
Ġl ung
out ing
are r
anc hes
Ġpat rol
Ġgrad ually
ĠFergus on
Ġess ay
ĠMult i
Ġremem bered
w hen
Ġst unning
Ġor g
ĠJ a
ĠChrist ie
v ious
ac ular
Ġst omach
Ġsh orter
ĠComm ons
Ġy ard
ĠJ ess
Ġrel atives
Ġmechan ics
ĠFrank lin
ĠSci ences
d ec
t wo
Ġd il
ĠS ection
ĠB enn
ĠH ans
ĠF R
Ġscr atch
Ġz ones
ĠMod ern
found er
ĠVlad imir
re ation
le ton
Ġdr ones
Ġexperien cing
b et
Ġin eff
os it
ĠIn n
Ġdist ribut
ch ar
Ġinter rupt
Ġrespect ed
ĠLyn ch
ĠPatri ots
ĠKick starter
. ),
ĠS E
ĠC rit
ĠD rive
out heast
Ġad vertisement
Ġoff season
ĠCl imate
Ġconserv ation
Ġgreen house
Ġlimit ations
Ġassum ption
z b
Ġin sect
Ġst ressed
ĠBl ock
Ġcirc les
Ġtou g
Ġinstall ation
Ġcru el
ic ut
Ġpri est
Ġsleep ing
ĠAgain st
c up
ĠM as
ĠF isher
ĠCh rome
ude au
Ġdefend ers
or ia
and ed
op les
Ġsum mary
Ġtend ency
Ġdeliver ing
Ġnewsp apers
aren thood
b ecause
78 4
Ġc rown
ĠM uch
ate ur
ĠW iz
un ct
ĠCongress ional
ĠKir k
C NN
I E
Ġs her
Ġal ike
Ġp ays
ĠF le
Ġapp lying
ĠV in
Ġprob ability
L a
w id
im s
Ġdirect ions
Ġrece ives
ĠNet anyahu
ĠÃ ®
Ġb abies
Ġwh ites
Ġser ial
Ġfem ales
ĠHT ML
W ar
b les
b rew
f s
ĠR h
ab el
Ġprocess or
Ġdev oted
E ng
ĠP el
Ġr itual
ĠH uff
Ġj et
ĠMot or
ig hed
ĠC rown
Ġab ort
pl ing
Ġfast est
appropri ate
Ġheart s
or ig
ĠB uilding
ĠTr ue
Ġedit ors
Ġdist ant
Ġenjoy ing
Ġattend ance
Ġb io
Ġb ones
ur ches
RE D
Ġbond s
f old
ĠT ob
Ġha z
ĠN ative
ĠE D
ous ing
Ġcont ents
Ġdem o
Ġtreat y
Ġconvers ion
Ġspread ing
Ġs izes
ect ed
Ġsc ary
Ġbal anced
Ġt empt
re qu
ict s
Ġsatisf ied
F igure
ĠD raft
th al
ov ie
AC K
ĠLaw rence
ĠJam ie
w estern
Ġb icy
Ġp owered
Ġdis par
Ġpre view
Ġadd iction
ĠOr ange
ĠChristian ity
ĠLiber ty
Ġhighlight ed
r c
Ġn aked
ra it
ĠK y
com ed
Wh ite
Ġfocus es
Ġrespect ive
Ġreveal ing
spe cific
ĠAren a
F S
Ġt urb
Ġact ress
Ġcor n
Ġilleg ally
ĠMal ays
Ġmarg inal
j an
r ank
Ġpr ayer
DA Y
Ġexpert ise
m id
ĠN S
Ġres igned
ec onom
Ġmon etary
li ver
ĠSc ar
IS T
fl ow
ĠL ock
Ġtou ched
Ġhistor ically
ĠPy thon
s ized
Ġf urn
Ã© s
ĠEv ans
G iven
Ġtr apped
Ġdeb ates
Ġdrop s
F e
it ably
ĠC B
Ġab ol
ĠUn iverse
Ġep id
fe ld
g ary
w all
ĠG erm
ĠSpe aker
Ġcrop s
ĠPokÃ© mon
ĠS ud
ag raph
oc he
Ġfr act
ortun ate
Ad vertisements
ĠAdd itionally
p y
Ġcomp osition
ĠCh ron
-- -
N um
Ġp or
ĠC incinnati
ĠP rom
ĠN ixon
ĠL ot
Ġsh ake
ĠO wn
Ġstrong est
ĠEnvironment al
H ist
S em
ig ers
ig ma
ect s
ell ar
Ġins ane
Ġliber als
Ġele ph
Ġqual ify
ĠSing h
writ ten
Ġsty les
ĠBloom berg
Ġf et
Ġwe aken
ĠR y
Ġne ur
Ġass ured
Ġhar vest
m other
z es
Ġm ild
âĢ ³
ĠI BM
Ġnot ably
tt es
ĠHun ter
in itely
Ġm ixture
ĠT an
Ġcontribut ing
ĠOcc up
Ġunnecess ary
it ivity
Ġl ake
ch a
ĠR io
Ġâ ĪĴ
st orm
Ġe ars
ĠF OR
Ġsec ured
Ġsens or
Ġder ived
ĠWat son
Ġgro cer
ol o
Ġspace craft
ĠHis pan
Ġaccept ance
ĠRem ember
ĠTe xt
Ġfire arms
Ġhope ful
Ph ot
Ġdiv ide
Ġworth y
IL L
d ata
Ġl anes
ĠPro gress
abb ing
? '
s ky
augh ters
Ġinstru ments
Ġflex ible
B est
m ons
Ġd ign
Ġacquis ition
i ar
Ġc ous
ĠT oy
form ed
Ġconclus ions
ll i
Ġr ice
Ġout er
Ġ6 9
Ġcult iv
ĠBer keley
d f
j amin
Ġp ist
Ġg reet
Ġher itage
Ġdem ol
arm a
Ġpan ic
h alf
Ġinc omp
Ġrot ation
ĠE C
Ġres erves
Ġrespond ents
Ġ196 7
Ġsubsid ies
at ile
Ġc ave
ĠF ind
ĠN in
Ġv ague
Ġcr icket
ĠSm art
Ġl ip
Ġbre ach
ĠMil waukee
Ġconsequ ence
ĠCub a
Ġfro zen
con nect
Ġcelebr ation
g adgets
um ing
ĠL aur
Ġsh ocking
ĠPart ners
Ġb ass
ĠT odd
ĠS aint
ĠN CAA
Ġpl acing
Ġcle ver
Ġdifficult ies
Ġmount ains
at ter
Ġf are
Ġu gly
ĠB und
ĠG and
Ġtrad itions
Ġbenef icial
Ġmand atory
Ġped est
T witter
ac ies
ĠE X
get Error
Ġarg uably
Ġapproach ing
Ġvari ation
Ġoptim istic
iat ric
( "
ol ar
ap iculture
Ġform ally
Ġflex ibility
ĠT ampa
Ġrec ount
Ġexp end
Ġdesign ers
Ġtreat ing
lim inary
Ġcontain er
Ġmotiv ation
getError State
d ev
Ġf est
Ġf ru
Ġinc ons
Ġkn ocked
Ġmut ual
S outh
Ġplan ets
ĠHam as
on i
Ġm amm
own ers
Th rough
ĠMc M
le ments
ag u
ĠEd itor
Ġjud icial
Ġdecl are
Ġdisp os
Ġtob acco
ĠH P
Ġcult ures
Ġenter prise
Ġdetect ed
Ġiniti atives
b est
ro c
ell a
Ġtechn ically
Ġunderstand s
Ġbott les
ĠLa ure
Ġsevent h
Ġp ione
Ġun l
Ġsl a
ĠEx press
Ġmother s
Ġemer ge
Ġwithdraw al
Ð ¼
Ġc ake
ĠM erc
Ġlong est
Ġinst inct
Ġ8 1
AT ED
val id
o ard
iff erent
Ġgr asp
Ġdeliber ately
ĠCirc uit
Ġovers ight
T IS
U TERS
Ġcomp ound
Ġfr ank
ĠMcC on
mind ed
Ġsh ar
ĠCh all
ĠQ ual
ĠSm all
ĠLeg isl
Ġelder ly
j i
Ġro cks
umb led
ĠRec ords
ĠHind u
T om
ĠT a
Ġpr ay
Ġdes ired
Ġfr ight
Ġannoun cing
ĠHe at
rat or
Ġvacc ine
ĠDak ota
s ur
Ġf t
Ġto ll
Ġ19 30
wit zer
ĠAm b
ĠBar ry
ĠAbb ott
ĠH ann
ĠF a
Ġcomple tion
af i
Ġpen alties
em ption
oc us
Ġmechan ical
Ġshif ted
p op
ul u
ĠMor ning
Ġdiscl osure
Ġearthqu ake
ĠâĢ ĭ
ĠG ab
Ġcompl iance
Ġminor ities
ĠCommun ist
Ġanticip ated
ĠH end
ĠBl u
Ġide ological
Ġline back
Ġscen arios
Ġsucceed ed
Ġcrypt ocur
ĠS ac
ĠTe a
ĠBr andon
ĠDV D
R O
Ù Ĭ
Ġw rapped
Ġparticip ated
Ġinn ings
gl as
b urn
h ave
Ġn an
st ock
ap or
ond a
ĠV ery
Ġref using
Ġpartic les
Ġdecl aration
Ġwel comed
L O
Ġt ar
ĠR ound
Ġpain ted
Ġimag ination
ĠAnt i
Ġflo ating
Ġre hab
ĠB os
20 11
Ġpop ul
Ġbar riers
Ġremind ed
Ġpled ged
Ġincent ives
ernand ez
ĠThe atre
per ial
Ġres olved
ond s
Ġstruct ural
": "
A ust
T ake
st an
st art
ĠD J
ĠE li
Ġpe ers
Ġatt ributed
ah n
ici ary
Ġhat red
agh d
d ig
Ġst abil
ĠM D
ĠW inter
ĠF un
Ġaff air
ĠLuc as
Ġwarn ings
G od
w er
hand ed
Ġsla very
Ġ ).
Ġg rip
ĠPr in
Ġrespond ing
Ġearn ings
!!!!!!!!!!!!!!!! !!!!!!!!!!!!!!!!
Ġafter math
Ġfin an
pr ising
Ġsaf er
Ġtrig gered
V ideo
on ia
ĠF if
ĠK arl
form ance
Ġce iling
witzer land
N ever
d ale
w al
Ġf illing
ĠM O
ard ing
Ġsurviv ors
M edia
d ing
g ments
Ġst ocks
Ġdec iding
ĠFor mer
Ġpress ed
ĠCent ury
greg ation
Ġhost ile
ĠSte in
Ġeth ics
Ġconclud e
Ġpresum ably
Ġdoct rine
M al
b age
qu ality
Ġatt itudes
ĠLe af
ĠMar ia
Ġsw ord
force ment
Ġste am
Ġachieve ment
Ġobserv ation
H ave
ac er
Ġmag ical
oty pes
olph ins
A nt
B et
k m
Ġh ub
ĠS ad
em in
Ġ198 1
Ġflu id
ĠEag les
Ġhack ers
Ġembed ded
z o
il ateral
are st
Ġinter rog
ĠÂ °
Ġcomput ing
Ġaud iences
ĠSus an
S ch
Ġwh istle
th an
Ġsu itable
Wh ich
or ient
ast ing
Ġfr action
200 9
Ġspark ed
Ġ ê
ĠF ried
ĠE arly
Ġdet ain
Ġear liest
o ons
ĠP od
ĠH um
ĠR aven
th ink
Ġv ibr
ĠJ ake
Ġgrab bed
E X
M in
Ġex empt
ud ge
roll er
cont rolled
cel ona
iox ide
P at
c ount
l as
ĠT able
ĠR oom
ard less
Ġbreak down
Ġlif ted
Ġdraft ed
ĠJeff erson
N Y
N orth
Ġs ends
Ġto ken
Ġr hyth
Ġmem o
Ġappro ve
spe ed
ĠConserv atives
TH E
H ar
Ġconst rain
Ġbuy ers
Ġtrust ed
Ġteen ager
Ġmanufacture r
S and
ĠNe il
Ġacqu ire
Ġdecre ased
Ġfemin ist
Ġtrans f
cl osure
ĠBl og
ĠGl ass
Â Ķ
ist ani
Ġbu zz
az y
ĠIs lands
ĠSw iss
Ġdisturb ing
Ġavo ided
U M
â Ħ
ĠP interest
ĠG re
Ġbl ess
Ġvolunte er
Ġgr ain
Ġprint ing
Ġclick ing
V al
ath on
Ġunf ortunate
ĠM B
Ġint ensity
by n
m are
Ġw ings
ĠP ur
Ġanim ated
ĠPhil ip
K ey
ĠI ss
ĠF arm
ĠSt ars
Ġnon profit
Ġden ial
ĠConnect icut
Ġlyr ics
f ive
n or
en cer
ĠD om
Ġrep ly
Ġoper ates
ĠSw ift
Ġwid th
I d
h ol
i op
ĠA qu
Ġ7 4
Ġwa ited
Ġcapital ist
ĠCamp aign
dis play
M en
P ar
s upp
Ġr ushed
ĠN eed
ĠFor ces
Ġess ence
PD ATE
t it
Ġp osed
Ġg aining
Ġcont am
Ġsec rets
back ed
ĠVer mont
Ġc am
ĠB eng
ĠK as
Ġprot otype
Ġvir al
Ġcondem n
Ġtaxp ayer
ing ing
sh ot
ĠBr us
Ġmass es
IC E
Ġindic ating
ĠBron cos
Ġun ity
ĠSh an
Ġprev al
Ġedit ing
Ġur ge
aly st
m atic
ul ent
ĠIm p
Ġpurs uing
Ġrum ors
VER TIS
ĠBuff alo
iv a
Ġconduct ing
Ġharm ful
D ata
ĠM MA
ĠB ou
Ġle af
ĠCh ance
Ġtrans mission
Ġgrow s
Ġassum ing
Ġadapt ation
is en
ĠF ro
vers ion
ĠMur phy
Ġlegend ary
r idge
Ġl ib
Ġr all
ĠK u
Ġcomp ly
Ġexp ed
Ġ7 6
Ġsl ave
ĠMar io
Ġdam aging
Ġunve iled
in ance
ĠI an
ĠK erry
ĠCommun ications
Ġadm its
c u
m art
Ġre aches
res a
Ġunder min
Ġunder mine
Ġinvest ing
Ġequ ity
ĠPr inc
F our
s ign
or ph
Ġn ull
ĠT alk
ĠP arenthood
Ġtr agic
Ġra id
Ġcommission er
ut o
are t
Ġgr ay
ĠAr thur
rop olitan
Ġcal endar
ĠTy ler
Ref erences
Ġbutt ons
ac ent
ĠF inn
ĠN umber
Ġcr ude
Ġfree ly
pro t
keep er
l ie
ĠF itz
ess ional
ĠAir port
Ġaltern atives
R T
z i
at oes
op es
Ġreal m
Ġ7 00
g ov
ĠM obile
ĠN ort
Ġdis pro
ank a
be it
ĠOr thodox
Ġexcess ive
ĠSaf ety
Ġcollaps ed
ĠF DA
ant i
ple x
St art
Ġtransform ed
/ .
Ġa est
ĠW orks
Ġtest ified
======== ========
st ra
Ġas c
Ġfin ancing
Ġdirect ors
Ġbrow s
ver ning
oc ate
Ġcoc aine
v o
Ġp ink
Ġr ib
ra ham
Ġqu otes
ck er
ĠInd ians
angel ical
her ic
ĠD omin
ĠU ntil
ĠCh apter
Ġrec y
Ġcontact s
Ġremind er
L ife
h aul
ĠS M
ult s
aw s
Ġ7 8
ĠMad ison
Ġtransform ation
Ġexplos ive
at on
Ġin hib
Ġbe ers
ĠD anny
ĠG ates
Ġfe ared
Ġ7 7
ubl in
ĠB uck
ĠO scar
not e
bor ne
Ġsusp icious
Ġintent ions
Ġtut orial
âĦ ¢
ĠBe h
Ġcart oon
ĠSoft ware
S er
S et
ĠT reat
Ġtr ucks
ang o
Ġbu nd
Ġsoc ieties
Ġrom antic
e u
ĠU C
Ġbel oved
Ġmod er
Ġident ification
Ġport fol
Ġcy cling
Ġvac ation
ĠRE UTERS
Ġsuspic ion
S M
Ġr iot
Ġoff set
ne ver
ĠMil itary
Ġcondem ned
ĠMcCon nell
ĠTr udeau
Ġcred ibility
Ġste ep
ĠSpe ed
ĠWW E
max imum
" ,"
i ary
ĠM aine
Ġde ce
Ġdec ides
Ġ198 3
Ġ197 3
ias m
ĠPet ers
Ġarrange ment
Ġroy al
Ġin mates
Ġn ick
ĠC ass
Ġcon j
ĠH ait
Ġimm ense
Ġcolle ague
Ġtransp arent
. âĢľ
ĠF igure
un s
ne red
ĠCo hen
ĠGr ay
Ġprior ities
Ġbreat hing
ect or
Ġcre ep
Ġident ifying
Ġspons ored
idd ing
Ġbreak fast
Ġsqu ee
Ġemot ion
Ġrenew ed
Ġprohib ited
en c
ĠS ide
Ġha bits
au x
Ġadv ances
Ġdraw s
Ty pe
H aving
Ġn ons
Ġapp eals
Ġenc ryption
Ġtreat ments
ĠC a
ĠM ason
Ġthere by
Ġins urg
ĠVer izon
ĠJo ined
Ġrecru iting
d am
ear chers
Ġdo se
Ġag rees
Ġbelie ving
Ġorgan izing
Ġvis a
Ġaffect ing
add y
Ġcast ing
Ġtun nel
. :
ĠS witzerland
se ud
ation ally
sh irt
Ġadvant ages
Ġdiagn osed
ĠM itt
Ġind irect
oll ah
uer to
claim ed
g roup
i ability
Ġc ats
og g
Ġdon ation
Ġbr ains
Ġprov incial
Ġregul ators
Ġpurch ases
Cl inton
Ġpil ots
ĠBook s
Ġhelicop ter
Ġfu els
Ġn ode
ĠR ice
Ġtour ists
Ġbatter ies
g iving
on er
ĠN atural
Ġsc rap
Ġpres c
bo ards
icial s
Ġtransl ation
ĠYah oo
A h
n one
Ġa uction
Ġs illy
ĠS ox
pr ing
Ġ197 8
id ays
ĠN ep
ĠSol ar
ĠOx ford
Ġb urg
ĠN ame
Ġgener ous
ett a
ĠStud ios
ruct ive
N T
ĠC ell
ab l
Ġsupp ose
ĠUS D
Ġmar ine
AD VERTIS
Ġterrit ories
ãĢ ģ
Ġt ensions
ĠC os
ch arge
ĠG ear
Ġdesc ript
Ġthrow s
U P
Ġan arch
Ġ7 1
Ġhuman itarian
AR D
Ġtradition ally
Ġpassion ate
Ġl au
ount ered
urn ed
Ġche er
Ġinf ring
Ġcare ers
Ġenc ountered
Ġtext s
Ġund ers
ĠRub io
ĠRaid ers
h ome
Ġl aser
im ens
uss ion
Ġple aded
Ġver dict
Ġobser ve
writ er
Ġlobb ying
B E
d ays
Ġw olf
Ġc odes
Ġd ioxide
Ġfail ures
Ġgen et
Ġhy brid
ĠKe ith
( '
ĠM ort
Ġ8 8
Ġproceed ings
st ruction
ĠT erry
Ġgo verning
ĠUn it
Ġshould ers
Ġisol ation
W H
g el
p owered
w he
ĠE mb
Ġfound ing
ĠMc L
Ġfilm ing
Ġ196 8
Ġorganis ations
S y
ig nt
ĠLe v
Ġfun eral
Ġ= =
Ġaccount able
Ġclean ing
ĠBen jamin
Ġgrav ity
Ġadequ ate
b ie
lud e
abet es
Ġcolleg es
rodu ction
AL L
ĠLt d
Ġtempor arily
f il
ĠL ane
Ġhum or
Ġkill s
ĠConf ed
S ign
p ur
al og
Ġfl ip
ĠMer kel
ĠCam bridge
c ard
Ġd irt
ow ell
per or
Ġcons iders
Ġlast ed
Ġgr ateful
Ġexc itement
Ġpurs uit
Ġdestro ying
v ation
ĠS ex
pp y
Ġcount ed
Ġdist inction
Ġcorpor ation
Ġpure ly
ĠGerm ans
ĠBrus sels
arent s
Ġdoub led
ĠPlay ers
Ġrap ed
ĠNor way
Ġvert ical
Ġre un
Ġur ging
C R
r int
is ers
ur red
Ġem pire
oot ing
Ġeconom ist
ĠArt icle
ĠR osen
ĠG er
ĠJ u
Ġres on
Ġveget ables
ĠBry ant
C OM
Ġd aughters
ĠT R
ĠB JP
ĠR T
Ġch urches
Ġind ict
ĠPolit ical
Ġsher iff
ra pe
ue z
Ġcreat ivity
Ġroutine ly
Ġf ict
ĠP AC
Ġattack er
Ġeconom ies
ĠPh one
Ġbar rier
Ġ{ \
ĠCount ry
ĠPlan ned
b ig
st age
ĠS aints
Ġun h
Ġrep ublic
Ġfar ming
Ġbus es
orn s
ĠDep uty
Ġpurch asing
Ġaw a
Ġlength y
Ġdub bed
Ġbankrupt cy
Ġan ime
ut ical
Ġ( )
Ġshe d
Ġinter ference
vis or
x x
Ġm ock
Ġm asc
ch i
Ġam pl
Ġfar ms
ĠGu ide
Ġmeant ime
ĠHoll and
es is
ĠF ish
Ġdon ated
Ġed ited
Ġexec ute
Ġconsum ed
ĠStud y
Ġelim inated
Ġendors ed
Ġf ont
ĠTh or
be an
Ġarm or
ios ity
Ġsequ el
uten ant
Ġlicens ing
Ġperm its
Ġtr ash
cc a
Ġwork force
Ġmon sters
ĠSen ior
ĠBar celona
Ġvill ages
Ġenh anced
Ġcertific ate
f ox
res pect
ĠJ en
ĠK och
Ġgr ace
Ġpubl ishers
Ġblack s
Ġmill enn
Ġwrest ling
Ġscream ing
H ill
Ġre cept
Ġhe nce
ĠCh ap
ĠV P
te ch
Ġtri ple
Ġcreat ors
Ġretail ers
Ġcounterpart s
accept able
ul ative
ĠG arden
Ġdis m
ĠMem orial
Ġtermin al
ĠCast le
m i
ĠRe ed
ĠQ aeda
Ġimplement ing
Whe ther
Euro pe
ĠB ears
ĠE dd
ĠK yle
Ġun rest
Ġinv ite
Ġeconom ists
Ġstat istical
Ġesc aped
Ġking dom
Ġw ishes
ĠA F
.. ."
Ġve gan
Ġauthor ized
ĠHar vey
Ġmagnet ic
t ail
Ġh ier
est one
ĠF ame
ĠL iving
vel t
Ġbet ray
Ġstr ain
ĠSp ider
ĠWik i
ĠTurn er
p ace
Ġd ys
ĠD NC
Ġsu ed
Ġstre ak
Ġland l
Ġsens ors
Ġmort ality
ĠUb untu
U C
V er
ar ound
Ġlab els
Ġarri ving
ĠSer ge
ro se
ĠP ick
Ġpro x
Ġabs ent
ĠCor byn
Ø§ ÙĦ
N ET
Ġ vel
ĠM M
ĠF lynn
Ġ7 3
ĠBr and
sec ond
sp ace
ĠSpir it
l ive
Ù Ĩ
Ġ Ï
in os
Ġb ust
Ġhe d
ĠD E
iz able
ignt y
ĠF el
k h
Ġc u
ĠM om
ĠE V
ne ath
enn a
Ġeth ical
Ã ¥
Ġw reck
Ġpar agraph
Ġspecial ist
Ġpath s
Ġclos ure
---------------- ----------------
Ġthorough ly
m el
ĠH ud
ast ically
Ġoff shore
Ġ19 20
Ġsl ower
Ġcomment ed
O rig
Ġt ang
Ġdis g
Ġfit ness
Ġcompar able
Ġmidfield er
G erman
Ñ ĭ
Ġt ong
ul pt
Ġex ports
ool s
T or
r ane
Ġs isters
Ġd umb
Ġj ack
Ġind igenous
Ġwild life
St ud
Ġpract ically
Ġjump ing
D ec
R ich
b art
s chool
ke ys
Ġch ampions
ose velt
Ġqu ery
Ġpre ference
Ġwar fare
Ġinvest or
ĠLeban on
Ġb oring
ed ed
Ġres ume
ord able
Ġclin ic
Ġaver aged
Ġh ill
ĠA ve
Ġint u
Ġfeed ing
ĠEb ola
M et
s ki
ĠN A
ace utical
Ġsm ugg
Ġwond ered
Ġd ancing
Ġtr ace
Ġag ing
Ġinv ented
ĠGu y
Ġintrodu cing
Ġimmigr ant
Ġcorrespond ing
Ġgam ers
Ġlicens ed
Ġa ired
re ach
it ated
Ġf ence
Ġh orm
ĠB h
Ġres et
Ġ8 2
Ġpen et
fr ame
ĠBelg ium
d eg
Ġb ite
Ġp ig
Ġret reat
Ġ9 2
Ġmet res
Ġsoon er
it ative
Ġtra its
ugg ing
ĠAM D
Ġdam ages
Ġexam ination
Ġexcept ions
Ġinfect ed
C ap
J ames
Ġn it
ur able
Ġr age
ĠJohn ny
Ġpriv ately
Ġcry ing
Ġnovel s
ĠFin ance
Ġdeploy ment
IV E
ĠRog ers
Ġmagn itude
U E
al so
ĠA CL
ĠD ublin
Ġle verage
Ġlike lihood
Ġcount ing
Ġ7 9
Ġgener ating
Ġwind s
Ġ> >>
Ġult ra
ĠPri ze
Ġaccur ately
J an
ick ets
Ġgovern ance
Ġthreat en
Ġconnect ing
vent ure
ĠBet ween
Ġswim ming
W est
ĠB E
pe ople
ors es
Ġwhere ver
Ġgl ob
Ġes p
ĠIS BN
ĠInt erest
Ġnom inated
Ġswe at
Ġwilling ness
Ġdisappoint ing
Ġinstitution al
ADVERTIS EMENT
B it
W ork
ar u
as i
Ġcon vey
Ġint ake
ĠAr ctic
ĠAn ne
Ġaccount ing
Ġ197 7
Ġtim eline
ĠVenezuel a
Ġh alt
Ġl os
ĠG reens
Ġreg ards
Ġcontin uous
Ġclass ical
Ġve to
eter min
Ġblood y
ĠBrad ley
Ð ²
Ġbe ll
ĠM ission
pl an
Ġinter cept
Ġsk illed
Ġboy friend
Is lam
ĠPhot ograph
ĠTem ple
Ġgif ts
Ġto y
Ġto ys
ĠP ap
ĠP ere
Ġal ph
Ġun e
Ġ198 2
Ġdiscl ose
in ery
ĠS ay
Ġst arter
ĠB ash
ĠB ird
ĠP uerto
ĠR ams
ĠCh uck
Ġdirect ory
ĠEx change
Ġunf old
Ġpsych ology
Ġshif ts
ĠT ell
iss a
row th
Ġmem orial
Ġconsum e
ham mad
Ġsepar ation
Ġnegoti ate
f our
v iol
Ġc ents
ot ton
ĠS omething
ĠB aghd
ĠP ence
ri en
ĠK am
cy cle
ĠWith in
Ġpred ictions
Ġimag ined
ĠSun ni
G M
le m
ĠG A
ĠO liver
Ġinter active
Ġment ally
Ġsolid arity
n ames
ol er
Ġr ated
th a
ĠF ab
ĠBet ter
Ġbra ve
ĠUr ban
Ġf ierce
red ict
Ġtr ap
act or
ĠTh under
ip h
Ġjust ified
iss ance
br is
âĢ¦ âĢĿ
ĠÂ ©
Ġsw ift
Ġindepend ently
Ġprec ious
ed i
ĠH amm
Ġstr ings
Ġtem ple
ĠDou glas
Ġp upp
Ġth irty
ĠT un
ĠS earch
ĠM oney
Ġse ctors
Ġincent ive
Ġhypot hesis
G reen
om er
ĠS oul
ĠE ss
Ġcr ashed
Ġmed i
Ġlim iting
Ġrank ings
g ian
n ational
~ ~
Ġhe aling
pp o
ĠR ail
ĠU RL
Ġshe er
te es
Ġafter wards
Ġref lection
Ġtrib al
Us ing
Ġh oly
ĠM aj
Ġsh ore
Ġcomp iled
Ġdef ic
Ġtri umph
Ġmatch ing
ĠBrown s
ĠDou g
ill o
ĠL ess
ust ers
Ġpre liminary
amp s
ins ula
Ġinf er
St ring
ĠBr ady
ING TON
ugg ed
Ġautonom ous
Gener al
ĠClar ke
ar cer
as se
ĠB L
ĠU ser
Ġtw ist
Ġbr anches
Ġ197 2
wid th
s ource
Ã Ĺ
Ġmed ication
ĠTe h
Ġsuper hero
ãģ Ħ
Ġple a
stitution al
G old
ic he
im ated
pe lled
ock er
Ġlast ing
Ġfirm ly
ĠHigh way
Ġp izza
ĠW ii
Ġpl aint
ale y
ĠPal ace
Ġshif ting
Ġincl usion
p se
he alth
ĠM I
Ġtra uma
Ġmid night
Ġhero in
uster ity
ĠTit le
âĸ Ī
dri ven
R ober
T unes
Ġw olves
Ġd ivers
ol utions
ĠP ed
ĠSt alin
Ġreason ing
Ġinev itably
Ġdelic ious
Ġconsult ant
( );
ion ed
st ore
ĠV e
Ġcivil ization
Ġoccur ring
Ġlay out
Ġstro ke
ro ots
we alth
air y
Ġeffect iveness
ĠFriend s
Ġl oving
Ġ1 10
ĠV A
Ġmet ab
ĠQ B
Ġadap ted
i ots
Ġt ub
ĠG B
ĠL ED
ĠL isa
Ġad verse
Ġtrans cript
B rit
S ometimes
y our
en o
ĠG arc
qu al
Ġdiff er
Ġinst ruction
Ġcelebr ity
Ġfundament ally
ĠGM T
S uper
ĠT igers
ĠS ent
ĠC arson
ĠB ah
ĠD R
ab ul
Ġch ains
Ġad mission
Ġair line
Ġlack ing
Ġbehavi ors
Å į
ĠA th
ĠIslam ist
Ġsevere ly
Ġh ij
ĠS i
ĠB uy
us k
Ġab used
ap y
Ġte ens
Ġpe oples
Ġdisc our
ĠHar rison
Ġsound ed
Ġspir its
Ġestabl ishing
Every one
Ġlect ure
B L
M em
s k
t or
Ġne at
ĠTr uth
Ġforest s
Ġparliament ary
ĠMove ment
ĠArgent ina
ĠC C
ir able
ft en
Ġten ure
ĠP un
ĠH em
Ġcomp assion
Ġconv inc
Ġspect acular
writ ing
ĠUnivers al
Ġabort ions
" ;
S l
W ind
Ġb ikes
Ġover look
Ġpart ial
ĠNew ton
az ed
Ġfriends hip
Pro f
Ġhung ry
ocument ed
ĠTrib une
d irect
am y
Ġun anim
Ġmod ules
erv ation
ĠPak istani
ĠBrazil ian
p ublic
u um
Ġp owder
ĠS alt
ĠH ockey
Ġsh aped
Ġen ables
Ġexp ose
Ġmar ry
Ġphys ician
M ike
n ik
à ¹
ad ows
Ġun limited
Ġsp are
ĠIn v
umb ling
ĠAg ree
c s
t able
ĠS or
ĠS pect
ir i
Ġle aks
Ġwork place
Ġunder way
Ġcor ners
Ġgen ius
bl ack
Ġlaugh ing
D oes
Ġl ap
ie val
Ġme als
Ġfel ony
f ly
g t
Ġt rop
Ġj azz
Ġless er
Ġliter ary
ĠR ah
ĠG onz
Ġout right
Ġout door
ĠCh o
ĠBro s
arth y
Ġscreen ing
EC T
Ġcompat ible
oub ted
R ob
Ġcomp aring
ĠRe ading
Ġorig ins
Ġmaintain s
Ġbattle field
O ct
v als
ĠW ATCH
Ġj ew
ĠInd ex
M ake
S R
ad vant
ĠB Y
ĠD ate
ĠK rist
Ġstraight forward
ĠWall ace
Ġsac rific
Ġinhab it
ĠM ust
ue ller
Ġpre y
Ġcontin ent
Ġsuccess or
Ġoblig ation
D ay
ĠC BC
Ch ris
Ġvari ations
Ġaccident ally
Ġexhib ition
Ġwal let
Q aeda
he w
Ġsupport ive
Ġkill ings
pro of
ĠRo osevelt
Ġrender ing
2 000
d ie
se lling
ĠC u
Ġwh ilst
ĠB uzz
ĠG ate
Ġtransl ated
Ġgenuine ly
Ġswit ched
ĠIndones ia
A lex
re nder
Ġw and
Ġp ir
Ġmon op
Ġins ists
Ġfil med
Ġproblem atic
Ġdark ness
ĠBern ard
ĠCharl otte
Ġaccomp any
Ġastron aut
Ġh oney
ĠC ant
ĠD ri
Ġac res
Ġloc ally
D E
Ġdis orders
ĠZ ero
Ġeduc ated
Ġtraff icking
esc ope
ĠTit an
Ġrub ber
Ġdesper ately
Ġm ate
eg u
h ou
y ang
ĠT ory
ĠD ub
Ġaccount ability
g s
Â ®
Ġt ribute
Ġh ood
ĠD iam
Ġpl ates
ec hes
ĠWar riors
Ġappeal ing
Ġexerc ises
Le aks
Ind eed
Ġathlet ic
ĠC orn
os ures
art isan
Ġcons olid
Ġinf amous
Ġbillion aire
Ġgar bage
Ġf iber
ĠR ou
Ġconsider ably
uk i
Ġeval uation
Ġfacilit ate
h al
in ates
as ma
Ġre ception
ĠSh i
Ġ18 0
ĠMar co
Ġdeal ers
Ġcelebr ating
t em
t alk
Ġf lesh
art s
ak u
ĠQ atar
Ġap ology
hold er
ĠCard inals
on ge
Ġc ort
Ġd ive
oth y
ph p
Ġenc rypt
Ġ197 5
ES S
Ġcool ing
Ġgod s
Russ ia
b ull
it bart
Ġl iver
um ns
Ġch ase
ĠK le
Ġreason ably
Ġ> >
Ġdefin ing
cul es
ĠSystem s
ĠIce land
Ġfor ums
ĠSt re
Ġam end
ĠPol ish
ĠEd ge
put ed
Ġenthus iasm
l en
ĠC and
ĠK os
Ġtw in
Ġmod es
Ġavoid ing
Ġaltern ate
1 10
li ent
Ġorgan ize
RE S
Ġrespons ibilities
Ġwood en
Ġeval uate
Ġcolon ial
Ġ19 40
Ġsexual ity
Ġdetermin ing
Ġsac red
________________ ________________
ĠBud get
ĠBarb ara
p it
Ġf ib
Ġin appropriate
ol k
ĠW onder
ri pp
ĠG ay
Ġins ure
Ġf ame
ĠR ing
Ġout fit
Ġclass room
Ġformer ly
pro v
Ġdecl ining
Ġcance lled
Ġd ivid
im age
ĠF ast
ĠJ ong
ĠSt ring
Ġpe pper
Ġunder neath
Ġtem plate
Ġ196 9
ĠWal ter
ĠEnter prise
h is
at in
ĠCo ach
ĠReg ional
Ġlabor atory
p ic
r ament
Ġs ink
is ible
Ġhe ter
ĠB urn
ĠH alf
ĠAl t
z illa
om atic
Ġsu its
Ġfl owers
az ines
Ġpublic ations
Ġ9 6
Ġdel ays
mar ks
ĠColumb us
Ġcloud s
ĠHom eland
ac ious
Ġk ernel
Ġim pe
Ġinter im
Ġtrans c
Ġdiv isions
ĠTer ror
Ġsovere ignty
Ġp ound
ol ine
ag ging
Ġrel ate
ai ro
Ġobser vers
Ġchem istry
Ġl iv
ĠB uild
ĠH ills
ĠG it
Ġrel ating
Ġspec ified
Ġext ends
Ġ9 4
ĠEd wards
Ġ197 6
OS T
point s
ĠRel ations
Ġbes ides
C opyright
S kill
m ain
ĠG host
out ube
Ġsp ite
Ġimp ress
ĠOb viously
Ġhear ings
Mus lim
m and
Ġw are
Ġl ined
Ġr ushing
oad ing
raw l
lement ary
Ġdemonstr ations
Ġadjust ed
Ġdiagn osis
oubted ly
E arly
ir k
Ġout let
Ġcar riers
ĠÂ ĵ
Ġanalys es
e or
al ph
ro gen
ĠC ut
ul um
Ġex agger
ab ad
pe red
Ġover haul
Ġclimb ing
Ġgal axy
ep s
Ġrec alls
ull ivan
Ġloc als
Ġsol ved
Ġname ly
Ġlaws uits
ĠEm ploy
Ġspot light
ĠSim ilarly
Ġm aker
ow een
ĠM ul
Ġpart isan
ob i
Ġfin als
Ġgr at
Ġmob il
Ġarrange ments
Ġtrave lling
Ġarr anged
1 20
9 00
h ner
re r
ĠS O
Ġint ens
Ġatt ributes
Ġmon ument
Ġform ing
ĠGl enn
Ġdetermin ation
ĠTrans portation
Ġmal ware
aug hed
Ġresign ation
Ġd ated
Ġsh y
Ġsh ipped
Ġwor n
ĠSt ra
Ġsp ill
Ġent ries
ĠPr int
Ġexpress ing
Ġcal ories
Ġrein for
ĠBry an
Ġreluct ant
m outh
u ced
ĠN y
ack er
ĠJ ar
Ġind ef
Ġassum ptions
Ġsear ches
Ġelabor ate
ĠI l
ĠH im
âĢĿ âĢĶ
Ġyour s
Ġqu o
Ġins ights
ĠAr n
ĠSp ot
Ġtrad em
olute ly
Ġsmart phones
Ġbrief ing
Ġalbum s
ĠStud io
Russ ian
ur u
ĠN av
ik ing
Ġgar age
Ġteen age
ĠVill age
D ep
M I
ot ine
th s
ĠTh ai
Ġsp awn
ail and
Ġpres cription
Ġmat ched
ĠSur vey
rep resent
Ġexha ust
H ouse
ĠC z
Ġde bris
oc aly
Ġun st
oll o
Ġsl ip
Ġhead line
Ġpar ade
l ash
et ing
ct ive
Ġdisc ont
ĠApp lic
head ed
Ġportfol io
D et
ĠL l
ĠO z
Ġed ges
cl osed
ling ton
ĠBe ast
Ġredu ces
ĠSuper man
G R
M E
ĠP i
Ġint end
third s
Ġt at
Ġc her
ol an
ĠP ad
ĠN ex
Ġme g
Ġen abling
Ġconf using
Ġlist ing
Ġdi abetes
ĠWell s
resp ons
Ġtransl ate
Ġplug in
Ġvig il
G ame
S uch
Ġl aughed
ĠB ased
Ġret rie
ĠCal gary
Ġe ighth
ĠA gr
Ġr am
Ġal tered
ens en
Ġstrik er
col or
fund ed
L eg
Ġout lined
Ġbelong s
Ġflood ing
ĠEp isode
Ġaccommod ate
ĠH unt
RE L
Ġeru pt
F ree
U ser
v ol
w ear
Ġhe ated
Ġman ages
Ġsl aves
Ġ8 3
Ġred e
Ġcele b
ĠAut o
P ress
U PDATE
Ġb ind
ĠM IT
ĠD ist
ĠR AM
ĠAl f
RE AD
Ġfresh man
Americ ans
Ġrecommend ation
k ens
it is
ĠS ep
ĠF at
Ġmed ian
Ġcost ly
ĠCol omb
ĠJenn ifer
Ġpro c
mun ition
oca ust
H igh
W rit
n ormal
Ġf isher
Ġle ather
Ġout break
man uel
Ġchar ter
ĠRec ord
Ġtact ical
Ġpuzz le
p ath
ch air
Ġdis k
ĠCh and
Ġop io
Ġdet ection
ĠSp urs
IT H
Ġhel met
Ã £
Ġbe aring
Ġle ap
Ġsa il
act ic
ron es
Ġaud it
Ġcasual ties
Ġutter ly
R et
Ġst ays
ill ery
Ġun le
ili ation
Ġsal aries
Ġgrad uates
Ġoblig ations
ĠMu hammad
ĠS W
ĠL uck
Ġpre st
Ġem power
ĠSh adow
Ġcontract ors
Ġsubsc ription
App le
Ġmurd ers
Ġloyal ty
ĠTeh ran
Ġs ie
Ġp ale
Ġn ort
Ġre ct
if ting
ĠJ oh
In c
Ġ8 6
V ID
Ġd angers
Ġmis leading
Ġarch ae
Ġtrick y
ĠLad en
C le
b ul
Ġw ip
ĠI C
ĠP as
ov ic
US A
Ġfrustr ating
Ġsubstant ially
w ed
Ġg ard
op ard
ĠHer o
Ġfan cy
Ġsynd rome
ĠBaghd ad
B R
V A
Ġa ides
Ġw ounds
oc ide
Ġmarket place
Ġrev ised
h um
Ġp ile
Ġp ants
Ġm all
ĠC P
ri el
Ġle agues
Ġinc oming
AS T
lev ant
OR T
Ġreb uild
Ġstrict ly
Ġju ice
ed uc
Ġd ense
et e
Ġu seless
out e
Ġpre jud
ĠWh atever
Ġden ying
Ġexcept ional
ĠSub scribe
ĠOper ation
ogen ic
ĠBrother s
N G
Ġin ability
Ġst raw
ter ior
ĠD ennis
amp ed
ĠFor um
ĠShe l
Ġviol ating
Ġfire arm
Ġhistor ian
Ġfort un
ĠRod rig
n esty
Ġo h
Ġb inding
ĠT ry
ĠM ode
Ġinc omes
ĠSo on
work ing
Ġi Tunes
ĠAb d
Ġexpress ions
Ġsens itivity
Ġfold er
ri ages
th ree
Ġris en
irt ual
econom ic
Ġm erc
Ġst er
Ġqu ad
ful ness
ĠAl ice
Ġign oring
ĠScient ology
Ġfulf ill
Sem it
r ong
ll o
ant o
ĠCom puter
Ġsum mon
Ġlic enses
C are
Ġo x
ĠP in
Ġun ch
Ġun law
Ġ8 4
Ġstat ue
Ġmeasure ments
Ġc ord
om o
Ġst ab
ĠR ank
Ġorganiz ers
ĠÃ ł
Ġsan ct
Ġdiscl osed
Ġentreprene urs
ĠEvent ually
Ġf oul
Ġl ips
Ġde leted
ade qu
Ġpret end
Ġmount ed
S ur
i w
Ġ ðŁ
Ġa ide
ig a
Ġdis advant
Ġdisc on
Ġshoot ings
IT Y
Ġli ability
u ity
ĠR A
Ġwhe els
Ġcl arity
ĠIn valid
ĠBr un
Ġpred omin
Ġvend ors
s is
Î ±
ĠC art
Ġwas h
Ġse al
ian g
As ked
umb l
bor ough
200 8
Ġmathemat ical
) (
? !
c ill
Ġ1 30
ĠN eg
Ġnew est
Ġam ateur
Ġrel ies
Ġref usal
Ġ10 1
ĠBl air
ĠRes ources
ĠPalest ine
Ġsport ing
Ġstimul us
ASH INGTON
G reat
form ing
ah l
Ġsocial ism
Ġcred ited
Ġcoast al
Ag ain
ro lling
oc ity
ond e
Ġfin es
Ġve t
Ġca res
Ġmusic ians
Ġquant ity
Ġgall ery
Ġskept ical
Ġarbit rary
Ġd rought
Ġmid st
clus ive
Ġphotograp her
M C
h u
Ġd ash
ab bit
Ġspe eches
Ġ9 11
Ġrest ored
Ġcred ible
Ġkick ing
ĠHol mes
Look ing
ĠÃ® n
E v
Â ·
at ched
ic ers
ĠT her
Ġsp ends
ĠV eter
Ġsurve ys
agon ist
ID S
Ġbed room
Ġbes ide
Ġbip artisan
ret ion
Ġmass acre
J ack
b ot
g reen
Ù ħ
Ġha ul
ĠR ic
Ġdem ographic
Ġdr illing
Ġprop ri
Ġcharacter ized
Ġcred ential
Ġsn aps
Ġ196 4
Ġanonym ity
S ON
Ġn er
Ġne o
Ġsc ulpt
Ġcur s
ĠBre ak
ĠMichel le
Ġf art
ather ine
epend ent
Ġnav igate
Ġalgorith ms
Ġjurisd iction
Ġtheoret ical
p rom
am o
ĠD ue
ĠG PS
Ġinc arcer
ov o
ĠDe al
ĠIm perial
Ġmag azines
Ġsubject ed
Ġment ions
Ġteen agers
Ġconfront ed
ĠDown load
ĠCarl os
ĠAcc ount
Ġgrocer y
deg ree
P ass
Ġl oses
ĠA my
ĠW oman
Ġinflu ences
Ġemb assy
Fr ank
Ġsh apes
com pass
Ġdecl aring
Ġth a
Ġfor k
ĠSp encer
Ġshut down
run ner
A uthor
Ġl uc
ut ing
ĠC T
ble m
Ġsub way
ĠSh ah
Ġ9 8
Ġnational ist
Ġsum mar
ung le
light s
Ġbi ology
Ġperman ently
F ig
O pen
c ulation
Ð ´
Ġo ven
Ġc ab
se arch
ĠB P
Ġun acceptable
Ġpresident s
Ġportray ed
Ġlineback er
M icro
es pecially
Ġn od
ĠD aw
ĠR at
Ġad vers
ĠCh arg
lic t
Ġpr isons
Ġmed al
ĠBl ues
Ġbo ats
Ġphilosoph ical
Ġtun ed
ĠVik ings
Ġassemb led
a ired
ed ge
ĠM ack
um m
ĠG as
Ġhas h
Ġapp et
Ġdesc end
Ġachie ving
ĠDen mark
Ġt ube
Ġc ure
Ġb atch
Ġpro st
ĠO d
pl ess
Ġag greg
Ġinter section
Ġstre ams
ĠGl obe
Ġconsist ency
Ġqual ities
Ġchart s
Ġinfect ions
Ġeuro s
b uild
Ġo d
Ġp uck
Ġp add
Ġdec ks
alth ough
kind Num
Ġpredec essor
Ñ Į
Ġa ston
Ġf usion
Ġp orts
ĠA ld
Ġbl own
Ġam munition
Ġprev ention
ĠGr ace
Ġachieve ments
Ġtoile t
C ity
F I
s im
s ocial
Ġinc umb
Ġmem or
Ġpack s
Ġexplo itation
Ġlibert arian
ĠGand hi
on el
Ġc ra
ĠT arget
pt ic
Ġ3 50
ĠCl ose
Ġpos es
Ġobject ives
Ġ197 4
Ġste pping
ĠRepresent atives
P H
Ġc ute
ĠC our
ĠG rey
ne x
Ġext ending
ex p
Ġbreak through
Ġarri ves
Ġrefere n
Ġs lic
at ers
ĠC row
ĠM ember
ĠF ixed
Ġprov in
Ġautom ated
Ġtourn aments
Ġpreced ent
c all
Ġor che
ĠK ath
Ġtw elve
Ġsupp lied
Ġgu ilt
Ġgener ic
Ġval ued
Ġsk etch
ĠBenn ett
L ink
Ġg rey
ĠC reek
Ġse aled
os i
Ġag g
Ġendorse ment
C ost
Ġp seud
ro d
ĠC her
ĠB obby
ĠF an
ĠBe yond
omb ie
Ġanaly ze
ĠLiber als
Ġembr aced
L aw
M obile
U K
e ast
ĠC elt
ĠP ubl
iv ic
Ġinc on
Ġcost ume
irl ines
Ġhor iz
ĠPhill ips
ĠSud an
B ay
ĠC riminal
Ġplay back
ĠRe form
Ġ197 1
Ġdoub ts
ĠRich mond
otten ham
b b
Ġm ature
Ġn odd
Ġcl uster
ss on
Ġcomple ting
Ġlist ened
let ter
Ġprotect ive
ĠSer ver
Ġfict ional
h ist
he lp
Ġp ockets
id ges
ĠJ av
Ġun ited
Ġsn ap
Ġsettle ments
acc ur
ĠNob el
i ology
u cc
Ġc ache
Ġg i
ĠJ oy
ĠJ oint
ĠTh ailand
Ġart if
Ġ0 1
lick r
Ġdefend ant
Ġhun ger
Ġath lete
Ġconfident ial
Ġexclud ed
Ġcorrel ation
W ashington
ĠF ly
ĠN C
Ġal umin
Ġpass ive
uff icient
Ġfunction ing
ĠChief s
ĠBrother hood
w ick
or us
Ġm ant
ott om
Ġlove ly
Ġfire f
Ġdeter ior
Ġur gent
cast le
cul us
Ã£ o
em ail
ĠCom merce
Ġnegoti ating
Ġevolution ary
ĠMarc us
ĠAle ppo
Ġrevel ations
P ut
k n
Ġw ard
Ġp sy
Ġe rect
Ġst icks
ĠL LC
Ġab oard
Ġtr icks
ĠSh ar
Ġche ss
Ġregul ate
ĠSoc cer
Ġmist aken
Ġgrand father
Ġdisappoint ment
Ġexhib it
Ġtoler ance
ĠGriff in
Ġthro at
j ar
an ium
Ġp ub
as a
ĠD od
ĠN DP
ĠL ang
Ġshe ets
rem lin
ĠAgree ment
Ġd war
per t
Ġcommit ments
Ġreview ing
Ġsell s
ĠLeg end
ĠDou ble
Ġpron ounced
Ġmart ial
A FP
Ã ł
Ġw it
ĠM ueller
ok o
Ġhead er
rat ic
Ġvict ories
ming ham
Ġswe eping
Ġfrank ly
h ots
le tt
Ġre iter
Ġse iz
ĠN ag
ĠL G
Ġcol umns
less ness
IN E
eal ous
Ġdiv ine
Ġtour ism
Ġir rit
Ġtack les
D irect
Ġ ^
op ing
Ġrel ied
Ġbusiness man
Ġevent ual
ĠCont ent
ĠGall ery
Ġdign ity
Ġf ond
ĠA x
ĠN at
Ġbl end
Ġmin er
ĠSe ven
Ġblog s
A ug
en z
as ures
Ġst ones
Ġgl ory
ĠChe m
Ġdisp ens
ĠHall oween
ĠPolit ics
Ġvary ing
he nd
Ġc od
ĠM i
Ġpro ving
em ale
all ow
Ġsp at
Ġbr ick
aff e
Ġident ities
Ġanaly zed
ĠGold man
Ġbul lets
Ġmathemat ics
Ġmisc onduct
a q
j e
Ġa usterity
Ġc ub
Ġp ipe
ĠS em
ĠC hen
ĠK ind
ian ces
Ġfac ial
Ġpress ures
Ġbroad band
ĠSil icon
Ġtouchdown s
Ġelectron ics
d isc
in is
ĠL ic
Ġqu arters
Ġwar r
ĠFer r
Ġconven ience
Ġdepos its
Ġsubscrib ing
Ġfinan cially
Ġtong ue
S an
ag ged
ĠG P
Ġal beit
ib bean
Ġnew er
Ġdon ate
cy cl
Ġprocess ed
ĠOb ject
ãģ «
Ġnecess ity
Ġlegit im
Ġves sel
Ġsubur bs
J apan
] )
Ġd rown
ĠC OM
gh ai
ĠCh ad
Ġback ers
Ġfl ows
ĠTo o
iot ic
Ġintention ally
Ġfundra ising
P ublic
ĠJ uan
Ġk g
ĠK ate
Ġdon or
bs ite
Ġcatch ing
Ġglass es
Ġlabel ed
ĠBang l
Ġcous in
Ġm elt
Ġcon cess
ud a
Ġtre asure
ĠIsrael is
medi ate
mont on
B uy
u v
Â £
Ġen v
Ġref und
Ġviol ate
Ġmus cles
Ġswe pt
ĠOccup y
í ķ
ig ators
Ġst ark
Ġover time
Ġacc idents
Ġfree ze
ser ver
Ġcy cles
Ġdemonstr ates
ĠNever theless
W in
h ole
Ġt ribe
Ġd un
Ġg au
ĠV iol
Ġco pper
Ġrel ent
bl og
Ġ196 5
Ġgrad uated
ĠArab ic
ĠFant asy
Ġglob ally
ĠT D
Ġhe al
ĠFl ight
Ġmess aging
ĠMet hod
Ġdomin ance
ĠBull s
Ġsteal ing
Ġs i
id o
ĠS el
Ġwor ries
Ġ9 3
Ġcor rid
#### ####
Ġprovin ces
Ġb inary
Ġr ings
ĠIn side
ĠCh amber
Ġins pire
Ġsk ull
Ġiniti ated
ĠNob ody
Ġreven ge
N ational
l on
Ġp etro
Ġm ph
ĠA B
ain ted
ĠF L
Ġspe lls
Ġend e
Ġsche mes
Ġvill ain
Ġmal icious
Ġconcentr ated
uls ion
Ġfort une
ĠFour th
Ġrevel ation
Ġconvinc ing
Ġind ie
Ġquestion able
Ġmob ility
Ġapolog ize
Ġtroub led
Ġles bian
Ġpremie re
H el
re ational
Ġl ately
ach t
Ġback lash
elt a
Ġlegisl ators
Ġprem ier
Americ a
ĠElect ric
Ġc m
Ġb ay
ĠW R
Ġcan cel
te am
ai res
Ġpresent ing
de velop
Ġtour ist
ĠHug hes
ĠNash ville
f in
ou st
Ġdef ines
ĠTr aining
Ġmet a
eng u
Ġcrowd ed
ĠAh med
ant ing
Ġk icks
Ġfl ower
Ġpred iction
ĠMont ana
Ġpit cher
he astern
Ġn est
ĠS au
ĠW inn
ĠR oth
out ed
ange red
Ġsomet ime
ĠBr ig
ĠAss istant
Ġvol umes
Ġvulner ability
S am
Ġp ause
ĠM ine
ĠFr an
Ġdr ill
Ġforeign ers
ĠWork ing
ĠGirl s
G L
k g
r one
ĠA irlines
ĠL uther
Ġ8 7
ĠEl sa
With out
ĠSand y
sp oken
ĠBelg ian
w rite
ar ious
ĠH at
us ions
ĠG round
Ġbre ed
Ġdest ructive
Ġsymbol s
Ġtrib es
orient ed
G N
Ġp iv
ac hers
ur ring
Ġsh ook
act ing
Ġdisc ourse
Ġca ut
Ġ: :
Ġver bal
ĠHispan ic
A f
ĠG ive
ĠK an
ĠAl ong
Ġcommit ting
yn c
Ġassoci ations
Ġupgr ades
Can ada
Ġhabit at
orig inal
c m
Ġn odes
ul in
Ġsa ves
ĠK el
ĠLe x
Ġfact ories
Ġdom inate
Ġuns uccess
ĠAff ordable
Ġnav igation
Ġse min
ĠH BO
xt on
Ġprov es
Ġreal ised
Ġvar iant
Ġtax i
Ġsaf egu
isc her
atur ated
ĠBill y
ĠWork ers
Phot os
Ġpro port
Ġv on
ĠE le
Ġread ily
Ġ14 0
Ġreb ell
ĠAngel a
B ill
G S
Ġal iens
ĠL ost
Ġfam ously
Ġcar b
Ġlack s
Ġund oubtedly
Ġh orses
Ġre lying
ĠM E
Ġinv alid
Ġstr anger
cer pt
Ġart ic
Ġinfl amm
Ġhon our
Ġtact ic
CL A
Ġsovere ign
ĠPrin cess
m ans
r ams
Ġp up
ce ans
ĠN PR
Ġle ase
ĠDef ence
Ġhed ge
on ies
Ġto kens
ĠA br
Ġor al
int age
Ġdis ability
ov ation
Ġvar ied
Ġequ ation
Ġdefin itive
Ġkilomet ers
H ub
Ġin adequ
ĠT ill
ĠM VP
ĠU P
ah an
ĠAl b
Ġmilit ant
Ch ar
ĠOver all
Ġhack ed
Ġlock er
Ġp el
ou g
ĠD M
ĠL em
rib ly
Ġart work
Ġaff irm
Ġair pl
ĠPal in
Ġsecret ly
.âĢĻ âĢĿ
Ġinterpre ted
m ile
s qu
Ġa qu
Ġp ars
In tern
Ġpat ents
Ġhold ers
ĠComm ander
Ġbarrel s
ĠMalays ia
A ng
w ould
Ġm ast
Ġh ind
Ġe leg
ir med
ke es
Ġde lete
ĠPr im
Ġlay ing
ĠNe ither
ĠWiki Leaks
ĠNex us
Ġth umb
Ġsh ower
te lling
Ġmin ers
Ġsoc ially
Un like
ĠUp date
Ġdiss ent
U I
Ġ q
es ity
Ġn ost
ĠT ib
ĠCh ile
Ġ19 45
Ġfr ames
Cl ass
ĠP il
Ġse ct
ĠH ope
ĠL ore
Ġover ly
Ġter rain
Ġcur rencies
Ġca f
Ġpers ist
Ġmanufact ured
Ġdu o
Ġretain ed
there um
ĠNaz is
p ol
ĠSt op
Ġover see
ĠCom ic
Ġhard est
Ġcrew s
Ġspons or
C r
Ġa pt
Ġc um
Ġf oster
am ation
ur as
Ġnot orious
oc ke
rit ies
Ġbroad c
ĠIndian apolis
rav is
ĠChance llor
Ġd read
ic ides
Ġse am
ĠR ush
Ġpl ag
ĠK ill
so ever
ĠV M
ĠV i
ĠAd min
Ġphot ography
ĠRod gers
ĠDun can
Ġhydro gen
I X
t i
Ġc yn
ĠC SS
um atic
ust ain
Ġab uses
ra ke
Ġun aware
Ġelect ro
sy stem
Ġspecial ized
Ġprec ision
Ġgrand mother
ĠÃ Ĺ
Ġdefend ants
Ġsatisf action
Ġboot s
ĠBuddh ist
Ġsubur ban
â ĪĴ
ig m
ul ates
Ġne ural
ĠSh ield
Ġcontract or
ĠQu inn
Ġassault ed
Ġtransf ers
U ntil
Ġwh oles
ĠH R
ĠF oster
Ġreg ener
Ġsur pass
Ġinf inite
IC K
Ġfix es
Ġextrem ist
Ġcul min
Ġannoy ing
B ased
l ay
Ġp airs
ic ons
om i
ent ions
Ġv owed
Ġcomm em
oun cing
Ġbrew ery
Ġsear ched
Ġc argo
ĠS elf
ĠH orn
ĠD ays
ak y
Ġ8 9
Ġprev ents
Ġphys icians
Ġmis under
Ġoption al
ĠSn ap
ĠPriv acy
p x
Ġn urse
ĠT ar
ĠM all
ĠM ovie
Ġby pass
ĠK ane
Ġen roll
Ġres id
uc le
ane ous
Ġdownload ed
ĠCost a
L ong
at form
Ġart istic
ĠAust ria
cont rol
Ġdrag ged
ĠMoh ammed
Ġaffili ate
Ġnons ense
Ġt ier
ĠB R
ĠP ath
Ġwhe at
ĠAl most
Ġdispro portion
P erson
S um
in ho
Ġin herent
Ġn erve
ĠB ishop
Ġspec ify
ĠCom b
Ġstick ing
Ġdynam ics
W ASHINGTON
ĠU A
pro du
atic an
Ġpers istent
Ġdu pl
L ater
b one
Ġl as
Ġl ighter
ĠI v
ĠN ut
Ġres ur
Ġ9 7
Ġfif ty
Ġfol k
IF A
bel iev
Sm ith
terror ism
K K
T im
T ur
t w
it ations
Ġb out
ad ata
ĠCom plete
ĠCol lect
ourn ament
Ġnice ly
Ġswitch ing
Over all
S ports
ĠR ace
ost ic
ĠO k
act ory
ys ical
anc ies
Ġactiv ated
Ġden ies
ĠHung ary
l arg
Ġd ug
Ġover r
Ġexpect ation
Ġprof itable
ĠHer itage
Ġcat tle
Ġencour ages
Ġimpl ies
Ġworry ing
Ġcorrespond ent
Ġneighbour hood
ĠB ab
ĠB ear
ĠCl ay
app ro
Ġbo oth
ĠDr ag
Ġbroad ly
abb i
Ġreact or
Ġvolunt ary
b ad
Ġg ly
ĠM ans
ĠR ud
ĠR achel
ĠJ ared
Ġinv itation
ced es
Ġsign atures
ash i
ĠSe lect
Ġcompl aining
ĠPlan et
ibl ical
ĠCz ech
f ull
Ġt ant
ĠS F
ĠP ast
ĠW el
ew s
Ġnight mare
Ġaim ing
Ġentertain ing
Ġflaw s
ĠM ull
ĠB us
ĠB ills
Ġat e
Ġman eu
ĠAr men
Ġorgan ised
Ġshort age
osp el
ĠÐ ¿
ĠBre itbart
ĠCur rently
roph ic
Rem ember
ĠA round
ĠM ak
ĠD ynam
ĠE ither
Ġcl ause
Ġrep osit
Ġcomple ment
Ġpolic ing
Un ited
Ġvac uum
ĠBrook s
Ġconfront ation
ĠAp ollo
C ong
P oint
e very
Ġd orm
Ġg aps
ĠM C
Ġr ats
ĠF am
ĠN athan
ĠE RA
Ġco at
Ġac ute
Ġtrans mit
Ġprop ose
Ġtouch ing
ĠFin land
ĠTra vel
Ġremem bers
Ġa ug
âĢĿ :
Ġj acket
ov ich
ĠCl in
ĠZ ion
ĠCar ibbean
Ġsepar ately
op ic
Ġwhat soever
ĠAl tern
Ġeconom ically
ĠMcC arthy
Ġshar ply
Aust ral
F ire
s n
ĠR af
ens on
Ġfl ies
Ġsl ice
Ġopt ed
Ġsequ ences
aus ible
ĠGarc ia
b oth
p ay
Ġhe ating
Ġpres erved
Ġcur ric
ier ra
Ġanal og
Ġcritic ised
Ġâ ĸ
ãĢ Ĥ
G H
Ġa ster
om on
Ġper ce
Ġ0 2
Ġdesign ing
Ġmeas uring
Ġsubst itute
col m
at isf
Ġd ot
ol ics
and o
pr ises
Ġattract ion
Ġmulti player
ĠGO OD
zb ollah
L ab
in formation
Ġn arc
Ġha un
10 1
Ġneighb oring
ĠEngine ering
umbl r
' '
ĠJ e
Ġj am
Ġint act
Ġoff ence
ĠY ears
Ġro d
Ġback wards
Ġmod ify
Ġlad der
M ac
im port
se mble
ĠF ur
Ġhand y
ĠHol ocaust
Ġdistingu ish
Cal if
F ox
l ation
Ġn asty
est a
Ġar ise
ĠY ale
Ġfar mer
Ġimport s
ocrat s
ĠQu ick
Ġroll s
Ġdim ensions
Se pt
Ġunc overed
ĠPant hers
L D
_ {
p her
p ound
Ġm im
ĠT ru
ĠI b
ĠIs a
Ġiss uing
Ġcontin ually
Ġdist ress
Con f
Ġload ing
Ġbelong ing
Ġble w
Ġtheat ers
g reat
Ñ ĩ
Ġg re
ĠM AR
ĠWh ats
ĠAr c
Ġmix ing
Ġdisp utes
ĠLeg al
ĠTO DAY
inf o
Ġentreprene ur
Ġpoet ry
ĠLaur a
T er
ĠW A
Ġunder go
ĠCoun ter
Ġextrem ists
Ġpref erences
Ġmac ro
names e
F ile
Ġp p
ĠC urt
Ġpro xy
ĠE P
Ġte aches
Ġinv isible
az or
Ġelim inating
Ġvacc ines
Art icle
Ġlin ear
Ġh ilar
Ġhe y
ol ver
br aska
Ġcontribut or
Ġimpl icit
Ob ject
ĠPict ure
ĠEdd ie
rane an
' )
B ER
M at
n ut
re amed
ri ved
Ġover th
ne apolis
Ġattack ers
ĠCol in
off icial
ĠPar ks
Ġbase ment
ĠAct iv
Ġemb ry
Ġreject ion
ĠMet al
Ġremind s
ĠImm igration
it utes
ĠP oly
Ġpublic ity
Ġdr agon
Ġrif les
Ġan k
am bers
ĠN G
ident ified
Ġmake up
ash a
Ġsol ving
Ġmor ality
Ġshare holders
ĠLat ino
ĠHT TP
ĠAL L
Ġham mer
ĠBir mingham
Ġc aucus
ĠJ obs
Ġpat ience
Ġcrit ically
Ġstri pped
Ġpaint ings
Ġrecon c
Down load
Ġepid emic
Ġconstrain ts
V R
er ting
ĠW ire
ĠV oice
Ġmin im
Ġaggress ively
s ch
ĠC ab
ch ief
Ġint ends
Ġrec reational
Ġtw itter
Ġatt ribute
ĠEd monton
Ġban ner
ĠCle an
Ġobst acles
v ised
ĠW or
ĠR ico
Ġfe as
ĠSh in
Ġturn out
Ġris es
Ġamb ul
.... ....
ĠProt est
ĠWeek ly
Ġfinger print
E xt
T ex
m os
s omething
Ġm ol
ment ioned
ĠV atican
Ġev olve
head s
Ġtroub ling
ĠJess ica
) |
A v
E vent
U lt
f eed
Å ¡
ĠB esides
Ġpre season
li ers
Ġrelig ions
Ġsatisf y
Ġhol idays
Ġrecip es
******** ********
Ġpharm aceutical
REL ATED
C ount
Ġc ups
ĠA bs
Ġwe aker
el er
ĠE arlier
Ġsc roll
Ġforth coming
ĠHur ricane
Ġkilomet res
Ġves sels
c ost
r ained
s cience
le ased
Ġbe ast
ĠH TC
Ġdict ators
Ġoverwhelming ly
ĠC abinet
ag ain
ĠD awn
ĠF ile
ĠG raph
Ġcor ps
Ġadministr ators
AC T
Ġrob bery
Ġpark ed
ĠMem bers
rament o
J eff
Ġbe ans
im ation
ie ve
Ġup side
ĠHe y
Ġpo le
Ġsince re
Ġcommit tees
ĠBre nd
do ing
Ġdiscon nect
1 30
m g
Ġt c
ĠI L
ĠK remlin
omet own
Ġcol ony
Ġnon etheless
ĠIm agine
ĠWiz ards
Ġcryptocur rency
E mail
p ers
t ic
or ity
ĠM aur
ul ator
ul ously
ast rous
Ġen acted
Ġev angelical
led on
Ġproject ions
Ġcalcul ations
Ġdeliber ate
Ġflaw ed
g om
se en
âĢĿ âĢĿ
Ġtr im
ĠK in
Ġkn ees
Ġteam mate
Ġdr ain
Ġyoung est
Ġconsult ation
Ġelev ated
Ġrevers ed
Ġneur ons
h ad
ro v
ia z
Ġgu ided
ĠSe ah
Ġtow ers
Ġboss es
Ġuncon stitutional
it ted
an ies
Ġp ad
Ġm i
et on
ĠB order
Ġpro long
Ġcl ash
ft y
ĠZ immer
Ġstaff ers
Be ing
Ġsymb olic
NE W
ĠChron icle
at able
ĠB our
ĠD rew
Ġacc using
Ġtable ts
Ġsan ction
Ġmos que
S il
ver ted
ĠM itch
Ġad oles
Ġcont ing
Ġcont race
Ġhand gun
Ġpriv at
Ġpract icing
Ġnation ally
ĠSur v
ĠContin ued
Ġignor ance
Ġbicy cle
display style
Ġliv est
Ġcredential s
U TC
if ully
Ġwho ever
uff ed
Ġtext ure
Ġprem ise
Ġmulti pl
ĠJosh ua
ĠMach ine
Ġdism ant
F R
F il
b ird
Ġl ending
ĠA ub
ĠW es
ĠH ousing
ĠK ash
Ġun lock
Ġjust ification
Ġsub mission
Ġref uses
Ġmem orable
AN T
ĠCustom er
oc y
Ġcommun ist
Ġtri o
ĠAlex and
Ġthr illed
ĠCat al
Ġmanip ulation
Ġp ork
Ġh ated
ĠS ale
os ity
Ġun int
Ġdis hes
ĠAn imal
Ġstead ily
Hill ary
O H
ith ub
ĠG am
Ġstart ups
Ġmed ieval
Ġdep ict
Ġsk ip
Ġencoun ters
Ġincorpor ated
Ġmetaph or
b ank
Ø ±
ĠT ouch
ĠC ox
ind ex
Ġrun ner
Ġprom in
Ġred ist
Ġliber ties
Ġsle e
imb ledon
R eal
S I
ĠC ris
Ġst ole
ĠM ob
Ġcomp ounds
Ġpr ayers
Ġ9 1
Ġill usion
ĠPet e
II I
ĠBoe hner
S cient
b uilding
ĠN ancy
Ġch airs
ous ands
ĠK enny
Ġins ert
play ing
ãģ ¦
Ġlif ting
Ġsurvey ed
ĠFire fox
Ass ad
ĠBase ball
Ġsubscrib ers
ĠCitiz ens
Ġhoriz ont
J on
Ġa u
ĠP ink
ĠL ives
ĠE ight
Ġrep et
!! !
OR K
Ġill um
Ġhot els
Up dated
Ġnav al
ĠDiam ond
Ġm aj
st ation
ĠF ac
Ġout look
Ġdis gr
ĠSc reen
Ġinj ust
Ġqual ifying
ĠJes se
Ke ep
Ġcigare ttes
A K
a ic
Ġt ender
ig ue
Ġst ap
ĠP ic
Ġr ans
ĠH ig
ĠR C
un ks
Ġsur render
Ġintern ationally
ilit ary
ĠPD F
Ġterr ifying
N AS
W as
Â »
ing rich
im eter
ĠC ape
ĠB B
Ġcent res
ĠPro cess
Ġsk i
Ġtra ject
ĠPal m
Ġoffer ings
ĠSam uel
ĠStr ong
r aged
ay ed
ĠG ot
per ty
Ġour s
Ġshe lf
Ġem pir
In f
Ġtrans pl
Ġgot ta
ĠZ ach
Ġrece ivers
Ġpict ured
Ġintegr ate
Ġlaun ches
ĠLu is
Ġneutral ity
ĠHop efully
Ġanch or
m em
um ar
ĠK az
Ġoff s
Ġcompan ion
Ġfemin ism
Ġru in
Ġmole cules
mid t
Ġpist ol
ĠHud son
O kay
f a
l ocal
Î ¿
Ġm ush
ĠM ann
op ular
Ġch ron
Ġint imate
Ġsc are
Ġfact ions
ph is
the m
Ġgen ome
Ġfavor able
Ġdig est
lin ing
vent ions
Ġpitch ing
Ġembarrass ing
ri ving
qu ire
Ġdes cent
Ġcar ing
Ġrest rain
ĠCol lection
Ġinvestig ative
Ġthreat ens
RE E
Ġconclud es
iot ics
Ġbound ary
P ort
s ight
Ġthe or
on ut
ch at
Ġtr ump
Ġaccount ed
Ġmind set
ãģ Ĺ
ĠBay ern
Ġcomprom ised
Ġinject ion
ĠAlp ha
h or
ĠS ach
ĠM oss
ain er
Ġsu ite
Ġle ver
ĠCan cer
asc us
Ġconsult ing
Ã¼ r
ĠViet namese
Ġsup reme
worth y
heim er
M er
d b
k now
on est
Ġto oth
Ġbe ats
Ã© e
Ġsound track
ĠMus k
Ġimpact ed
Ġstar ring
OW N
Ob viously
i pt
ĠC ond
ĠC av
Ġst aring
ĠP ir
ĠW imbledon
Ġdig it
Ġsatell ites
C rit
M uch
ed e
ĠT ottenham
ĠI R
ke ll
and ing
ĠBut ler
ĠAll ah
Ġfav ored
Ġpack aging
Ġver b
ĠStud ents
ĠBoe ing
Ġtu ition
] ;
Ġo k
Ġneed ing
Ġdist ribute
ĠFl int
Ġhor rific
anche z
Ġcrack down
Ġsimpl er
Ġrecover ing
ĠPack ers
M arch
k ar
id i
ĠW ade
ĠCh ip
Ġris ky
200 7
Ġlink ing
Ġsurv iving
Ġunw illing
ĠCrime a
Ġb our
Ġin accur
ĠN ine
omet er
Ġsm iling
Ġmet ric
els h
ĠGener ation
Ġten ants
Ġfit ting
ĠAny one
ĠIndepend ence
Ġporn ography
child ren
ĠPict ures
ĠChall enge
Ġceleb rities
h art
Ġm ud
ĠM es
oc cup
ĠIn iti
In vest
ins ki
Ġprof iles
Ġappreci ated
Ñģ ÑĤ
ĠShan ghai
% ),
M o
om ers
Ġhe m
ĠW ang
ine z
av ailable
Ġbl unt
Ġimport ed
Ġcampaign ing
Ġapplic able
OM E
Ġproceed s
Ġnin th
Hist ory
ac i
ĠP etro
ĠD ian
Ġtrad es
Ġhor izon
Ġ* /
ĠOper ations
âĢ ²
ĠT ree
ide os
Ġen velop
Ġsc i
Ġtrack ed
undred s
Ġbud gets
Ġ196 6
ĠStud ent
Te am
Ġ Ø§ÙĦ
ĠG oth
Ġdis astrous
Ġatt ach
Ġfin ale
Ġstud ios
Ġsub t
Ġsub mar
Ġconf erences
ĠSh aw
ograp her
Ġjo ins
ĠAss ange
Sh ort
Ġexam ining
oul os
ĠCommon wealth
F T
y on
Ã º
Ġb ru
ĠO pt
ass es
Ġdis gu
Ġel ites
ĠBr ight
Ġtravel s
ny der
Ġcast le
Ġrent al
Ġassass ination
Ġirre levant
ĠGib son
Ġadj acent
ĠBangl adesh
F eed
g irl
ì Ĺ
re cy
Ġan throp
Ġd ining
Ġj ets
Ġlit igation
Ġopp ression
Ġdep uties
Ġconv ictions
Ġball ots
ĠCath olics
Ġbench mark
ê °
Ġs ab
ĠP L
ĠR aw
ĠR PG
own er
Ġsm iled
Ġsim ulation
Ġbre eding
Ġmount ing
Ġ\ (
Ġemphas ized
Ġindict ment
Ġunlaw ful
D el
ad ian
ĠM aking
ort ing
ĠG ore
Ġsu cc
Ġch asing
ah o
Ġconnect ivity
Ġprofess ors
Ġflow ing
Ġcalcul ate
Ġspons ors
ĠClass ic
Ġsynt hetic
B as
st ick
ĠT ask
ĠM aterial
ĠB aby
est e
ĠRe yn
ertain ly
ĠCar r
Ġnational ism
Ġpur ple
Ġlack ed
sp ons
ĠJul ian
S H
ou x
Ġde er
Ġr ivers
iz ers
Ġsystem atic
ĠDem ocracy
Ġstrength s
ĠAdv anced
ibl ings
L ear
Ġl azy
ĠT ogether
ĠE S
Ġch im
Ġany time
Ġent ers
Ġgr im
Ġgl ance
Ġcou pled
OS E
Ġguarant ees
Ġapart ments
Ġobsc ure
M ax
m us
ë ĭ
an ne
ĠT X
ĠI de
ĠD j
um my
Ġdep icted
Ġland mark
ograph ical
oph y
Not es
Ġpredict able
Ġshout ed
ĠCreat ive
Ġprosper ity
c lick
ĠS ite
ĠS old
Ġr ugby
ĠF ighter
Ġv ic
ĠL ion
Ġind ivid
Ġsl aughter
ĠSal v
u art
Ġw itch
ĠT ak
Ġapp ar
ĠY ellow
Ġbeh ave
Ġcommission ed
Ġunemploy ed
agg ering
ĠForm ula
gom ery
ĠSeah awks
T w
z el
Ġs add
Ġd awn
ok u
Ġreal ise
AS S
ĠMer cedes
ĠTra il
Ġthread s
Ġclar ify
Ġcycl ists
Ġnodd ed
M M
M ap
r ise
Ġw rist
Ġe go
ment ation
ĠD I
Ġcomp iler
Ġen vision
Ġwrit ings
Ġfix ing
ĠTom my
Ġmer it
Ġpurs ued
Ġhyp oc
rik es
Ġdepos it
Ġauthent ic
Ġdefic its
ĠAth let
or p
ĠW ere
ĠR u
Ġsc attered
Ġsmall est
Ġcoll ision
ĠMat ter
serv ice
Ġintrig uing
it r
est on
Ġbatt ling
Ġflee ing
Ġn aming
ĠL ower
ere k
ific ant
ĠAg ent
Ġdeli vers
ĠCons ider
Ġbackground s
ĠWood s
ĠCub s
Rober t
re hend
Ġst int
Ġst iff
ĠB annon
ĠD ise
min ster
oh y
ĠPh D
Ġrecord ings
Ġyield s
ĠFred er
Ġfert il
ĠTib et
n ia
v oc
on gh
st rators
am iliar
il itation
ri ents
ĠF ace
un ny
Ġnot ified
os ph
Ġj unk
Ġcl ashes
min ent
Ġ16 0
fl u
AM E
IG HT
Ġassign ment
ĠML B
Ġadvent ures
U se
he rently
ĠB ed
if iers
Ġqu ot
Ġpost p
Ġorgan isms
ĠMin neapolis
Ġment ality
Ġ196 3
Pl ay
Ġforg ot
Ġju ven
dep th
Ġfru its
G en
à ¤
Ġover head
Ġno ble
Ġbl ade
Ġcons cience
leg al
Ġmeasure ment
Ġload s
Ġscript s
Ġec ological
Ġble eding
A pril
O O
b ard
f air
ĠA ven
Ġst akes
ers he
ĠK aren
au er
ĠHe zbollah
Ġsur plus
sc he
ĠBar n
Ġcop e
que z
ĠH arm
ĠD olphins
Ġfe ud
ĠInc re
ĠSpr ings
ĠMot ors
m und
Ġt ire
Ġd airy
am pton
Ġst ub
gh azi
Ġsp oil
Ġfe ver
Ġfin ances
Ġgl imp
Ġactiv ation
ĠGl en
Ġnorm s
EN D
ĠNe braska
Ġamb ig
ĠSteven s
Sand ers
Ġrall ies
Ġglimp se
M att
P age
X X
b ast
Ġ Ã©
et a
ĠC op
Ġr anges
Ġint ensive
ong yang
Ġbl oc
ix els
Ġdisc retion
ĠMc D
ĠCub an
Ġbuff er
Ġcontrad ict
atern ity
ĠNiger ia
ĠPortug al
Ġhaz ard
ĠB anks
Ġple asant
sp an
pet Skill
Ġprompt ing
ĠTit ans
Ġinvent ory
Ge orge
Ġrend ered
Ġflav ors
w age
Ġm g
if a
ĠR ivers
Ġinc om
Ġman a
Ġshe ep
Ġsl ated
ĠApp arently
Ġcand y
add afi
Ġprote ins
b as
if iable
ab lish
ĠL an
ĠK or
Ġsp o
hed ral
Ġ0 3
Ġnetwork ing
ĠMon ster
ĠMag n
gu ard
Ġanx ious
Ġtoug her
c amp
z ip
Â ©
at hetic
ĠT u
ĠT win
ĠS ave
im edia
ĠH ernandez
ant om
Ġdef enses
Ġelect orate
Ġlight ly
Ph il
Ġban ning
OU R
ĠDam ascus
Ġinspir ing
Ġadvis ers
ĠTele graph
e ment
Ġs oup
Ġn ail
Ġat op
ab i
Ġmin us
Ġcur b
uff le
Ġgen ocide
Ġprogress ion
ĠWild life
Ġtroub les
Ġreprodu ctive
ĠBroad way
ĠFO X
" ).
E U
Ġm es
ĠH appy
Ġle thal
oot s
Ġexpl oded
Ġtal ents
Ġboy cott
Ġprison er
Ġder iv
ĠGreat er
Ind ia
Ġdim ension
ĠReds kins
G I
Ġa irst
ĠF IFA
are a
Ġdis puted
augh s
iber al
ĠCo in
ĠUp on
Ġacadem ics
Ġrandom ly
S erv
Ġp ul
Ġfor fe
ĠP T
Ġdes ires
pri v
ãĥ ¼
Ġtrave lled
ĠSteel ers
D esc
j pg
ing le
ĠC M
ĠB ald
pe ction
Ġoff enders
Ġmy st
Ġref res
chn ology
Ġteach ings
ĠLook ing
ĠSac ramento
b ia
p os
r ational
ĠM ol
Ġde ar
Ġman ually
Ġorder ing
uff y
ope z
izz ard
Ġmo ist
Ġconce aled
Ġtradem ark
f ood
m t
Ġp estic
as ive
Ġg rief
ĠC airo
ĠR ule
Ġ( -
we b
Ġbr ush
Ġreb ounds
Ġemot ionally
B o
J une
Ġs iblings
Ġb ored
ĠN as
em et
ĠG N
ĠCh ampion
Ġsec uring
atch ing
Ġlow ered
Ġinher ited
imens ional
ĠB apt
ch ant
ment al
od er
Ġun believ
Ġcustom s
ĠPal mer
iment al
Ġvo iced
Ġvari ants
Ġpun ished
Ġupgr aded
ĠMatthew s
Ġcommod ity
C all
D I
Y S
d ollar
Ġhe els
ĠU l
Ġob esity
Ġ9 00
Ġefficient ly
Ġfurn iture
Ġunh appy
c d
f light
Â Ģ
Ġb er
ent ry
Ġg reed
ĠO m
Ġro oted
als h
gg le
Ġund ocumented
Ġassess ed
Ã¡ n
Ġphenomen a
Ġremote ly
N on
T able
id ity
ĠH orse
ason able
ĠX L
ĠDel aware
ÃŃ a
Ġunp redict
ĠPear l
Ġaest hetic
b ane
Ġwas ted
ĠP ew
ĠE rd
Ġcomp act
Ġmin es
ĠRe ally
Ġexpl ored
ĠPresident ial
ãģ Ł
Ġvirt ue
B ro
Ġe ld
ĠT rip
ĠS ullivan
Ġso y
ĠCh an
Ġacc laim
We b
uck ed
Ġconst itute
Ġneg lect
Ġwat ches
ĠBrew ing
Ġjer sey
Ġaccord ance
s an
ĠD im
ĠD iet
Ġstr angers
Ġloc ate
Ġdep ressed
Ġpar as
Ġcry stal
Sc ott
IM E
Ġprohib ition
Ġrhyth m
K ing
c ro
i ological
Ġh ike
Ġg ates
im ity
ĠH erald
Ġsu ited
200 6
Ġinstruct ed
M or
p resident
Ġh ometown
ĠS QL
ĠC ou
op oulos
Ġnot ification
Ġal erts
Ġsh oe
Ġpost ers
pro cess
Ġstar ters
Ed itor
Ġp und
Ġl ied
ĠP aper
Ġcon gr
ĠN ad
Ġsh aking
Ġab rupt
Ġup hold
ĠK o
Ġdis reg
Ġsk ate
Ġord inance
Ġremain der
Pro t
Ġdress ing
ĠId ent
Ġcont empt
lic ted
Ġinv ention
ĠOb serv
Ġpot ent
Ġlight ning
Ġcollect ions
Ġregul ated
ĠBen ghazi
Ġabsor b
Ġeleph ant
Ġinhabit ants
Ġwe ighed
ĠEm ily
AM Y
ĠInt egr
Ġrecru ited
atern al
e ous
g ue
l av
l iter
Ġo un
Ġd are
ĠT ravis
ĠB ak
Ġch rom
ĠK ap
Ġman ga
ĠYou th
Ġport able
Ġrock ets
ĠBoy s
Ġcolumn ist
ĠPot ter
a qu
ĠS ierra
Ġ( (
ib e
ĠNew castle
co very
Ġneg lig
AC E
Ġamb ition
Ġeat en
Ġnut s
Ġparam eter
usse in
m ember
ĠP owell
ĠW ant
ĠH ab
Ġun conscious
Ġ0 4
Ġfre el
Ġindic ator
ĠMal colm
ĠSocial ist
ĠMem phis
ĠArm strong
Ġmerch and
ĠYan kees
ĠArn old
Ġfortun ate
b us
i ated
Ñ ĸ
ed In
Ġto pped
le en
ĠS ens
ĠB att
Ġse gments
ia o
Ġsp ying
Ġins pection
Ġche f
Ġfore most
ane y
Ġcontain ers
Ġshel ves
Ġorg ans
ĠMerc ury
Ġburg l
k ers
ĠC amb
Ġsc ales
Ġshow case
Ġbehavior al
Every thing
ĠKurd s
ĠLeaf s
B rien
i ably
Ġt ales
am as
ĠM add
Ġsu e
Ġch ick
int egr
Ġsing les
Ġhalf way
icult ural
Ġrecogn ised
Ġtou ches
ĠHer oes
Ġconfir ms
Don nell
Ġatmosp heric
ĠWal mart
Ġven ues
Ġinher it
ophob ia
Ġdescript ions
I ran
Ġw ished
Ġal igned
Ġres ent
ĠCh ase
Ġ19 44
gg ing
Ġgener ates
yn asty
ĠInter ior
ĠEll is
Ġscholars hip
m ill
at ics
en ly
Ġh urd
Ġbe es
Ġg ren
ig o
ĠA A
ĠP red
Ġr ides
ob a
Ġcome back
ĠZ en
sh it
Ġnic he
H ead
ĠA FL
ĠC ool
ĠO culus
ĠSt rip
Ġadd ict
cl ip
ug ar
Ġsubst ances
Ġattend ees
ĠRichard son
ĠTra ff
ĠFil ip
Ġpremium s
ĠOrig inal
Ġcontinu ously
Ġfart her
F orm
re v
Ġs id
Ġp ets
al one
ac cess
ber ger
Ġcompet itor
14 0
Ġtreat s
Ġstat ute
Ġmach inery
Ġinstall ing
Pl us
Ġrail way
ĠNorm an
Ġalumin um
1 000
â Ķ
Ġas leep
ĠD oc
em pl
ĠO ften
Ġoff line
ik er
osp here
Ġfoot print
Ġposition ed
Ġappeal ed
Mc C
Ġgest ure
Ġsuprem ac
ĠLegisl ature
Ġe ternal
Ġg ambling
Ġsh ark
Ġen compass
ĠWe ather
Ġaccording ly
Ġra ids
Ġir ony
Ġpit ches
Ġnut rition
Ġmanip ulate
Ġgrass roots
Ġdispl aced
ĠHait i
F ive
e ur
is i
Ġf ost
Ġth y
ĠS anchez
ĠG ingrich
Ġch unk
ĠK er
ĠK ay
ĠZ one
raw ling
Ġcharacter istic
ean or
Ġamb itions
aa aa
Ġsufficient ly
bro ok
Ġaffili ated
ĠEff ect
emet ery
. ).
N one
Ġb ans
ĠT iger
Ġgr ades
ĠBe er
ns ic
Ġbi ased
ĠDar win
ĠPere z
ĠFerr ari
Ġinadequ ate
J im
ĠW elsh
ĠL arge
Ġpl un
Ġper ipher
ĠWe ap
Ġshow c
ĠBur ton
Ġappreci ation
ĠQueens land
ĠRaven s
l ance
re a
Ġf lick
ĠJ unior
ĠJ edi
ine a
Ġgr ams
Ġcr ap
Ġcrit ique
Ġactiv ism
Ġfavor ites
Ġcompar isons
B Y
ĠS ri
ĠS outheast
ĠS nyder
ir ation
ĠP ract
ĠW ing
Ġsupp ress
Ġimp osing
Ġeas iest
sec ution
Ġwild ly
Ġshout ing
Ġgi ants
D ev
X T
Ñ ķ
Ġm apping
ĠD ad
Ġsc al
Ġdri ed
Ġprec ip
Ġswe ep
amm ar
Ġflags hip
ĠCase y
Ġenfor ced
ĠMarg aret
Q ue
le ague
ĠN ode
Ġ- --
ĠNorth west
Ġpull s
ĠLabor atory
ĠMajor ity
ĠEth iop
ĠCry stal
ĠRodrig uez
v id
th reat
Ġte lev
Ġinf ilt
ĠAb raham
Ġrelax ed
ĠMun ich
ÅŁ i
Micro soft
Ġp iano
ĠM ath
Ġ( +
un al
Ġv ag
Ġhand les
ator ies
Ġdeal er
Ġdig ging
Ġimag ery
Ġcook ies
charg ed
ĠAbd ul
Ġindivid ually
p ically
Ù Ī
Ġt ended
Ġs od
it ial
Ġn t
ĠT ournament
ig ion
ĠF ight
Ġsec urities
iet al
Ġoverwhel med
Ġbail out
Ġsli pped
Ġgenet ically
Ġfor ty
ĠM ade
ĠP ub
ĠW a
ĠN HS
ĠK ids
we gian
Ġmat rix
Ġassoci ates
ĠCons umer
Ġrecip ients
ab lo
ĠG or
ĠG aming
Ġpass words
ann ers
Ġbit coins
Ġeduc ate
ĠEn forcement
ĠMor oc
osh i
ĠJo el
ĠHuff ington
o qu
Ġa in
Ġc ad
ig el
ur ally
Ġcontro llers
ĠEurope ans
Ġbi hl
Ġpen cil
Ġpositive ly
Ġpromot ional
ĠSur face
Ġrein force
ĠHel p
prising ly
n umber
v ity
he ed
ch t
ĠE thereum
Ġcol ored
ik o
Ġpost season
Ġgl oves
Ġbre wing
Ġcollect ively
ĠEv il
Ġdatab ases
Ġcooper ate
Ġliqu or
Ġbon uses
Any one
Ġinsect s
P ac
ar in
ar ak
Ġcl ue
Ġmar riages
ĠSy n
sh aped
Ġfather s
Ġcat ches
Ġmarg ins
C ome
h ang
s ix
Ä į
Ġp oured
ic ates
qu is
ĠSt range
Ġpr one
ĠStar b
Ġcateg or
ipe g
Ġsun light
Qu est
S w
Ġl ingu
Ġg odd
ot ive
ĠM ix
ĠD rop
ould er
ĠIt em
ĠLe ave
ĠOther wise
Ġge omet
ĠLGBT Q
Ġassert ion
Ġenthusi astic
O G
Ġl ion
ĠS K
Ġup s
Ġspe ar
Ġadd itions
Ġmilit ia
Ġansw ering
Ġhuge ly
Ġincorpor ate
Ġcens orship
F eb
b ra
j u
v ial
Ù ĩ
Ġw ield
ĠM ons
are z
ĠSt ories
ere rs
Ġfound ations
ale z
Ġfil ters
ĠGr an
ask et
Ġsens ible
Ġtast es
ĠSqu ad
Ġgang s
ÑĢ Ð°
Ġdecent ral
Ġaver aging
dri ving
Ġhomosexual ity
Ġcinem a
ĠHend erson
Ġcurric ulum
P ower
id y
ĠI CE
lud ed
Ġmet adata
Ġsent encing
Ġimpro per
Ġlegal ization
Ġrecogn ise
Ġintegr al
EL L
Ġcert ified
Ġblank et
Europe an
ĠGOOD MAN
M ain
g as
s un
Ġc oding
Ġst aggering
ĠH ear
mer cial
Ġcertain ty
Ġmusic ian
Ġcontribut ors
ĠTrans it
Ġsatisf ying
Ġprox imity
H P
Ġa fore
Ġc ables
Ġin herently
Ġor b
Ġint ro
ĠAs k
Ġcent ered
Ġtrad ers
Ġport ions
Ġcru ise
ĠMos ul
Ġexplan ations
Ġdistinct ive
Ġcance led
Ġcigare tte
A G
H y
T ra
ĠW ITH
ĠL oading
Ġce ment
ĠIndust ry
Ġincumb ent
at ility
ĠT B
ĠH ost
âĢĿ ?
ĠG ir
Ġch lor
Ġhas ht
Ġen rolled
Ġmet er
12 5
ĠMed iter
umb ai
ĠMil an
ey ed
ĠBuddh ism
F D
p ical
r ising
he arted
Ġo ceans
it ially
ĠS L
Ġu b
Ġwe ars
ĠH az
od ied
ĠN ar
ec d
Ġadv ancing
sh ow
IN T
ĠJeff rey
Int erest
cific ally
l ast
l ength
Ġin k
Ġu pt
Ġr ipped
ul k
Ġinc ap
ĠCur rent
Ġmonit ored
ĠLight ning
Ġinterven e
âĸĪ âĸĪ
Ġ __
ĠS ter
av i
Ġpo em
ĠAr med
Ġcle aring
Ġblow ing
Ġborrow ing
ĠLeon ard
Ġchap ters
Ġlegitim acy
Ġcongr at
M ad
Ä ĩ
Ġy oga
ĠE instein
Ġprot agonist
ĠPr ison
reg ular
Ġpun ct
ĠBer g
Ġclin ics
Ġquant ities
Com ment
Ġconstitu ents
B ob
V is
et ooth
ĠM is
ĠB elt
Ġex cerpt
Ġsp here
Ġgl ac
Ġpast or
Ġarch ive
Ġpromot ions
.' "
ĠGet ting
ĠPri or
state ment
it ous
Ġd ude
ow itz
ĠM az
um ed
ĠO P
Ġim minent
ĠMc N
Ġaut ism
Ġport rait
Ġacadem y
run ning
Ġcere mon
ĠVis it
D en
E V
S ure
f inal
Ġp ond
Ġg ases
Ġg orge
Ġdes erved
Ġmed itation
Ġund erest
.' '
Ġdispos al
H ello
L ove
c ourt
Ġw ra
ot ics
se xual
ĠC ash
us cript
ĠF alls
ĠU CLA
Ġdis ruption
ĠV ent
Ġop ener
ĠCom cast
orth y
Ġpract iced
pro ve
ev al
Ġmis er
Ġrepe ating
ĠBet a
ĠPy ongyang
ĠBash ar
B ox
Ġf reed
Ġn ucle
ad ays
ĠH ass
ri um
Ġne arest
em a
iz ard
ob ody
Ġkind a
ãģ ª
Ġapplic ants
ãĤ ĭ
Ġfaith ful
Ġtransport ed
Ġcook ed
ĠNY C
Ġadvis ory
Ġsie ge
> <
Ġt a
Ġ( Â£
ĠF ischer
Ġsh adows
com m
Ġhand ing
ices ter
ĠBe aut
Ġpat ches
Ġ12 5
Ġener g
Ġband width
Ġdetect ive
Ġhel m
ĠMS NBC
ĠStat istics
D an
l isted
ĠW ings
ĠW alt
el ed
Ġab usive
Ġrem inis
Ġconsist ing
ĠSim p
,âĢĻ âĢĻ
Ġsoph om
ĠEs pecially
Ġmole cular
ĠFal cons
Ġscar ce
Ġdelight ed
ĠIniti ative
B ron
Ġt ide
er ie
Ġst agn
Ġoff enses
ĠHe aven
Ġend angered
Wh atever
yl an
ĠMont gomery
ĠCy ber
keep ing
Ġaer ial
Ġinaug uration
Ġwhistle bl
c ision
h ouses
Ġb ats
Ġl ing
ĠH ussein
Ġco vert
Ġhapp ily
Ġcar n
ĠSh op
Ġpay roll
oint ed
Ġpract ition
Ġhon ored
Ġrecruit ment
Ġecho ed
ĠVin cent
ĠMediter ranean
is co
ĠS r
ĠS pl
ĠSt o
Ġvar ies
ĠNo ah
ĠPr ide
Ġpsych iat
ĠAtt ack
Ġmigr ant
Ġfif teen
ĠPan ama
ĠCD C
Ġsynt ax
Ġlad ies
cu ador
F ull
O p
h at
st ated
and y
ĠL opez
ud ed
ra f
ĠUn ity
Ġcr ust
Ġhome owners
Ġgl uten
ĠMin i
Ġblog ger
Ġprem ature
ĠCast ro
ĠAh mad
ĠRet urn
Ġclim bed
Ġcatast rophic
ĠACL U
Ĩ Ĵ
es ville
Ġm a
ĠS B
com mon
Ġeff ic
Ġnum er
Ġfree zing
Ġcomb o
Ġsimilar ities
Ġassist ed
Ġcat alog
Ġschol ar
Ġconced ed
L ocal
g ow
Ġm old
Ġd ough
id av
Ġde portation
ab we
ĠL um
ĠJ ays
Ġbl at
Ġmin imize
ĠAl ban
And rew
Ġprob able
ris k
Ġmot ive
Ġbank ers
Ġut ilities
ĠMart inez
ĠTH IS
Ġprem ises
Ġadjust ments
Ġsoul s
Ġunw anted
Ġpersu ade
R yan
W omen
b ach
r ative
ad itional
ile m
Ġass erted
by e
ĠPr adesh
Ġhor r
Ġplant ed
ĠStr ateg
++ ++
Ġappet ite
Tex as
H C
J uly
P eter
f ix
g on
ĠP ul
Ġr iots
ore st
ĠR ules
Ġv icious
ĠCh a
ise xual
Ġgr in
Ġfact ion
ĠFor bes
lev ard
Ġdark er
Ġelement ary
Ġrecip ient
Ġmeth ane
Ġincons istent
Ġoverlook ed
I ES
W ould
n is
ĠC reate
ĠM ong
ĠB in
and als
ĠF ine
Ġinvestig ator
arm ing
16 0
Ġsens ation
Ġang les
Cont in
Christ ian
" ),
T Y
r ays
he art
ĠG az
ĠL ith
Ġsp ike
ens ed
Ġco ff
Ġdefin itions
Ġpit ched
Ġelim ination
Ġexha usted
Ġo ath
Ġcl ues
ĠV illa
ĠAn alysis
Ġdist ances
Ġconsist ed
imb abwe
Ġbreat he
Ġuniform s
Ġuncom mon
ĠUlt imate
Ġther mal
Ġimprison ment
Ġvel ocity
E p
Ġp iss
Ġth rive
ĠD S
og yn
Ġen rich
ĠIn g
Ġgu ides
200 5
Ġobtain ing
Ġterrit orial
ĠCur ry
ĠKn ights
ĠAsh ley
Ġencrypt ed
Ġcaut ious
T otal
r acy
Ġc abin
Ġg aze
ĠB ach
ĠH ack
Ġcr ushed
ĠRe y
ret ty
ĠGl as
Ġadm ire
" ]
Ġc ensus
ĠP or
if ics
ĠW ait
Ġj aw
ĠSh akes
ĠUS C
ĠSen ators
Ġcomb ining
Ġcompl iment
ĠEm peror
200 4
Ġque en
Ġque ue
Ġopio id
m ake
Ġd y
ĠT ories
ĠS eth
Ġpl ausible
Ġexp osing
ãģ ¨
ĠSome one
Ġlog s
Se ason
def ense
Ġcoinc idence
Ġerupt ed
D ear
T ech
c am
f illed
ĠI Q
Ġwh ales
ĠM atch
if le
ess age
ĠTh rones
Ġpo ised
Ġsl ides
Ġlot tery
Ġorig inated
ĠAct ually
Ġappl aud
Ġresc ued
Ġ icons
ĠT PP
ĠL anc
Ġover view
Ġfound ers
Ġext inction
Ġ0 9
Ġplace ment
Ġdeb ts
tr ue
Ġemb ark
ĠLouis ville
ĠUs ually
Ġthr ust
De velop
Spe cial
Ġnav ig
Ġdeleg ation
Ġpredomin antly
Ġo we
Ġbe ard
am ount
ĠR BI
ĠL iqu
reat ing
Ġclass ification
year s
Ġprotect s
asc ript
Ġnegoti ated
Ġconcentr ate
Ġillustr ate
Ġemp athy
S ources
d est
t ax
an throp
ri ans
Ġfl ames
Ġmark ing
Ġtest ify
uff s
Ġred irect
Ġconsum ing
Ġhy pe
Ġbuy er
With in
ĠÐ ²
Ġcontem pl
Ġancest ors
Ġnick name
Ġintu itive
B rown
an as
Ġha w
ĠG em
el ong
Ġpr iced
Ġunder grad
the ning
Ġpass port
Ġ0 6
ĠAn a
Ġbas ics
iction ary
Ġtour s
ĠAnt ar
Ġb ent
ĠA K
Ġcon form
Ġr ip
Ġpl ots
ĠK on
Ġcont ender
Ġun related
ĠWe bsite
ĠX i
Ġlog ging
Ġprior it
Ġimpl ied
Ġwood s
Ġextensive ly
gener ation
ĠLear n
ĠKle in
ĠSimp son
J oe
T est
p res
at ab
Ġb aking
Ġg ently
ur an
ĠB ren
ĠH ob
os aur
ok ia
ĠSt rike
Ġres il
aw i
Ġsub urb
Ġnever theless
Ġdirect ing
Ġrest oration
ched el
oke mon
Ġshot gun
Not hing
itz er
ĠPre vention
c iously
t v
Ġw oke
Ġc age
Ġre dd
il ia
ĠW AR
ĠH onda
pe are
me ga
Ġprob ation
Ġcou ch
Ġimm unity
ãģ §
Ġassault s
ĠIndust rial
ĠFa ith
V ery
g ay
l it
Ġm asters
le um
ĠS add
Ġcor rection
Ġdetain ees
Ġawa iting
D am
E nd
Y ear
e i
Ġan ecd
Ġg ru
ĠM end
ĠH ence
Ġcan on
Ġup ward
ount ain
iss ues
Ġbo o
Ġla wn
aid en
ĠEd in
ĠSchool s
ĠReg ister
Ġdiet ary
Ġparad ox
} ,
er ness
Ġs way
ar se
Ġl b
ur ry
ĠB omb
ĠD ale
Ġun a
ew ay
Ġsec recy
Ġreal ities
eng ine
Ġauthor itarian
ĠSch umer
Ġreflect ing
Ġnut rients
ĠSum mit
Ġflood ed
ĠArch itect
Ġutil ize
ĠRand y
ĠProp het
author ized
ĠLen in
! âĢĻ
B erry
s u
s ite
Ġc ared
Ġan ten
ĠM oto
Ġv apor
ĠE N
Ġwho lly
Ġunder cover
Ġfl uct
Ġsl im
Ġcamp uses
Ġunderstand able
Ġcraft ed
ĠBa iley
Ġobs essed
T L
he tt
in el
ĠC ulture
ĠP ierre
ĠF o
ĠV a
other apy
Ġphr ases
âĢĶâĢĶâĢĶâĢĶâĢĶâĢĶâĢĶâĢĶ âĢĶâĢĶâĢĶâĢĶâĢĶâĢĶâĢĶâĢĶ
Ġlun ar
acer b
3 50
h aw
ĠS id
Ġit er
ĠD ust
ie ce
Ġacc ent
Ġev olving
Ġ10 5
Ġprocess ors
Ġbook ed
Ġpar a
Ġmor ph
ĠApp ro
Ġlo oph
olit ics
Ġcoord inated
Cur rently
Ġvibr ant
Ġaston ishing
Ġhilar ious
Ġafore mentioned
M ass
or um
ib les
ah ar
sh aring
ĠDep ression
ON E
Ġadjust ment
Ste ve
Ġathe ist
Ġw ives
oc used
ĠJ et
Ġtri vial
Ġmor ally
ĠBar nes
Ġphys ic
ĠPar ad
Ġsepar at
ĠRom ania
Ġ196 2
Ġoptim ism
ĠThanks giving
Rich ard
Ġplaint iffs
Ġware house
S ocial
v ance
ll ah
ĠM asters
Ġwas hed
ĠH ERE
Ġar rog
ĠRe b
Ġsl ammed
Ġmet eor
ĠTe levision
Ġpred ators
Ġtro phy
Ġvast ly
Ġtight ly
Ġinput s
uter te
ĠColomb ia
D isc
L ive
L ead
Ġc ripp
Ġd oses
ent e
Ġl oot
Ġst ew
Ġnot or
ĠN am
Ġk et
ĠSing le
Ġprompt ly
Ġtheat re
Ġcul p
Ġnost al
Ġank le
I ts
f amily
ĠB ody
ard i
ine ment
Ġsp ont
amp ire
Ġart illery
ĠAn onymous
Ġmain land
Ġbas eline
play ed
duct ed
Ġpromot es
Ġreward ed
Ġincl usive
l iv
p ose
it an
ro e
ut ton
Ġbl u
Ġind ul
Ġdown s
Ġins ufficient
Ġreal izing
Ġwar ns
ĠSe bast
ger ald
sh irts
Ġhom icide
ĠSch midt
Ġprotest ing
Ġdefe ating
ĠKen ya
ĠLl oyd
Î ½
st ad
Ġout line
Ġcont ests
ĠUn less
rat s
ĠGu ant
ili ated
Ġjud ged
Ġbelong ed
Ġdict ator
S aturday
ve t
ĠD L
est ine
ant on
ĠE arl
Ġun equ
ĠCl are
Ġhum ble
Ġinform al
Ġprop osition
Ġaccess ed
Ġvol t
Ġunf amiliar
Ġhar ness
ĠSher man
Ġjail ed
Ã¶ r
ĠHop kins
ustain able
ĠAub urn
D M
b ial
Ġan om
ut ic
ĠC opyright
nd ra
ĠE sc
Ġsc iences
Ġcr ises
Ġconf ined
Ġproceed ed
ĠKash mir
C oun
H ome
V C
c in
d imensional
ĠS witch
ĠB ec
if eration
Ġdec isive
ĠSy m
Ġslow ed
ĠTex ans
Ġexplo ited
Ġhur ts
Ġtraject ory
clip se
W elcome
it ational
ĠC re
ate l
Ġse ize
ĠD ow
Ġdown ward
Ġlit eral
Ġweek ends
ĠCol ts
de ep
Ġmer ger
Ġsyn chron
Ġconstit utes
ĠCro at
Ġautonom y
Cur rent
ĠErd ogan
w ent
Ġat roc
ĠThe resa
ĠJ ama
oy le
Ġconf isc
uss ions
Ġlight weight
ĠBr ain
sec ret
Ġcapt uring
Ġincl ined
L og
is se
Ġm s
Ġl amb
ut ral
Ġcl ips
Th us
Ġstate wide
ĠRe ich
cl ub
Ġcomb inations
Ġdemonstr ating
Ġadvoc ating
ĠSol id
Ġhun ter
Ġstorm s
ĠWinn ipeg
is le
ĠT on
Ġfor wards
ĠB og
ĠP irates
Ġex acerb
nder ing
Ġcap ita
Ġty r
Ġactiv ate
Ġdemon strators
asc ular
ĠMon th
Ġcommer ce
met ic
ĠNor wegian
road s
Ġbull ying
Res earchers
Ġbot hered
ĠEr n
Ġfrag ile
ĠTri ple
Ġinterf ere
il ogy
ĠG R
ĠâĢľ [
Ġun b
Ġexp ans
He alth
ball s
ĠFl avor
Ġemer gence
het ical
Ġwel coming
Ġoptim al
yr r
Ġbroadcast ing
Ġimprison ed
ĠReyn olds
B B
u ber
et z
ĠC ort
ĠW alsh
ĠJ os
Ġview er
Ġimm ers
ĠWest minster
Ġautom ation
Ġuns upp
ĠEconom ics
Ġincomp et
Ġluc rative
Ġagg rav
W ant
q a
or o
st atic
ro ot
ĠP P
ĠD w
us p
ĠK il
ĠHe brew
Ġfin est
Ġcr ashes
Ġself ish
Ġopt ical
Ġred es
Ġrev is
Ġunp opular
Ġlobby ists
Ġinstrument al
Ġbarg aining
ĠAmb assador
Ġdys function
A ir
Q U
a que
Ġt ennis
Ġw o
ĠS gt
ĠW E
Ġ1 11
ok ers
ĠK ell
ĠV el
Ġcap ac
Ġrespond s
OR D
Ġsn ake
Ġflo ors
igg s
ophob ic
E nt
d eb
p ict
p df
Ġt ags
ĠC ork
ĠM alt
ĠJ ob
ens itive
ĠV irtual
Ġinter ventions
ãģ ¯
Ġsubject ive
ĠPer formance
Ġslow ing
Ġseek ers
oles ter
Ġhighlight ing
Ġdiscover ing
ĠRepresent ative
V M
Ġ Ñģ
an ed
00 1
Ġad ul
uth ored
Ġdr astically
ĠSp icer
ĠFl a
ĠMe g
ĠLib yan
Ġhur ting
R ub
S N
f alse
Ġl od
st ud
ĠM oses
Ġsh irts
ĠK iev
per m
Ġprov oc
erv ative
Ġserv ants
Ġvar ieties
Ġcho oses
Ġz oom
inent al
Ġsam pling
Ġflo at
Ġadvis or
Ġspr int
âĢĿ ).
el ines
Ġdo i
ach i
Ġdef er
Ġcur iosity
Ġsl ots
ĠApp eals
Ġur ine
Ġenjoy s
Ġmention ing
Sh ould
amm ad
Ġeval uated
Ġcontest ed
intend ent
Ġstun ned
ĠAgr iculture
Ġreposit ory
M ult
w ait
in arily
ic able
st ru
ot er
ĠB rett
ĠR ut
ich t
its u
Ġcr ush
Ġins isting
sc ript
Bl ue
aze era
S QL
t ake
y outube
Ġc el
Ġh ipp
Ġre nown
ĠC F
Ġpl um
ump s
Ġfl own
Ġcandid acy
ĠOff icial
Ġwond ers
Ġgas oline
Ġstrateg ist
Ġrow s
Ġdiplom ats
Ġexpend iture
Ġpresc ribed
C ON
S un
r ill
Ġh obby
Ġpl asma
Ġcl iff
Ġsw ap
Ġimm un
Ġtyp ing
ĠPer l
ĠÐ ½
ĠComp et
ram id
Ġtask ed
Ġquarterback s
ĠPolit ico
Ġamend ments
= âĢĿ
p aid
it ime
ĠS ak
ĠB uc
ĠE aster
ount y
Ġsc am
Ġno on
Ġ10 80
Ġpri ests
Ġcompet ent
Ġdisapp ro
ĠMet ropolitan
ĠToy ota
M iss
s i
Ġto pp
ĠS weet
ĠC rew
Ġu mb
ĠM ills
ĠD ana
ĠF ix
Ġpl ural
Ġout reach
ind ust
Ġun just
Ġun named
Ġ0 8
ĠAustral ians
ĠTer min
Ġprospect ive
Ġretail er
Ġgra pp
Ġremark ably
ĠSC P
ĠEag le
ĠIM F
Ġconj unction
ĠBapt ist
R P
s ic
ì Ħ
ĠC ards
ĠM urd
un c
Ġsh ine
ĠJ ill
Ġmon itors
Ġpop ulated
ĠInd igenous
Ġval ley
ĠCon way
Ġrespect s
Cont act
E s
p c
im an
ĠH ook
op ath
ĠN ord
Ġv est
ĠL amb
ĠE A
Ġsp ur
Ġrel ates
ef e
AT H
Ġquick er
ĠGu ild
Ġcrack ed
Ġemphas ize
ĠSom alia
Ġcomed ian
ĠPel osi
ĠVeter ans
R ad
b illion
ou ble
Ġd ent
ĠM umbai
ĠL ag
Ġout law
ĠV o
Ġunder water
Ġprogram mers
ĠZ imbabwe
Ġhistor ians
Ġgar lic
Ġcoord ination
Ġje ans
step s
D i
l anguage
Ġbe e
ĠR uth
Ġbr idges
Ġass ure
Ġfun nel
Ġprop osing
ĠÂ »
Ġsw orn
ĠNe uro
ĠFed erer
ĠMoh amed
Ġdevast ated
Ġsne ak
ĠGene va
Ġinterrupt ed
Ġastronaut s
ĠDise ase
p ad
p olitical
w ald
Î ¹
Ġl ou
Ġu m
ĠL ogan
ĠU pper
ĠIns urance
ĠPriv ate
ĠNich olas
ĠShakes peare
ĠD erek
Ġex otic
ĠN early
Ġco h
Ġpat ron
12 3
ĠÂ Ń
ĠGe off
Al ong
Ġvol can
Ġaffect ion
ĠLeg ion
ĠGT X
ĠSN P
ĠPrinc eton
Ġdiscont in
S ix
f ax
g em
Ġo v
ĠD ani
ight y
ĠJ agu
ĠO mar
Ġj ealous
ĠK enn
Ġco y
It em
sh adow
oci ated
Ġaccept s
Ġver ified
Ġcool er
ĠBur ke
Ġperce ive
ohy dr
w en
Ġc otton
al ion
Ġd ip
ag in
ĠN uclear
Ġsh red
Ġoff ended
ult z
Ġspec ifics
Ġaff idav
Ġworks hop
ĠVal ent
ĠGreg ory
Ġgreet ed
Ġrans om
M D
c ot
ĠT ap
Ġy elling
Ġcon ceived
un ci
Ġsuccess es
Ġur anium
ĠId aho
Ġadmin istered
Ġweakness es
Ġtrop ical
k it
Ġd uck
ĠC ob
il ight
ĠG ang
ĠL av
Ġen light
Ġun ified
ĠV ideos
ang led
af ort
Ġpersonal ities
Ġpus hes
Ġanaly tics
Ġcry st
Ġassum es
Ġoccup y
bal ance
Ġadmit ting
ĠConfed erate
Ġlivest ock
M ENT
ĠC I
ĠD rake
ĠE cuador
ĠJ in
Ġall ocated
ĠK id
so ver
Ġhead set
Ġform ats
Ġstory telling
Ġtra it
Ġshall ow
Ġobs ession
ĠLim ited
Ġwip ed
Ġambul ance
d et
i u
Ġ ÅŁi
Ġs ocket
Ġbe et
ĠâĢ ķ
op hers
Ġright ly
Ġmod ifications
Ġrele g
Ġfeed s
ĠEv an
Ġcorner back
Col or
Ġje opard
ĠGab riel
Ġrebell ion
ìĹ Ĳ
Ġunsupp orted
M arc
Ð ·
Ġc ivic
am ples
ĠF ear
Ġgr an
ĠCl int
Ġconcentr ations
Ġsand wich
P o
Ġb ureau
ot he
im en
ĠA IDS
ge ois
Ġme ga
Ġrel iability
Ġintern ally
sh ine
ĠHar bor
Ġmis ogyn
Ġfair ness
Ġbox ing
Ġprosecut ed
Ġprohib it
Ġfemin ists
Ġweigh ing
Ġkidn apped
Ġupload ed
ĠDod gers
% ).
L ittle
S al
h all
Ġl ament
Ġr ider
ĠR acing
ant ry
ĠE ug
Ġim aging
ĠSt uart
rop he
ĠCar roll
ĠSu z
,' '
ĠIns ider
Ġenthusi asts
ĠCole man
ĠQuest ion
Ġinjust ice
ĠEdin burgh
. $
S n
T alk
l ate
Ġthe sis
Ġc ite
Ġst aged
Ġst ellar
us hes
Ġman uscript
ĠSh ane
Ġide als
Ġstand point
che m
ĠWin ston
Ġapolog ized
Ġunpredict able
e ger
as io
ĠL anguage
Ġ19 48
ne ys
Ġsupp liers
ĠLe aders
Ġ12 8
Ġprim aries
ĠPat rol
Ġappropri ately
sm ith
Ġtoler ate
ĠLind a
Post ed
Republic ans
connect ed
Ġpropri etary
( $
Ġp ent
ĠH off
Ġex emption
Ġbo asts
ĠGo ing
You ng
Ġwrong doing
Ġcy l
igg ins
Ġacceler ate
Ġrom ance
ĠTreat y
viol ent
Ġmonop oly
ĠStarb ucks
! ).
Ø ª
ĠS V
se at
Ġint oler
ĠK end
ĠSt ay
Ġtw isted
ues e
Ġmatch up
Ġbarg ain
Ġabund ance
ĠWhats App
Ġmerchand ise
C ourt
in vest
ian i
In s
Ġcol ours
Ġsystem ic
Ġcur se
ĠPl aza
ourn als
Ġpen is
Ġselect ing
ĠReg ion
ela ide
bu ilt
ĠSalv ador
B ur
M ex
e a
g rowing
Ġa kin
ĠB uch
th y
Ġhand c
Ġperform s
gu ided
Ġpool s
Ġillustr ated
Ġsurf aces
Ġaccompany ing
Ġinsure rs
Ġh ills
Ġl end
ĠA zer
ĠF ew
ie ves
Ġup rising
Ġkn ocking
Ġrep ay
ĠShe ll
Ġdest inations
Ġ196 1
ãĤ Ĵ
ĠPC s
Ġstruct ured
Ġthr one
Ġembarrass ed
ĠEmer gency
ĠFitz gerald
Ġbrows ers
ĠCurt is
Ġsophom ore
Ġb od
ĠM ik
ĠB orn
ĠThe ory
ek ing
ĠOr acle
Ġconnect s
Ġgun man
AS E
Ġcal culation
Sh ow
Ġund is
Ġvac ant
Get ting
ĠStep han
Off icials
B at
J S
d ogs
in atory
ĠC lear
ĠD in
ĠD ire
Ġj ar
Ġcomp ile
ĠSt age
ĠY u
Ġbl essed
Ġsm arter
Ġconv entions
Ġshel ters
ĠBudd ha
Ġnurs es
Ġcompr ised
Ġincom plete
en es
se min
ĠA V
os c
Ġch ord
Ġlic ence
Con clusion
Ġexceed ed
Ġinaug ural
R un
c ond
Ã Ĥ
ä ¸
Ġb ore
ĠS ales
Ġhe ck
Ġcon gest
ĠW end
ĠN ak
Ġby tes
Ġbr on
Ġair ports
ĠGu ate
Ġfig uring
cast ing
Ġresist ant
Ġnomine es
Ġinspect or
Ġpedest rian
Ġprejud ice
c oun
g one
ĠB urns
ĠP engu
ĠN ike
Ġjust ices
ish a
Ġmin eral
ĠRe lease
Ġmet rics
uff er
AR Y
Ġobject ions
Cl oud
Ġmax im
do ors
Ġstret ched
ĠInvest ig
Ġneighbour s
Ġcro re
Republic an
Ġmamm als
Ġmetab ol
Ã ¸
ĠC li
ĠC rist
art icle
Ġrec ons
ĠV I
Ġimp ly
ener gy
ĠLe icester
Ġvis ibility
ĠMar ines
Ġdev il
18 0
Ġcore s
Ġnotice able
Up on
ĠKurd istan
Ġpa ired
U RE
v or
Ġc ater
Ġb ounce
ic ans
ĠR alph
iv ated
ans on
ry s
Ġvis ually
Ġer ad
Al most
Ġadministr ator
ĠQu arter
Ġbal ancing
ĠFrank en
Ġexplos ives
Ġsymp athy
Ġbuck et
Ġbureauc racy
Ġdiam eter
b ai
c ue
g mail
Ġt ires
er k
st ant
am on
Ġde af
ĠJ up
ex cept
rist ol
IS A
Ġcomment ators
set t
Be yond
ID E
ownt own
ĠCirc le
Top ics
commun ications
ĠNS W
Ġeleg ant
F ind
H uman
N or
T ION
Ġb ang
st airs
Ġv ivid
pe ace
our cing
Ġthere after
Ġsex y
Ġpick up
amer a
Ġpur ported
Ġsen iors
ĠSch ne
Ġver se
Ġadop ting
Ġcompe lled
Ġsymp athetic
ĠFR OM
yrr ha
" [
7 50
C amp
M R
S O
Ġbe am
ĠH E
ĠH erman
ĠN RA
Ġapp le
Ġrun ners
Ġav iation
Ġflu or
Ġcha otic
Ġalarm ing
Ġvend or
Ġstab bed
ĠCamb od
h n
Ġc ites
it us
Ġb acon
es ar
ic ularly
ĠM UST
ĠR d
Ġex clusion
Ġqu eries
Ġreg imes
Ġrece ipt
ĠOr d
ĠBr is
Ġcomb ines
Ġhom eland
Ġgoal keeper
Ġreb uilding
Ġcommand ers
Ġadvoc ated
Ġperspect ives
Ġoutrage ous
Ġconstitu ency
ĠDO J
Ġmic row
ĠGonz alez
L ine
Ġt ense
re z
Ġnot ices
Ġfl ank
ef ined
Ġrep airs
Ġrest ing
Add itional
ĠHon or
Ġhier archy
Ġub iqu
F in
Ġs ore
Ġd ilem
ur ai
Ġst yl
ĠB ing
ĠP orter
ĠR ot
ĠL akers
ĠAn aly
ract ed
Ġinflu x
Ġdetail ing
Ġ195 6
ixt y
UL L
ĠPartners hip
Ġmasc ul
Ġinfer ior
Ġunch anged
c ule
ë ĵ
Ġt ally
at ivity
at tering
ĠA ur
âĢĿ ),
ĠN um
Ġident ifies
Ġcorrect ed
ĠTH AT
Ġcolor ful
Ġded ication
Ġdial ect
Ġprivile ged
Ġundert aken
!!!!!!!!!!!!!!!!!!!!!!!!!!!!!!!! !!!!!!!!!!!!!!!!!!!!!!!!!!!!!!!!
Bit coin
Ġwarr ants
Ġgau ge
Ġunsuccess ful
Ġappar atus
N obody
ĠS lo
ad h
os ion
ĠE lder
Ġsp am
Ġback drop
li ber
ĠRe act
ins pired
Ġsl ogan
Ġsum s
Ġbi om
Ġsens es
ĠSim ply
Ġshut tle
Ġmotor cycle
OC K
Ġprotocol s
Ġdelic ate
Ġignor ant
G P
c ock
n els
Ġand roid
ur l
ĠF ell
ab ee
Ġcont ention
Ġend ured
Ġdet r
Ġsal ad
Ġheav ier
asp berry
Pr int
ĠRet urns
Ġobst acle
Ġtel escope
Ġforb idden
Ġjew el
ê° Ģ
Ġt apped
ĠT ol
ĠB O
ĠL ux
Ġgovern ors
ĠLe ad
ĠPro bably
be cca
Ġtax ation
ĠCo ffee
Ġrob otic
ĠFin als
ĠProf essional
ĠTer rit
Ġalph a
T ext
Ġ Å
Ġs acks
Ġl over
ĠC el
ĠC ros
ĠF ury
um per
ĠY am
Ġmet ro
ĠInd y
ern ame
Ġbar red
Ġrecogn izes
Ġmis dem
ĠIS IL
Ġreb oot
itness es
Ġenter prises
Ġpartners hips
Ġreact ed
Ġintention al
Ġsyn c
Ġpal ace
Rec ently
Ġstamp s
Ġathe ists
Ġlone ly
Ġpopul ist
Ġpreval ent
! '
b ling
Ġb og
Ġl ining
Ġl enses
ur bed
Ġcont ributes
Ġpr ag
com plete
Ġins ider
Ġsoc io
ĠRep orts
Ġmult ip
Ġexc av
bor o
ĠSpe aking
Ġdefe ats
Ġtort ured
mod ern
aun ting
ĠInvest igation
ĠKat ie
Ġdistingu ished
Ġgri ev
ĠKas ich
Ġmaneu ver
E lect
v ir
in yl
ant a
ĠCan n
Ġrecogn izing
net ic
ĠElect ronic
Ġcoc onut
Ġdies el
Sept ember
f its
w ife
Ġp ixel
ch anging
ul atory
ĠD anish
Ġch ill
ĠO ri
ĠK oh
Ġbl aming
Ġend ure
Ġgr ind
Ġgener ator
Ġadv ise
Ġcourt room
Ġmess y
Ġens ures
Ġconc ur
Ġvulner abilities
Ġrival ry
Ġhorizont al
c ould
Ġw ary
an cer
Ġp ixels
ĠB oss
Ġr anged
Ġse as
ĠL ay
ie u
Ġcan cers
Ġup held
ĠHe avy
Ġfe ather
Ġback ward
Ġpartic le
Ġsol ic
Ġhold er
RE SS
Ġnom inations
Ġsett lers
,âĢĻ âĢĿ
Ġstretch ing
ĠInvest ment
Ġelev ator
Ġsurf aced
ĠVis ual
Ġric hest
Ġbless ing
Ġorche str
Ġrenown ed
d id
ĠT roy
Ġ19 41
ters on
Ġfact o
ĠSh ares
Ġprogram mer
St r
Ġball istic
Ġobject ion
ĠNot es
udd enly
Ġsad ly
ĠAnn ual
ĠPen insula
Ġnurs ing
ĠBou levard
H ard
f ed
g rown
Ġa rose
re ra
ĠM our
Ġde port
ĠF ortunately
Ġar row
ree ze
Ġac ids
Ġtrans mitted
Ġmed ications
cept ible
ĠAd vis
ateg ory
Ġintrodu ces
Ġfreedom s
Ġcondition ing
Ġcompat ibility
ĠMap le
Ġcease fire
Ġgorge ous
) ?
A round
W C
Ã ª
Ù Ĳ
Ġp ap
Ġg em
ĠW ake
ĠD elta
Ġun m
Ġnew com
Ġbro ker
Ġunt r
St op
Ġcost umes
Ġhost age
ĠBro ck
Ġparticip ant
Ġcritic ize
Ġdoub les
ĠReg ardless
ĠAdd ed
Ġcoord inate
elect ed
ĠSat an
Ġdisappear ance
Ġincon ven
Ġt il
ĠI van
Ġst ip
ĠF ocus
ĠN aval
Ġdis abilities
ov an
Ġdes irable
Th ink
Ġinter val
Ġpar an
uk a
tit le
ĠSach s
d oc
s uper
Ġh ollow
st rom
ĠW on
Ġtr aces
Ġwor s
Ġ" [
Ġdec ay
Ġfin ishes
Ġcle arer
Ġ0 7
Ġcompl ications
Ġupd ating
Ġpen al
Pro ject
Ġarchitect s
Ġproud ly
Ġcompens ate
Ġextrem ism
Ġfool ish
Ġdesp air
Val ue
respons ible
squ are
P ath
Ġs idelines
Ġo st
Ġto ggle
Ġr h
red ited
Ġcomp os
ĠPl ant
Ġcompet itions
Ch inese
ĠLet ter
Ġinnov ations
Ġvir uses
Ġhint s
Ġdil ig
Ġwholes ale
Cong ress
D eb
F X
ĠA G
ĠH ugh
op ed
Ġtr ails
ĠV eh
ick er
ĠAl ways
ract ion
Ġest e
sh ould
Ġredu ctions
ON D
Ġhy ster
Ġvol atile
Ġlisten ers
Ġfraud ulent
Ġmir rors
ĠStart ing
Ġreck less
ĠBlu etooth
Ġhorm one
M el
T T
m ajor
x on
al iation
as is
ill es
ĠR ift
um i
Ġall ied
ĠSt ef
ĠTh om
Ġatt ain
Ġatt achment
ish ment
Ġcons oles
iet h
mit t
Ġrepl icate
Ġport al
ĠCont act
M ORE
ĠA CC
Ġr ust
Ġse gregation
ĠG ul
Ġso ber
ep rint
Ġwork out
Ġ19 00
ĠAnd ers
br and
Ġdeb ated
Ġbat ting
Ġdiscuss es
200 1
spe aking
ĠCard inal
ĠChampionship s
Ġdump ed
Ġstere otypes
achel or
Ġinterrog ation
ĠCharg ers
C AR
b led
b ps
n ings
p al
r ina
Ġl ob
ĠS ie
Ġwe ed
ĠB eth
ag ne
Ġpro stitution
ĠD ash
Ġtime ly
Th ings
Ġperform ers
Ġey eb
Ġregul ator
Ġrat ios
stan bul
. *
Ġa ven
Ġcon qu
Ġr ou
ĠH ood
Ġle aking
Ġ20 30
19 90
vert ising
Ch ild
ĠIntern al
Ġrequest ing
ĠChe ney
Le vel
Ġpit chers
isp here
Ġvit amin
Ġsanct uary
C ent
n as
Ġre per
ĠM ut
ĠH od
op ers
ĠF uj
Ġoff ences
Ġpe cul
Ġafter ward
ĠCom edy
Ġsl am
Ġhealth ier
Ġrese mble
Ġcho pped
Ġcirc ulation
Ġlog ged
ĠSer bia
Ex per
Ġmer cy
Add itionally
Ġrig orous
Ġchampionship s
ĠPoint s
Ġhelicop ters
Ġartif acts
spons ored
/ ?
P ublished
l ain
in v
ĠC rypt
Ġex terior
ĠO kay
Ġind oor
ys on
ĠCol bert
Ġsuper visor
Ġlower ing
Ġhous ed
Im agine
Ġ195 8
ĠAut om
ĠBas ic
Ġow ed
ele br
Ġprolong ed
olester ol
C y
Ġf ra
Ġh over
ĠT weet
ĠP le
Ġr abb
ĠF S
Ġext ensions
ple asant
10 5
Ġ: )
Ġattract ing
En ter
Ġgall ons
Ġskept icism
Ġvolunt arily
Ġprest igious
Aug ust
an ity
ill on
ag le
Ġph osph
Ġmod ification
Ġche ek
Ġproject ion
Ġthought ful
Ġaccess ories
ograph ics
Ġconsider ations
Ġjump s
ĠLeg ends
Ġphilos opher
Ġcollabor ative
Other s
ĠMill enn
Brit ish
K im
P ack
m ails
ĠT ab
ĠH app
ĠH uck
ĠR ew
pl er
Ġpo inter
be e
For ce
Ġtour ing
Ġrecru its
Sub scribe
vas ive
ĠProgress ive
Ġexped ition
Ġairpl ane
C reate
D ig
N O
R ock
\ -
on ial
Ġl av
Ġst igma
âĢĿ ;
Ġam ended
Ġbig ot
Ġhard core
ĠBl ade
ĠAd rian
Ġfore nsic
ĠDem on
Ġwa ist
Ġmethod ology
ĠDes ert
ĠÐ ¾
Ġstreng thening
Ġfrequ encies
Ġacqu iring
Ġmicro sc
ĠKir by
Ġkidn apping
ĠWi Fi
Ġineff ective
Ġindef initely
Ġminer als
S ave
Ġo z
Ġst ems
ĠF uk
Ġins erted
Ġref rig
any on
ric anes
Ġnational s
ĠPost ed
Ġdetect ives
ĠTim othy
ĠPet erson
Ġingred ient
Ġinquir ies
Ġreferen ced
B esides
F ar
f acebook
k ov
o at
z an
at ism
ĠC AN
ĠM aps
ĠH A
ĠL ate
Ġcl oth
int o
Ġsc aling
Ġfilm maker
Ġimm ort
Ġmot ives
raz y
Ġpsych ologist
Ðµ Ð½
Ġvan illa
ĠDam age
fol k
Ġretro spect
Ġpreval ence
Ġempir ical
ĠJup iter
F inal
O per
W il
h h
re view
ar us
ion age
ent ric
ĠS HA
ĠB ark
Ġv ine
ĠE sp
are ndra
Ġdis respect
Ġ19 39
Ġinst itute
Ġloc ks
Ġmil estone
Ġmar ched
Ġwatch dog
Ġsuff ers
Ġple as
Ġenjoy able
Ġmicro phone
ĠDec l
Ġton nes
Ġmyth s
Ġrecon struct
Ġparad igm
A ut
Ġt apes
Ġc ows
Ġp ier
Ġh orn
ĠS it
ĠA pr
Ġhe ir
Ġby te
ass er
ĠJohn s
12 8
ien cies
Ġalleg es
Ġcapt ures
IC S
Ġmax imize
ĠPortug uese
Ġconcess ions
Ñ ħ
Ġan them
Ġtr action
Ġup wards
ress es
rit ical
Ġfin ed
ci pl
Ġentire ty
ĠMan afort
Ġcirc ular
ĠMe yer
Ġround ed
Ġsn apped
Ġhack er
Ġ195 9
Ġcooper ative
Ġsimpl icity
Ġspin ning
Ġnort heast
ĠBrend an
f ight
Ġb isexual
Ġan nex
Ġg rit
ĠH ours
ĠD ame
us c
ĠL SU
Ġun real
ov ak
Ġunder going
Ġinv iting
Ġbu ys
Ġsub po
pro ject
ĠÂ «
Ġcoun cill
Ġbenef ited
Ġengine ered
Ġanaly zing
Ġfuel ed
Ġrecon struction
m ia
Ġc ried
Ġp ills
ĠC it
ĠB ent
ĠB rent
ri ad
ĠE gg
ĠO t
Ġcommun icating
AR K
Ġste alth
Ġment or
ĠVal ve
Ġdisplay ing
ĠEvery body
Res p
Ġacknowled ges
Fr iday
Ġdeleg ate
Ġbrut ality
Ġash amed
ĠAlf red
Ġreminis cent
L uc
O k
f ired
i ov
Ġf ist
ĠR idge
ĠK urt
iz oph
Th omas
ĠAd venture
ĠAb du
Ġhost ility
ĠDo om
Ġillustr ates
keep ers
Ġborrow ed
Ġjuven ile
Ġw ipe
ĠA j
ĠR B
ĠR SS
Ġwell s
Ġshort s
200 3
ĠPri x
Ġdebut ed
Ġmir acle
ĠSU V
ĠBM W
Ġfright ening
ocaly pse
ĠZimmer man
izoph ren
S ky
f ar
l at
r ade
ĠT i
ay an
Ġst al
Ġha iled
iv o
Ġreg ain
Ġtake over
Ġref ined
Ġhapp ier
Ġve ctor
Ġside walk
AN S
Ġur gency
bl ue
sequ ently
ĠLiber t
Ġmer its
with out
ĠAli en
Ġsymp ath
osa urs
Ġinaccur ate
f ill
Ġan at
Ġd ice
Ġwh ale
ĠU g
Ġint ric
Ġout spoken
own s
ish ops
cl ock
ĠCourt esy
ĠDay ton
cont ent
Ġimper ative
ĠBas ically
omed ay
Bel ow
Ġoffs pring
ĠAven gers
Ġunbeliev able
B U
D aniel
w s
ĠM ets
ĠW it
ĠD uterte
ĠU nd
pl ates
Ġsur g
ĠSh o
ĠInd ividual
Ġlo vers
Ġfre ak
Ġpredict ing
ĠNov a
Ġpip es
ĠVol ume
Ġdivor ced
wart z
Bet ween
ĠGlas gow
re lla
Ġs aturated
Ġl ur
Ġl ag
ĠM t
ĠP os
ĠU T
Ġcont end
ĠCh ang
man y
Ġrem ed
Ġann ot
ĠCan on
Ġaut op
ĠCal vin
Ġste ering
ĠTrans port
Ġsmooth ly
ìĿ ĺ
Ġfur ious
Ġantib iotics
ĠGit Hub
n ar
y ers
Ġo ct
it as
Ġh alls
om ical
Ġwh it
ĠM ig
ĠP ip
ĠL O
pt ive
Ġrec laim
Ġinto x
Ġpres ervation
Ġexp on
Ġsl ump
ĠQu ant
Ġbed s
Ġmortg ages
abl ished
Oct ober
Ġcort ex
ÂĢ Â
U r
g ie
r ab
in ational
Ġthe ology
Ġre he
ĠC opy
ĠH ogan
ĠR ange
ĠO g
Ġsp ouse
ren ched
Ġcr unch
land er
ĠCon cer
Ġbad ge
Ġball oon
yl on
Ġobser ving
cur rent
Ġexclud e
ĠBeng als
ĠDub ai
Ġbroadc aster
it ives
Ġp unk
ĠC inem
Ġst oring
ĠB ot
ĠW u
ĠN FC
ĠL ed
ĠK ush
Ġar senal
ink le
ĠHe ights
oy s
Ġinst ability
Ġter ribly
Ġcur tain
ĠX P
Ġcritic izing
US E
Ġclos et
Ne ill
ĠRoll ing
ĠTun is
Ġcorrid or
W R
c ross
in qu
Ġthe rape
ac a
ĠS ans
ĠN ice
ĠG rowth
pl aced
We ek
ĠAn cient
ĠCon c
Ġsuper b
Ġstat istically
Ġliber ation
Ġfit ted
ĠConserv ation
Ġru ined
Ġdistr action
Ġhint ed
ìĿ ´
Ġincarcer ation
Ġrelent less
ĠSter ling
G roup
d ist
d ra
i ott
m ount
Ñ Ī
or ie
ĠC oc
ĠM ao
Ġex empl
ond o
Ġ19 17
Ġmem oir
Ġret aliation
ĠMar in
Ġden ounced
Ġmut ations
Ġcouncil s
Ġhur ricane
Ġunus ually
w ave
Ġp ensions
ĠS orry
if ted
ĠR us
Ġend uring
ĠRe x
right s
rel igious
Ġemail ed
Ġpath way
Re illy
ĠSher lock
Ġdub ious
abul ary
onge vity
Ġfiref ighters
ĠCris is
h it
p ark
ad os
ĠW rest
ĠF eed
Ġsh ade
Ġall ocation
Ġcomp uls
ĠV ersion
ĠPro duction
Ġsever ity
ustom ed
Ġaut umn
Ġdownload s
Ġappoint ments
Sp ace
Ġacceler ated
Ġreserv oir
Ġvoc als
D ue
G C
b usiness
e pt
r t
on so
es se
Ġp ulse
Ġin ad
Ġd iving
ĠB urg
ĠF resh
Ġtop s
ster dam
ĠFl ag
Ġsuper natural
ĠSouth west
Ġalleg ation
Ġep it
ĠRich ards
Ġir rational
Ġoverd ose
Ġreiter ated
ĠSadd am
ĠBris bane
Ġh ay
Ġre jo
Ġbe lly
ĠP okemon
ĠR oute
Ġnot ifications
ub arak
ĠV ic
ĠSh awn
Ġchar ism
ĠSc ore
ĠJohn ston
Ġstat istic
Ġagree ing
Ġdom ains
secut ors
Ġindic ators
Ġcas ino
Ġcorrespond ence
Ġsuprem acy
Ġfest ivals
Ġbund le
M a
S ha
a ft
p arent
in ian
Ġl aughter
Ġat omic
ĠD ylan
and ra
ĠG ross
Ġout dated
Ġman kind
ĠIn spect
Ġdis asters
Ġwar mer
ĠSc ript
Ġimpro ves
Ġtravel ers
Ġpaper work
Ġuns afe
Le ague
Ġcert ification
ĠTurn bull
Ġscreens hot
Ġmit igate
Ġadequ ately
ĠLear ning
Ġdece ased
Scient ists
Ġf aint
Ġm arsh
ĠI stanbul
ĠS end
ĠA verage
ĠC ensus
Ġst airs
ĠB ass
ĠSt yle
ĠHe ath
Ġbl ows
Ġret ention
__ _
rat ives
Ġturn over
work ers
Ġspecial ists
ĠSim mons
ĠPhilipp ine
ĠRoberts on
Ġtum or
Ġgard ens
b uster
c ulture
ed ience
Ġwith hold
ĠN okia
iv ia
Ġj oked
Ġcan s
av in
oss ibly
Ġdevelop s
be fore
Ġvis as
Ġfore front
load s
Ġ} );
part isan
ĠCr us
Ġswit ches
Ġindu ced
ĠLie utenant
Ġtat too
ĠSebast ian
W estern
s or
w ere
an ut
Ġv ou
ĠG addafi
ĠO L
ident ally
Ġpo pped
Ġgood ness
io let
Ġext rad
Ġsl og
Ġche ating
Ġ0 5
urd ue
ĠMe et
Ġsurpr ises
bl ood
Ġconfir ming
ĠChurch ill
Ġdepend encies
ĠMoh ammad
ĠIndust ries
Ġax is
Ġther m
ĠMotor ola
S omething
t imes
Ġf og
le ys
Ġv intage
art en
Ġch uck
Ġab st
Ġmin ors
Ġrep s
stand ard
Ġbi ography
tr ade
Ġassess ments
Ġ195 4
health y
Ġdictators hip
B ern
f ires
Ù Ĵ
Ġb ast
Ġp ine
Ġin ning
ĠD ogs
Ġex ile
qu et
ĠJ azeera
ook ie
Ġro pe
Ch ief
Ġvisit or
Ġprogress ives
Ġoccur rence
Ġplanet ary
place ment
Ġiron ic
Ġabsor bed
ĠFif th
Ġpsy chedel
H i
l ide
l ived
Ñ İ
Ġb ilateral
ed in
ĠT aking
um bs
ĠN L
ĠN ear
ard on
our ing
ff iti
read ing
Ġpri zes
Ġpos ing
Ġstory line
Ġmar athon
ĠCon n
17 0
Ġrad ically
ãģ Į
Ġlog in
oo oo
Ġblog gers
ĠVal ue
Ġbom bers
Ġren ov
Ġnit rogen
Ġfeas ible
Ġhasht ag
d oes
Ġd ull
ur st
Ġde gr
Ġr uth
ĠW ag
ĠH aven
Ġneed le
Ġcountry side
Ġprop he
Ġjud ging
Ġcook ie
ĠVictor ian
Ġt in
in ters
an mar
ĠC anyon
Ġun authorized
ĠCh oice
ĠCom ing
Ġdirect ive
Ġseason al
ĠAd elaide
rest rial
IT E
Ġfat igue
Ġcrypt o
ĠHold er
Jo in
ëĭ ¤
W ater
y g
Ġb end
ĠT at
ĠC raw
ĠB irth
ĠR ise
Ġ( .
ĠF alse
ign ment
ĠV as
Ġtw ent
Ġleft ist
Ġ18 00
ĠAt hens
Ġdest abil
Ġcell ular
ĠEm ma
ĠBlack Berry
Ġfat ty
Ġsustain ability
Ġillustr ation
ĠOwn er
ĠFried man
Ġindirect ly
Ġenroll ment
Ġs ights
Ġd ock
ill as
ĠThe ater
Ġle mon
Ġtheir s
Ġdem ise
Ġsol itary
Ġz ombie
Ġselect ive
OL L
More over
Ġhook ed
ĠPers ian
ĠGard ner
atab ase
Ġaffidav it
P an
{ \
Ġs oda
Ġf ren
Ġp igs
ĠT rent
am el
ĠF lickr
Ġsh aping
ind a
Ġun pleasant
Ġinter mediate
Ġgl orious
rat t
Ġaw aken
ĠSim ilar
Ġbrand ed
Ġ195 7
Ġlaugh s
Ġveget able
Ġren amed
ĠExper ience
h m
ĠB A
Ġcomp ares
Ġter rific
Ġfr amed
Ġbelie vers
Ġsoc ietal
10 2
els en
ĠYork er
Ġfire works
Ġrespons ive
Ġconcept ual
Ġrefere e
ĠHaw ks
Ġfranch ises
ĠDev ils
Ġcongress man
Ġblast ed
Ġaggreg ate
) [
Ġn g
Ġg le
ut z
ot ers
ld a
ĠR ugby
ĠG ri
gg y
10 4
Ġclear ance
Ġconcept ion
Ġele ven
Ġshut ting
Pl an
ĠScient ific
Ġprosec ute
Ġprepar ations
ĠNort heast
F rench
L ou
P rodu
S und
it ating
is ans
ter min
ĠB ristol
ĠP u
od s
Ġch amp
Ġj ournals
rit z
Ġph ases
ĠAmeric as
pr im
ĠMar ie
Ġviol ates
Ġfilm makers
ĠMan uel
ĠGu inea
Ġrad ius
rim ination
ett i
ĠJack ie
Ġstret ches
Ġburn s
Ġinterf aces
Ġpund its
ĠAzer bai
C ode
H op
I ll
J ul
d an
ĠT E
ĠH i
ĠR O
Ġch olesterol
iv able
Ġte asp
iff e
Ġrel iance
Ġimp art
Ġpres erving
Ġbr acket
Ġwar rior
Ġgl ow
Ġposition ing
Ġclean er
ĠJo in
Ġinstruct or
ĠJackson ville
Ġacceler ation
ĠAud i
fund ing
ĠWH O
Ġbol ster
Ġpour ing
Ġrehab ilitation
J ones
M O
f ont
m oil
ĠI gn
ĠC ities
Ġun armed
Ġar che
be h
Ġalleg ing
ĠSil va
Ġextract ed
Ġauthent ication
Ġcontam ination
Ġunanim ously
s um
Ġw ires
ac s
ir y
ĠB io
ag gress
Ġv andal
ĠE ye
ans ing
Ġtw ins
Ġown ing
com fort
ex pl
ĠSch war
Ġang el
Ġbeaut ifully
ĠAdd itional
Ġlength s
Ġcos mic
Ġelig ibility
ar ium
Ġe man
ĠC E
ĠM R
ul ators
Ġv om
Ġro de
Ġfr acking
Ġfirm ware
Ġdat as
ĠSub aru
Ġtack ling
Ġdial og
ĠCle arly
Ġextract ion
Ġrig id
Ġimpe achment
W all
m ass
u ilt
ĠI g
Ġres olutions
Ġpr ince
ĠSe oul
ĠBe gin
ĠAd mir
Ġauthor ization
af ia
ĠPer u
ĠSw an
Ġhun ters
Ġreact ors
PD F
ĠVen us
ĠBeh ind
Ġunst able
enz ie
vid ia
N OT
re ne
or f
Ġb unk
Ġe ject
ĠA er
ĠF ans
ĠN J
ĠG mail
ind uced
Ġbr ace
Ġspec ulate
Ġinf ants
iol a
Ġdig its
ĠLeg acy
Ġdiscover ies
ĠTw enty
Ġanticip ate
Ġretrie ve
b ag
d in
f ocused
g io
ì ĭ
Ġt am
Ġre ver
Ġcl utch
Ġback yard
rib es
Ġhigh s
Ġsl ope
Ġsound ing
ĠCons ult
board ing
Ġproceed ing
De cember
Ġembr acing
ĠRay mond
Ð¾Ð ²
ĠScient ists
ĠMir ror
ĠMid west
ĠLyn n
Ġshr ink
Ġintr ins
Ġaccum ulated
ĠKit chen
C ard
C ustom
L ee
d ue
f iction
s ided
Ġs outheast
Ġb ark
Ġp ave
Ġd well
st ill
ĠT I
ĠS hip
Ġv inyl
ĠJ ur
Ġsc oop
orm an
ĠV ision
ors che
Ġsm ashed
Ã© t
ĠAust rian
ĠKore ans
ĠSim ple
Ġnegoti ation
Ġdiplom at
ĠAI RED
Ġsquee ze
ĠBrig ade
j ab
ol and
ĠB TC
ĠP ierce
ĠL iter
ĠSh arp
âĢ¦ âĢ¦
Ġsing ular
ĠÂ ±
Ġsubsid iary
Ġru ins
Ġprivile ges
ĠMarx ist
Ġric her
ĠResp ons
rah im
Ġvolt age
E ric
W W
l ia
Ġ 000
he rence
al ine
Ġl enders
im er
ig ar
Ġle aning
og ene
ĠK umar
av ior
anc ers
Ġpar ole
ĠCo ver
ĠMan ila
Ġground ed
ĠEm irates
Ġstuff ed
Ġcelebr ations
Ġsusp end
Ġdetermin es
ĠWell es
ĠInter view
Ġcolon ies
Ġveget arian
Ġphotograp hed
Ġevac uated
Ġweaken ed
ĠVP N
E ver
H E
h un
h ops
Ġm asks
ĠD ifferent
ĠF ail
Ġcl o
Ġacc use
Ġem ission
ĠAn sw
Ġchar ities
ĠGr ad
Ġcop ied
Ġpsych iatric
Ġsurround ings
Ġnorth west
Ġge ographic
ĠAny thing
Ġbull shit
ĠJul ia
ĠSat urn
Ġexch anged
Ġlung s
hol m
Ġlau nd
larg est
Ult imately
Ġbour geois
. ;
N ovember
S k
W alk
w ic
ĠT as
ĠP ain
Ġr ack
ĠW id
qu arter
iv ist
ĠO NE
av an
Ġpo orer
ĠBut ter
oun ge
Ġmark er
Ġcontent ious
Ġannounce ments
Ġalt itude
ĠEll en
Ġtur moil
ĠLeban ese
Ġterr ified
Ġabund ant
Ġ iv
Ġ **
in as
Ġm int
ĠB ever
Ġrele vance
Ġmark ers
Ġcost ing
ĠSy nd
Ġver ge
Ġâ Ī
Ġresist ed
OU T
Ġfalse ly
ĠNic olas
Ġpod ium
ĠVi enna
Ġb iblical
Ġit eration
Ġr apper
us ers
Ġsh iny
Ġcl an
ang ular
Ġ19 47
Ġem it
ific ent
Ġemploy s
Ġill icit
ĠPlan ning
Ġwithd rawn
En large
Ġhall way
Ġdistr acted
ĠAud io
Ġrelie ved
ĠFle et
Ġtang ible
ucc i
Ġmiser able
L in
p arents
ĠC ord
Ġst unt
ĠM ate
gg ie
An n
Ch icago
Ġneg lected
Ġexc uses
Ġmodel ing
Tr ue
Ġrecomm ends
rav ity
gu y
Ġdepth s
Ġembarrass ment
Ġgif ted
Ġeleph ants
ĠBuzz Feed
M il
S ad
l ins
en h
Ġd od
ĠS ah
Ġen act
Ġqu int
ĠV ince
Ġacc ustomed
Ġsupp ression
Ġmem e
Ġsl ap
Ġvers atile
ĠComp anies
Ġarm ies
Ġuns ure
Ġ195 3
Ġaccommod ation
Ġcontam inated
ĠJen kins
Pac ific
m atch
Ġd ur
ol ith
ĠB ert
ess ors
Ġv ault
ĠE t
Ġper secution
ib al
Ġmon arch
10 6
Ġair lines
Ġcontract ed
ĠJud iciary
verse ly
ĠEll iott
ĠBru ins
ĠHas kell
ĠFre eman
Ġneighbour ing
Serv ice
ĠBald win
ĠObserv atory
R ather
Ġs ir
Ġo live
Ġp ins
Ġwas hing
if ty
od ore
ĠHe b
Ġwar riors
Ġoper atives
Ġca fe
pro duction
Ġpret ending
Ġcirc uits
Ġperfect ion
ĠMount ains
ĠHug o
F ixed
I Z
S ar
f alls
s cient
Ġs perm
at ts
st ro
ĠS tern
ĠP TS
ĠH alo
ort ium
ĠE asy
Ġso ap
Ġposs essions
cl air
Ġresearch ing
Ġrad i
Ġprim itive
OR N
ĠMor rison
ĠRec ently
Ġcriticism s
aun ted
ĠJac obs
Ġoverth row
Ġstap le
Ġtherape utic
H as
M ary
c led
Ġ ion
Ġw anna
Ġd amp
Ġn urt
id ad
ĠB erry
ĠP ist
os lav
ĠE rik
ĠTr ack
Ġsm oked
ĠAt las
load ed
IC O
Ġrob bed
Ġorganiz er
Ġnegative ly
Ġsouth west
Ġanticip ation
Ġcatast rophe
Through out
C BS
is ure
Ġto mb
ĠS ask
Ġst acked
ĠD iaz
Ġ2 20
ĠG y
red dit
Ġout raged
Ġinc idence
ĠCh arter
Ġprogram mes
ator ial
Ġ11 5
ĠAm sterdam
Ġdom ination
Ġcraft ing
Ġconver ting
Ġperpet rators
Ġramp ant
Ġresemb les
n ant
Ġd os
ic idal
Ġn avy
ĠT aj
ĠC ec
Ġhe ights
ĠP yrrha
Ġsp ine
ell i
Ġmod s
11 5
ĠPart icip
Ġdi ets
Ġanim ations
Ġnar ratives
Ġforg ive
Ġvalid ation
ĠRel igious
ĠDev il
Ġreward ing
ĠUlt imately
Cons ider
Ġna ive
product ive
Ġalign ment
Ġdisg usting
Ġdisadvant age
P ay
T M
p aper
Ù ı
ar ray
ĠS oph
ĠA part
ĠN om
Ġtr aced
ĠLe Bron
Ġdesign ation
Ġsk ies
Ġap ost
Ġlo oming
Ġrev olt
Ġstaff er
Ġsle pt
ĠÐ ¸
Ġrestr iction
Ġtrain er
person al
Ġmanip ulated
Ġstake holders
ĠEver ton
Ġcreep y
B P
f act
he y
Ġf ier
Ġp oker
Ġl aps
ĠD h
ĠR ust
ĠR oche
Ġfav ors
ĠDav ies
Ġcell phone
Ġmeaning less
.âĢĻ âĢĻ
ĠUs ers
Ġsad ness
Ġscreens hots
Ġaccomplish ments
Islam ic
Ġtub es
c ity
g am
n om
Ġl bs
Ġre imb
ĠT SA
ess a
Ġdis charge
Ġ19 42
Ġcr acks
ĠRe venue
20 18
âĢ¦ "
Ġer r
over ty
Ġmis ery
ĠAng ular
Ġdepend ency
IG N
Ġwithd rew
Ġremark ed
Ġlau ndering
a unch
d ain
d raw
ĠT ate
ĠC e
th ouse
Ġex h
Ġal ley
ors i
Ġpr inter
Ġdet on
ĠAn im
Ġmilit ias
Ġsuper n
ĠMon ica
Ġsett ling
Ġschedul es
Ġhonest y
ĠSol omon
Ġdiam ond
ĠRain bow
Ġlandl ords
pher d
en ment
is man
ĠG ust
ĠL ud
Ġsh attered
Ġk its
Ġun identified
Ġsc outing
Ġ19 43
we ather
Ġfl ame
com pet
ik ers
ret urn
Ġunt o
ĠEuro pa
ott i
Ġaccess ing
Ġ24 0
OS S
Ġclean ed
Ġbrand ing
Ġrum ours
Step hen
ĠPir ate
W ait
Ġa ka
he ll
he res
re b
ic ular
ĠW enger
ĠE R
Ġpl ight
Ġtr ilogy
ok a
Ġout field
ass ed
az er
Ġexp ired
ĠAr g
Ġchar itable
Ġprop onents
AR R
Ġcann on
ĠÎ ¼
ĠPerson al
ĠGil bert
Ġcertific ates
Supp ort
Ġlandl ord
Author ities
ĠCelt ics
g ae
Ġt outed
ed u
ĠC able
ĠC oy
il ib
em p
Ġcl one
aw ays
Ġbet ting
Ġsl ash
Ġpolit ic
10 3
ĠSc roll
11 1
ĠEn joy
Ġstar red
Ġtrig gers
ĠSky pe
Ġpal m
ĠStand ing
ĠNic otine
Ġpersu aded
Ġfert ility
Ġtoss ed
ablish ment
V ict
W al
c ano
Ġw aking
Ġp anc
ĠS ame
ĠS ett
ĠP E
Ġpro claim
ge ons
Ġper tain
.âĢĿ )
Ġco herent
lud es
Ġsur real
Ġmight y
ĠBl izzard
Ġhop eless
ĠCent ers
Ġmult inational
Ġsuper vision
Ġlif elong
gl obal
Ġflood s
def ault
ĠCitiz en
ĠEmb assy
Ġreinfor ced
ĠAbdu llah
A ud
C raft
M oney
P ict
l ang
n ick
on o
at ra
it ches
Ġal lev
ich i
iz a
Ġlike wise
ven ant
ĠV ers
ob ject
Ġgovern ed
Ġposs essed
ON G
Ġsuper market
Ġdest ined
OR Y
Ġprotest ed
Ġorganiz ational
Ġobser ver
ĠHub bard
ĠPH P
Ġheter osexual
ĠLic ense
ìĦ ľ
H and
K evin
r h
w ire
Ġto e
ĠT ag
ĠC er
ĠC aval
Ġr ude
ag ent
Ġpro claimed
ĠN arendra
Ġqu art
ĠCan ucks
Ġmilit ar
Ġsw ear
Ġgrad uation
Ġjudge ment
ĠLab s
Ġexplos ions
Ġacknowled ging
List en
ĠWord Press
Ġcarb ohydr
M ur
Ġon set
ĠS kin
Ġde ported
ĠG L
Ġall oc
ax ies
Ġreal ization
Ġrun time
Ġpot atoes
Ġchance llor
hib ition
Donald Trump
Sec urity
ĠProv ince
Ġhal ted
B rian
C ould
M aking
en za
ĠC ad
and em
ĠO C
Ġmy riad
Ġro oft
Th ird
Ġrem edy
gr ass
Ġdr ums
ĠEx xon
sec ure
Ġrev ision
Ġhero ic
Ġmer ge
Ġge ek
Ġmos qu
Ġtorn ado
ĠBeat les
D ate
S W
on al
Ġbe aches
ĠR iley
Ġj ugg
ĠCh i
Ġrec urring
Ġpo orest
ĠRe play
ĠSh ot
ier i
Ġlear ns
ĠHar old
Ġcounsel ing
Ġcyber security
Ġinfant ry
Intern ational
J ew
R ay
r ice
Ġs ack
Ġw inger
Ġo mn
ĠB le
iv ities
ra red
ob ic
wh y
Ġstri ps
Ġhon ors
Ġded uct
Ġearn est
Ġspons orship
ĠNY PD
Ġmyth ology
ĠTro phy
Ġdecor ated
Ġenfor cing
ĠBor is
Ġaspir ations
Ġseiz ure
Ġairst rikes
I AL
Ġ ..
at ured
ĠP v
ĠD y
ĠR S
all ah
ĠJ eb
ĠJ azz
ĠAr s
the ir
ĠZ ucker
ush ima
Ġconcer ts
igr ant
Ġ17 0
ĠIS O
Ġspl ash
ĠSpr int
ĠHel en
conf ig
ĠThrough out
ĠOw en
ĠImp act
Ġunders c
Ġreconc iliation
ĠDian e
Ġdilem ma
R edd
c ified
c ourse
g ard
Ġs ins
Ġd ess
Ġl ocking
ĠA be
ĠC atherine
ir teen
ĠP ine
Ġat oms
ĠR ising
Ġall erg
so ld
ood y
Ġind icted
Ġcar pet
ĠAl z
ush i
ring ton
Ġexcept ionally
Ġarch ives
mark ed
Ġdismiss al
ĠAv ailable
Ġgrant ing
Ġloud ly
ĠFred die
Ġhypot hetical
Ġincorrect ly
Ġinfring ement
Semit ism
Ġende av
A ri
H en
J osh
W rite
en ame
Ġg y
ĠR as
ĠR id
Ġun aff
Ġspe cially
ĠTr inity
Ġcr ashing
Ġfil ib
ĠFr ame
Ġchar m
11 2
ĠSu ccess
att ack
ĠMy anmar
Ġtruth s
Ġtransl ates
Ġrenew al
Ġvan ished
ĠJul ie
Pr ime
ĠOtt oman
ĠCore y
Ġbub bles
Ġcontrad iction
Mem bers
Ġpup ils
H R
S orry
c ool
d etermin
he avy
ĠT ah
Ġon ion
ĠH olt
Ġdo omed
ĠV it
Ġunder went
Ġdef ect
Ġinter vals
Ġcr us
Ġref rain
ĠSh ia
Ġdifferent ial
Ġoil s
Ġspect acle
Ġ195 2
Ġpredict s
Ġbom ber
Ġutil ized
ĠCustom s
Ġpoison ing
Ġjurisd ictions
ĠBund es
ĠMons anto
P E
Ð ³
is ch
Ġre print
Ġe cc
ut ory
Ġst air
Ġst ared
av ier
Ġro gue
Ġstr ains
On line
Ġmechan ic
Ġradio active
real DonaldTrump
Ġreprodu ce
Ðº Ð°
ĠJa une
rank ing
Ġproc ure
ĠHig her
Ġstub born
F ore
h agen
Ġc ros
Ġm udd
Ġl akes
Ġst d
ol ation
Ġj ungle
ĠK iss
Ġun cover
Ġsc andals
ĠRe becca
the med
Ġcommun al
Ġrest art
Ġpast e
ee le
ĠIm port
ari at
Ġheight ened
Ġhel pless
Ġmel ting
Ġadmin ister
ĠShort ly
ĠResp onse
ĠLuck ily
VID IA
Ġaster oid
ĠBren nan
Ġl ongevity
ist ence
Ġad vertisements
ĠK i
ick y
Ġ19 55
Ġind o
ng th
Ġdecl ines
ĠSm ash
omb ies
99 9
Ġsal v
Con nect
Ġdepart ed
Yes terday
' :
c rap
r itional
or ically
Ġm esh
et ed
ĠA RE
Ġy elled
ĠB ike
ĠD owntown
Ġsu ing
ĠL ar
ĠL anka
Ġcan vas
Ġdis like
old own
ĠLe o
ĠPro du
Ġequ als
Ġanal ogy
Ġexc luding
AR L
ĠPer fect
ĠAng lo
ĠLike wise
ĠOut side
Ġlie utenant
bel ief
ĠPR O
Ġfro st
Ġsect arian
ĠProtest ant
Ġsab ot
Ġrefres hing
Ġpecul iar
H I
S u
W ay
Ġt sun
id as
ĠP am
ul ui
ĠE L
ĠE M
ĠJ ensen
ĠK au
Ġcar ved
St and
ev ent
Ġworth while
Ġboard ing
Ġund en
ĠSpe cifically
ĠArab s
Go ing
Ġsch izophren
Ġsynt hesis
Ġobs ess
Ġcler k
Ġdimin ished
ĠRap ids
Mart in
ĠHuck abee
O ld
l ated
ĠS ke
Ġr im
ĠL P
ĠO H
Ġcont enders
Ġshe lls
Ġeven ly
ĠCl aire
Ġcontin uation
me aning
ĠPhil os
Bl ake
Ġid ol
Ġtun nels
Will iam
B uild
N ov
Ġs rc
Ġl ith
Ġe Bay
ac ial
Ġy a
ĠM ead
ol iberal
Ġinc arn
Ġpol ite
Ġbl onde
Ġlast s
Ġgovernment al
Ġ10 3
Ġ10 4
Ġstri ve
Ġdi agram
Ġshoot s
Ad am
Ġlog istics
ih il
cho ice
Ġaccus ation
Ġshr inking
neg oti
qual ified
Ġadoles c
K en
P N
T I
T en
Ġan th
Ġd Ã©
ĠM iles
ol ia
Ġtr act
Ġ19 49
Ġsub ord
ank ing
Ġfr iction
Ġrev ive
Ġrev ival
ĠDis covery
Ġwild erness
ipp le
ĠHy per
Ne ither
Ġintimid ation
Ġfut ures
ĠTill erson
Calif ornia
> </
N early
b ons
m oon
r ating
s il
v on
Ð ¿
Ġs q
at ical
Ġh ref
Ġfor c
ĠM ubarak
ĠD ance
ĠG ent
ĠG ian
ĠO ption
Ġun in
ile aks
ru gged
Ġplay able
Ġcor ro
ĠPh arm
ott est
Ġprop oses
Ġdesc ended
IS S
Ġâ ĨĴ
ĠEv ents
ĠEv olution
De ath
ĠAv iv
Pr ice
ĠEth an
Ġrevers al
Reg ardless
Ġspat ial
Ġplag ued
ĠHass an
Ġinad vert
G ov
L ondon
f asc
s kill
it ures
ar ations
Ġl amp
Ġst all
ĠB row
Ġ2 30
ĠF u
ĠF ighting
ĠJ SON
Ġtr aps
ĠCh in
Ġher b
Ġam azed
ĠRe e
ĠSh ore
Ġmet als
ĠMe ga
ĠCongress man
ĠAP Is
Ġbur ial
Ġdiscrim inatory
Can adian
Ġhypot hes
ĠPop ular
Ġcruel ty
Ġbod ily
V ol
l n
o oney
id able
se ys
ĠC aucus
ĠB ast
ĠB rief
ĠF usion
Ġch orus
irst y
Ġsystem atically
Ġchar ming
Ġrepl ies
ij i
ĠCor rect
Ġund o
ãĥ ³
Ġvalid ity
ĠMem ory
Ġske let
Qu ery
ĠDar ren
ĠFood s
utter stock
Ġpatri ot
Prof essor
Ġatroc ities
Ġmisdem eanor
le aning
ĠC AP
ĠP orsche
ĠG W
pl aces
Ġper ceptions
Ġpart ition
ĠV ern
Ġimp air
rib ing
Ġhigh ways
ĠAr row
oh an
Ġmet ropolitan
Ġsn iff
Ġbomb ings
lant ic
Ġstim ulation
Sec ret
ĠDet ails
Ġprol iferation
ĠPeters burg
ĠBah rain
D ark
W O
^ {
f u
h on
l ings
Ġf ade
Ġp as
Ġl id
ĠI B
ĠS R
ĠM ale
ill ions
ĠD iff
ĠN an
og ram
Ġmar vel
ĠMan ufact
ris y
ĠMed al
ĠAng els
Ġir regular
ĠFe el
Ġweigh s
Ġsurviv or
Ġenvelop e
C lient
Ġf etch
al ong
Ġst alled
ĠN R
Ġsu cks
Ġcan cell
Ġen cl
ĠSt ur
Ġdis able
Ġar ises
ach ine
ĠAb original
Ġparent al
Ġfair y
Ġdoub ling
Ġsal mon
Ġadjust ing
,' "
she et
ĠBra ves
ĠLi u
Ġhes itate
ĠLock heed
Wind ows
. /
O pp
w y
Ġth under
Ġn as
ĠP av
ĠP urdue
ĠW er
em ade
Ġcomp oser
ĠTh read
Ġdis semin
Ġgr ains
Ġ7 50
Ġland sc
ĠInst itution
Ġdefin ite
Ġcounter fe
Ġharm ony
ĠRock y
ĠPenn y
Ġdiplom acy
sm all
Ġunp aid
Never theless
ĠFinn ish
Ġubiqu itous
G T
R on
g age
o it
he id
ro b
Ġst umbled
ĠR unning
ĠK ob
Ġsub missions
Ġgr abbing
Ġspec s
ik ed
Ġmass ively
Ġalleg iance
Ġdownload ing
EG A
ĠHay es
gener al
ĠFal con
Ġgest ures
rend ered
Further more
ĠDest iny
aci Ã³n
cro ft
Ġbron ze
I r
W ow
r il
if ts
ĠR abbi
em b
ĠG ig
ĠO val
are l
ĠSt ream
Ġam ple
ĠRe in
Ġsign aling
Ġins ulin
ĠFr ances
Ġgl uc
Ġfore see
ĠCol onel
Ġsw all
Ġgun fire
Ġspecific ation
Ġver ification
Ġtransform ing
ĠAv iation
don ald
ĠAbb as
Ġforecast s
Ġreserv ation
Ġunre asonable
Ġâĸ Ħ
J ose
p ent
s kin
Ġc ant
Ġb ounds
ig ger
ĠP owers
ul ed
ĠF argo
ĠF REE
ast ro
ast ics
ok s
ĠSt am
ĠSt ark
ĠTh an
Ġcampaign ed
Ġredu nd
ĠNot re
ĠEl ite
Ġdraw ings
Ġstation ed
Ġtur f
Ġborrow ers
Ġaver ages
Ġcock tail
Israel i
ĠIsa ac
B er
f ashion
v able
Ġt enth
Ġf rog
et ics
od i
ĠG an
Ġwho pping
Ġbr ass
Ġins iders
ex per
Ġfall out
ĠIS Ps
ĠCoun sel
ĠRec ent
ĠGen esis
fr ac
ĠHung arian
ĠWy oming
Feb ruary
Ġincap able
Ġblu eprint
" ?
J ournal
P rior
e us
j son
on ics
Ġf erry
Ġm und
ĠT M
ĠS aw
Ġfor ged
ver ages
ĠC ertainly
Ġst ing
Ġst alk
us ra
em er
Ġright eous
ĠCom plex
Ġgl oss
11 4
ett es
arr ison
Ġunique ly
vention al
Ġtor rent
ĠMah m
Ġprofound ly
ĠSchwar z
. (
A cc
[ /
Å ¾
Ġse af
ĠL ance
ĠL TE
Ġrep ression
Ġlim bs
Ġener get
ĠRes ults
ĠMy ster
de ath
ĠNe o
EC D
ĠBre aking
ĠMo zilla
Ġdepend ence
Will iams
ĠRef uge
ĠWrit ing
Inter view
Ġdemol ition
ĠLaure n
Ġinstinct s
ĠHamm ond
Ġpseud o
Ġsurg ical
C ru
C oll
M ic
Ã ¯
Ø ¹
Ġl iable
Ġcl ay
Ġres h
ĠY e
Ġsupp lier
Ġbr ig
com b
Ġedit ions
ev il
ĠNational s
Ġfront ier
Ġdest iny
ĠMon te
Ġmicro bi
Ġprohib its
Ġnarrow ly
Ġcontinu ity
Ġrecy cling
F ort
j ack
p ensive
r ance
ê ³
Ġs arc
ĠM int
ĠB ag
ĠIn come
Ġnew born
Ġsc ans
In side
ys ics
Ġconf inement
Ġair ing
Ġdom est
ĠAct ive
Un iversity
Ġschedul ing
Ġgar nered
Ġgra ffiti
Ġeval uating
Ġrum or
Any way
Ġlapt ops
Ġfundra iser
Ġunl ocked
M id
Ã ¦
Ġs om
Ġh ots
ĠP V
Ġr abbit
ĠL EG
Ġun ins
ĠWe ber
Ġpass ages
ĠGu jar
Ġcirc ulated
IC A
Ġver te
Ġsell er
Ġaccident al
Ġsimpl est
Ġreprodu ction
olph in
Ġrational e
Ġindu ce
Ġtransc end
Ġdisreg ard
Ġundergrad uate
L ess
h in
Ġg room
ĠB ened
ĠH ag
ri ber
ĠE isen
Ġgo alt
ra ve
Ġun ite
Ġmon key
Ġac oust
Ġconf essed
Ġcor related
ĠEx pect
ĠEx cept
Ġcomment ing
Ġgrad ual
Ġx en
ĠWalk ing
Ġcommod ities
ĠDani els
ĠMig uel
F oot
m is
Ġc apped
Ġe ch
ĠB old
us age
Ġoff ender
Ġdr astic
Ġpop e
Ġpot ato
Ġsex ist
AN G
ĠOff icials
Pro v
Ġ195 1
ĠOs ama
Ġinteract ing
Ã± a
ĠPubl ishing
Ġbigot ry
F ederal
c irc
h man
p i
p sy
t ier
Î µ
Ġs omeday
at ri
ĠS ugar
ĠE cho
ĠJ as
Ġk in
Ġmed d
Ġfr inge
ĠRep orter
ĠBl asio
Ġdr ills
Ġbo il
ĠBr anch
Ch arl
ĠAss ass
Ġreb ound
Ġphil anthrop
ĠWeb b
Ġtun ing
Ġdisagree ment
ĠUlt ra
rec ord
Ġanarch ist
pict ured
Sund ay
T B
v s
Ġt an
Ġm ocked
Ġg ays
ĠN iss
ĠN PC
ĠL L
tle t
Ġstr ongh
ĠCl aim
Ġsuccess ion
IN D
Ġsuper f
Ġprep ares
Ġinstall ations
Ðµ ÑĤ
Ġadvert ised
ĠStr ategy
ĠDet ective
ĠLink edIn
Ġreserv ations
Ġhorm ones
priv ate
Redd it
C BC
F OR
f aced
Ġs igh
at ible
im ages
ĠP OL
ick ers
ĠâĢĶ >
Ġwhere by
ric ks
Ġcirc ulating
Ġsqu at
Ġ} ;
Ġspir al
ĠUp dated
Ġfant as
ĠEconom y
Ġscan ning
Ġmarch ing
Ġstrengthen ed
Ġdisproportion ately
C arl
W orks
} {
Ï Ĥ
Ï Ħ
ĠM illion
Ġse ated
ore an
un ion
ĠL B
Ġdec ree
Ġam en
ĠUn known
ĠRe ality
Ġhand ler
ins ky
ĠSe vent
Ġcommun ism
Ġequ ations
ĠFl oyd
Ġsuper star
ĠRes earchers
Ġjud iciary
Ġpack ing
Ġpath ways
ĠDis p
ĠJud a
Ġroll er
Ġconsult ed
Every body
Ġske leton
Ġaffili ation
Ġobst ruct
Ġgal axies
Ġdwar f
Ġgodd ess
R est
g ro
ar is
ĠB oot
Ġex pelled
Ġsh ining
Ġbl ink
Ġback pack
Ġ4 50
Ġdown side
Ġdr ift
ĠPat terson
Ġign ores
ĠMac ron
Ġarchitect ural
ĠCharl ott
Ġdecre asing
ĠRE AD
Ġillness es
Ġovert urned
ĠAndre a
Ġmunicipal ities
Ġpedest rians
count ry
f ounded
f eller
t ml
Ġs ized
Ġp uls
et c
ĠP ars
Ġnot ify
Ġv oy
Ġsh am
Ġbl ues
uss ia
10 7
me g
ĠPh ase
urs ed
Ġshoot ers
ĠRom a
Ġsil icon
ĠPan el
Ġimper fect
Ġabol ition
ĠSor os
Ġexagger ated
J UST
K it
U t
Ġs unk
Ġp enny
Ġh ug
ĠA ce
ĠC V
if ax
ĠE manuel
ak is
Ġgener als
Ġrul er
ĠGr ass
ĠBar rett
Ġsuper st
Ġprint s
col lect
Ġrent ed
Ġbroadcast s
Add ed
Ġdisrupt ive
Ġecosystem s
ĠCON T
Ġconting ent
) -
S ize
b ud
Ġa rom
ic us
ĠF ernand
ĠG E
ĠG aw
ĠE z
per ing
Ġinc ub
ib a
Ġsm iles
uss y
cent er
Ġrun way
Ġdem ocrat
Ġgl owing
ĠÂ ·
Ġpolicy makers
ĠDis play
ĠBel fast
Ġdraft ing
ym ph
Ġsem if
Ġcrack ing
Ġjoint ly
ĠCy cling
Ġfrag ments
Dem ocrats
German y
Ġanten na
ĠKenn eth
Ġmicrow ave
ĠMour inho
M ont
Ä ±
Ġw ax
Ġc ush
ĠC ert
ĠC ream
Ġy ell
ĠR aspberry
Ġout we
Ġad am
og rams
Ġco hes
ne eded
Ġgu ild
ĠAs ked
ĠThat cher
19 80
coh olic
Ġrot ating
Ġplug ins
Ġconce al
Bre aking
ĠCu omo
Ġcommem or
Ġacclaim ed
a ude
Ø ¯
Ġa ce
Ġd op
Ġl inem
ĠI GN
ĠC NBC
Ġy east
ment ia
oc hem
ber ries
Ġimp aired
Ġsm ash
Ġread ings
Ġopp oses
ãģ ¾
Ġcomment ator
Ġdisp atched
Ġacqu aint
spe cial
Ġadvert isers
cript ions
Ġinnoc ence
Ġmail ing
ĠRou ge
ĠMine craft
D ri
K A
b ands
g it
r ath
he ard
Ġf al
st own
Ġhe ars
Ġwas ting
ĠP and
ĠR an
ĠR ating
Ġch ambers
ĠY ug
Ġ19 33
man ned
ump ing
Ġimp ending
omet ric
Ġlaw maker
Ġref resh
Ġstat ues
ĠGod s
ĠChe v
Con nor
EL D
Ġmel ted
quest ion
Ã± o
Ġtempor al
ĠFro st
Ġdepict ing
Ġeffic acy
1 19
h ig
Ġo ri
Ġst ain
ĠG iant
te enth
Ġinv aded
gr and
Ġdisc ern
Ġsit uated
Ġbar bec
Ġrespect ful
ĠÐ º
ĠFe atures
ĠConstitution al
Ġneuro log
ete enth
P ak
d uty
Ä Ł
st atus
ĠI o
ĠH us
ĠF ah
Ġper former
Ġapp end
Ġco ached
Ġ19 46
ave z
Ġleg ends
ĠAm anda
ĠRes cue
Ġthank ed
ĠAp ache
Cle arly
Ġdescend ants
Ġtelev ised
ĠInspect or
F amily
Ġf oll
Ġh ats
Ġre op
ĠC rim
ĠD ocker
Ġnot ions
Ġsh arks
hen ko
cent ric
ĠFor ward
Ġdem ons
Ġshort ages
ĠSec urities
Ġcoll usion
Ġâ ī
Ex pl
umn i
Ġboost ing
Ġthank ful
ĠTechn ologies
Ġdiscipl inary
Ġho ax
ĠConst ruction
ĠRh ode
Ġmillenn ials
ĠDrag ons
Ġfreel ance
Ġost ens
ĠCraw ford
: [
S her
c ry
m ala
u u
or ously
Ġbe verages
ĠA CA
ĠP ie
ĠR um
ĠE state
Ġab normal
Ġyear ly
Ġins ign
ĠCom bat
Ġresp ir
urs or
Ġsuccess ive
ows hip
Ġsus ceptible
Ġconflic ting
ĠLa unch
Ġmicro bes
IG H
ĠEp ic
Jan uary
Ġcyn ical
Ġabrupt ly
m ag
m ult
Ġs ung
Ġp es
ĠB ie
red ients
ĠK re
ĠCom ment
Ġel astic
10 9
Ġaut obi
Ġdevelopment al
Ġdiv isive
Ġexecut ing
ext reme
Ġnom inal
ĠÃ ¨
âĢ¢ âĢ¢
ĠRel igion
ba um
Ġgrav itational
Ġmad ness
Ġpharm ac
ĠNon etheless
Ġunanim ous
ĠViol ence
ĠFreder ick
Ġplum met
G ar
P riv
c igare
l ord
z ai
re lease
Ġc ues
it ant
Ġd ar
st re
Ġe ve
ĠS leep
Ġne p
Ġch ased
ub a
ĠK C
ĠTh ing
ew orthy
uck ing
Ġpat rons
pro bably
ĠSch ultz
eff icient
miss ible
Fr ance
Ġclar ified
V ersion
c reat
c ats
Ġb idding
Ġth igh
Ġg el
ĠC W
ĠM ug
Ġpro se
ĠCh anges
Ġno od
ĠTr ain
ĠRe ce
ĠLe eds
ĠSh arks
Ġbus h
Ġdev ote
ĠEn c
Ġcoll ar
Ġmis guided
Ġban ana
Ġsens ory
Ġdisag reed
ĠWat ers
Ġpuzz les
Ġrestrict ive
ĠLam ar
Eng ine
Ġrecons ider
ĠSchne ider
I ron
S ir
h ma
Ġs ang
Ġb aff
ĠD raw
ĠR hod
Ġor ph
ĠL uk
Ġcomp ilation
Ġev id
Ġthink ers
Ġsm okers
ĠAr ist
Ġopen ness
be ck
Ġelect rons
Ġspecific ations
200 2
Ġregul ating
Ġyouth s
avor ite
Am azon
Or gan
Ġtherap ist
Gl obal
Ġswift ly
Semit ic
ìĭ ľ
H am
H appy
f uel
k owski
m or
t ar
á ¹
Ġo lig
Ġn ap
Ġhe fty
ĠD LC
ĠF unction
em y
ant ine
are th
ass is
Ġdis comfort
Ġnow adays
Ġlaw ful
Ġrest oring
uck land
Ġdeb unk
Ġ/ *
ole an
Ġimag in
Ġsell ers
edd y
Ġcos m
ĠExpl orer
Ġcher ry
Ġhaun ted
import ant
Desc ription
ĠDecl aration
ĠSask at
ĠJuda ism
R og
j in
y et
Ø ³
Ġm as
ot le
ĠM H
ack ers
Ġover c
ĠHe in
Ġdec omp
oy a
Ġind ications
Ġcr ushing
ĠCom ments
Ġhist ories
ĠOff icers
Ġassist ing
Ġcat alyst
Ġir responsible
ãĤ Į
Ġkid ney
ĠPre vious
ĠMot ion
Ð¾Ð »
Ġoverl ap
ĠPod esta
Start ing
Ġinflamm ation
ĠStrateg ic
E arth
L u
Ġm ansion
ĠM AN
ĠM ental
ĠP rest
ĠD ear
ab ortion
ĠK ra
oot er
ĠSh im
Ġform idable
Ġvis ions
Ġnational ists
Ġstat utory
lin er
Ġcomfort ably
ĠLu cy
Ġyield ed
Ġlobby ist
Ġauthent icity
ĠSent inel
Ġgrat itude
ĠFly ers
c amera
f at
k ara
m ut
o i
Ġf ixture
ot on
ĠS ou
ĠD ort
ĠL SD
ord e
Ġsp un
Ġapp rent
Ġsim ulations
Ġdep icts
ĠBl ocked
rop olis
inc re
ĠGod d
Ġmis con
ĠRiver a
ĠVict ory
ĠElect oral
John son
ĠMarket ing
ĠKey stone
Ġbra ke
Ġevac uation
Ġcondemn ation
NAS A
Ġinherit ance
Ġdecentral ized
Ġculp rit
ĠAlz heimer
ĠGujar at
F U
J udge
c oll
v ine
ä º
Ġb apt
Ġb aked
Ġp ac
ĠP ett
Ġcom et
ĠE y
Ġpl ague
Ġcl usters
ign ant
Ġsc rat
Ġpo pping
Ġfin anced
Ġ10 2
tt a
Ġemploy ing
Ã© n
Ġz oning
Ġtra umatic
Ġworks hops
ĠSch we
Ġremember ing
Ġguess ed
Ġiniti ate
Ġphilos ophers
Go vern
ĠWhe eler
Ġgig antic
Ġproport ions
Austral ia
ĠRaf ael
Lab our
Ġpestic ides
threat ening
h ash
Ġp act
ĠC elebr
ĠH il
Ġun official
Ġpe aked
ĠV olt
Ġbl ur
gg er
Ġche at
Ġbre aches
19 99
ĠSc out
AR S
ĠSch wartz
Ġess ays
AC A
het ics
Ġimag inary
Ġpun ched
Ġcler gy
Ġlect ures
Ġtranspl ant
ĠFilip ino
Ġpractition ers
Ġrefrig er
I B
f ig
s q
Ġt apping
Ġre ef
ve illance
Ġe tern
ig ator
ĠA U
Ġst are
ĠR apt
res cent
ĠE ST
Ġper il
ob il
com mittee
Ġ10 8
Ġdem ographics
Ġlim itation
AT A
IS IS
Ġlab s
Ġobject ed
Ġexecut ions
Ġemer ges
Ġharm less
ĠUs ed
ĠElect ions
ĠCamer a
Ġfold ed
ĠEqu ality
ĠYOU R
ĠZe lda
ocke feller
Ġnotor iously
Ġumb rella
A w
F W
F und
d ates
m isc
Â Ĺ
Ġto re
ĠI MA
ĠA mber
Ġde let
ĠN im
ĠK ot
ip es
te chn
Ġ19 38
ĠUn block
com pl
sh ort
Ġcompan ions
Ġrac ially
Ġpen insula
Ġrock y
Ġreject ing
Ġguess ing
Des ign
ĠEll iot
Ġdrag ging
ĠRoy als
Ġguitar ist
Ġprol ific
ĠKos ovo
cycl op
Ġnarc iss
ĠCros by
ilib rium
5 90
Ġa we
Ġh ottest
ĠC ous
ĠC ultural
ĠP resent
ĠR i
ĠG ael
ĠG aga
ĠL ac
iv or
Ġrem ake
Ġworld view
Ġreal izes
pr us
ĠUS S
ĠAd vent
Ġoper a
Ġmiss es
Ġprogress ed
sp ot
ET A
Ġmer ged
Ġnut rient
ĠAndrew s
ĠJoh ann
Ġchick ens
Ġcongest ion
B usiness
G reg
Ġb olt
Ġh amm
Ġg it
ĠT ier
ad ic
Ġr ays
th ose
ĠE ston
act ly
Ġplay ground
Ġimp uls
ĠMy ers
ĠNot ice
Ġten ant
ĠSant os
def ined
pat rick
Ġastron omers
ĠCrit ics
ĠShi ite
D L
R a
T it
j ournal
l ich
l aughs
m ong
t z
t un
Ï ģ
Ġ ï
Ġr av
Ġsc rim
Ġexpl ores
Ġhead phones
Ġhome work
ĠOb server
Ġpar cel
Ġsent iments
Ġinstall ment
IL E
Ġdin osaurs
ĠMel issa
onna issance
ĠTown s
Ġfulf illing
ĠRevolution ary
ĠLes lie
cap ital
Ġritual s
ĠHann ah
ĠPun jab
educ ated
Ġcontrace ption
Ġmaj ors
ĠJagu ars
K S
P ierre
R om
c reate
Ġt iles
is y
es que
ve z
Ġe g
ĠT umblr
ĠI RA
ĠP ont
ĠP retty
Ġcon gregation
ĠR NC
ĠN er
li able
co al
Ġpack aged
Ġhands ome
ĠCont ract
Ġaw ake
sole te
Ġobst ruction
Ġfulf illed
ĠNE W
Ġë ³
ĠWrit er
Ġjihad ist
char acter
Ġbrows ing
ĠNep al
Ġvigil ant
he a
ĠT rou
ĠW ear
ĠD re
ĠL un
Ġpl ac
port ing
Ġgl am
ĠBe e
... ]
ĠGo al
enn on
ĠCor nell
ĠPer iod
Ġdisp ers
Ġimpl ication
gl ass
Ġdiss atisf
Ġexplo its
Ġaccum ulation
ĠBlock chain
Ġincons ist
mans hip
Ġsubmar ine
Ġhypoc risy
p sych
w ig
Ġw ishing
Ġc emetery
Ġp ant
Ġg ospel
ĠP ool
Ġse ating
ĠD B
ĠD ell
ĠN igel
ap i
Ġcomp ost
ĠV ita
Ġfl ipped
ĠWh ole
ys crap
ĠSh ut
Ġrest s
Ġhold ings
ĠAm nesty
Ġ< <
Ġinj unction
ãģ Ļ
ĠSyri ans
Ġsepar ating
Ġir rig
Ġmut ation
Ġtom atoes
Ġgall on
dem and
Ġinspect ors
rank ed
ĠQual ity
Orig inal
ĠSpot ify
A BC
P ER
g re
Ġs ou
Ġhe mp
ĠD ot
ĠL akes
Ġtr unk
ru ce
Ġkn ives
ĠWe aver
Ġconf ess
Ġperson a
Ġexpl ode
Ġel bow
Ġaff lu
pro ved
Ġste er
Ġcommer cially
ĠArt ist
ĠTre vor
ĠNor a
Ġpet ty
Ġtweet ing
auc as
ĠWhe never
ĠCat hedral
ĠFort une
Ġenvision ed
Ġcoh ort
L o
N ick
k ish
ë ¥
Ġm our
ĠA LS
ĠH av
est inal
ĠL ok
end o
Ġres idency
Ġcomm ute
Ġbu cks
oss ip
Ġrel ay
Ġsur geon
Ġinter ception
app ointed
Ġprop s
ran ch
Ġfear ful
Re view
olic y
Ar ch
Ġexperiment ing
Ġoptim ized
Ġparalle ls
Pal est
ĠBeng al
Ġrede velop
6 20
C over
N P
i ating
l ower
s ince
w ild
Ġo l
ĠN vidia
ĠL ords
Ġpe aks
ĠAd obe
ãģ ĭ
Ġgoal ie
ĠPer kins
Ġplant ing
Ġvill ains
Ġvill agers
Ġbur ger
ĠSil k
ĠIr ving
ĠGar rett
ĠKn icks
open hagen
ĠIss ue
Ġundermin ing
ĠKind le
Ġnep hew
3 16
C am
D ead
Ġs aga
an amo
Ġf ills
Ġin mate
Ġe up
ĠA id
ĠD ucks
Ġmon uments
Ġfam ed
orn ings
Ġgl ue
Ġbre asts
ron ting
ĠPh antom
sc ill
not es
Ġbal ances
Le ft
Cont roller
post s
unning ham
Ġoblig ed
Ġmo ose
Ġoverr ide
ĠEug ene
Ġfluor ide
c hens
m age
o ids
u ctions
Ø ©
he e
at hing
Ġl y
Ġl ord
ĠI PA
ĠB alk
ĠB olt
ĠP ale
ĠF T
ĠG ur
ĠG erald
ĠCh art
Ġlong standing
Ġconf ession
ann ah
Ġcoun ters
aur ant
itch ing
Ġcross es
ĠSal man
Ġgrab s
ĠBrad ford
ĠSaf e
ĠEth ics
Ġox id
Japan ese
Ġpiv otal
Short ly
Ġchrom os
Ġlou der
D O
t im
en ch
ĠT C
ĠN olan
ĠG ST
Ġal erted
Ġsp ider
Ġrec ap
Ġbl oom
Ġext inct
Ġsl ate
ĠSh a
Ġopp ressed
Ġserv ant
Ġkill ers
ĠCar bon
ĠRes istance
ĠMcC l
Ġcommand ed
Ġtend encies
Just ice
Ġtermin ation
Ġtermin ated
car bon
Ġlean ed
ĠFact ory
ĠOri oles
iov ascular
d rive
l oe
n n
r ase
en ko
or ian
Ġp ne
âĢ ĳ
Ġl ure
ĠI CC
ĠS ark
ĠA ch
Ġhe x
Ġas semble
ĠD OWN
ĠN VIDIA
iv ism
Ġ19 37
Ġpo ke
Ġshow down
Ġsur rog
ci um
Ġplace bo
Ġrul ers
Ġdefense man
Ġimpl icated
Ġinsurg ency
ĠWes ley
Ġrestrain t
ĠCambod ia
3 70
R o
S earch
s afe
ur istic
ĠC ain
Ġwh ip
il ot
od us
ĠF E
ĠN est
ĠG olf
nt on
Ġcan al
Ġcl oses
Ġthere of
Ġpart nered
ĠY uk
Ġter med
ĠMin ority
sw ick
ĠMe chan
Ġcris p
ĠWat ts
Ġinfect ious
Ġearthqu akes
Ġmerch ants
ĠÙ Ī
ĠMcL aren
Ġprovoc ative
C redit
L and
\ "
Ġs ulf
en berg
Ġp ains
Ġto dd
Ġre play
ĠB ri
ak ens
Ġsc out
Ġam mo
Ġimp over
ĠSh annon
ph oto
ĠCl iff
ex isting
ott a
Ġ11 2
ĠTe ams
ĠChrist ine
Ġ} ,
ĠWind sor
kins on
Ġprinc ip
Ġque er
ĠSol o
Ġmand ated
oster one
Ġintens ified
ĠTibet an
ĠLiqu id
Ġtsun ami
h awks
m aid
en i
Ġm ans
Ġth riving
Ġha voc
ĠW orth
ĠH ash
ĠD ollar
ĠL one
ous se
ass ing
Ġpo ems
ov ies
Ġbet s
Ġinv asive
ets k
Ġfr idge
ĠCar n
Ġcompet ed
AN C
Ġdeep est
amb urg
ugg er
Ġexcell ence
ĠPrem ium
Ġdistr act
Ġexceed s
ĠMult iple
Ġdisrupt ed
Ġtoug hest
enc ia
represent ed
ĠGuate mala
! ),
b order
v m
v ideo
å ¤
Ġa ided
an alysis
ĠT ay
ĠA uckland
her ty
ĠF X
Ġal le
ĠU FO
ĠCh ocolate
ĠAr ms
uc ing
St ream
ĠSc alia
12 7
ĠBar on
Ġ17 5
anger ous
ĠChar acter
ĠSuper ior
Ġesc aping
Ġsun ny
ĠPre p
Ã¡ s
Go vernment
Ġdeploy ing
Ġregener ation
Ġgluc ose
E conom
H ad
J ason
Ø ¨
Ġs inking
Ġf ried
Ġwas t
ĠH our
Ġpro w
est ablished
ĠR ole
ĠG at
ĠJ al
ĠSt eele
Ġstr anded
ron ics
medi ately
Ġbud dy
ĠMark ets
Ġgrand children
Ġrenew ables
ĠLatin os
Act ually
Act ivity
Ġunexpected ly
Ġceremon ies
Ġaggrav ated
ĠAdmir al
Ġrespir atory
E st
G ate
M ond
T aking
r us
Ġt earing
in put
Ġb ully
Ġl ent
ĠS ense
ĠS aid
ĠP oor
ĠF ul
ra vel
Ġper vasive
ov y
Ġ10 6
ĠZ hang
Ġexist ential
yn chron
att a
Ġsn ipp
Ġsn iper
oper ation
Ġfat ally
Ġconstruct ive
bur st
ixt ures
00000000 00000000
wal ks
ĠApplic ation
Ġcum ulative
ĠAur ora
D D
c us
l ists
m ort
r ades
t ical
ì Ĥ¬
Ġt ighter
Ġf aded
al ach
Ġe greg
ĠS hen
ĠS inn
ld om
ĠB il
Ġr anc
Ġse ism
ĠD ion
and ro
us ually
ĠR ig
ĠN ate
oc re
ear th
Ġar rows
âĢľ [
Ġreg ression
Ġset back
ody nam
Ġmar itime
16 8
ĠGold berg
Ġtransfer ring
ĠCharl eston
Ġlabel ing
ĠHol iday
Ġtrib unal
Ġburd ens
cr ime
ĠAst ron
grad ation
Eng lish
E ast
F ast
a verage
f est
t ro
t arget
Ġt ipped
Ġt issues
en ary
Ġre write
ĠS ax
ĠC raft
ĠC afe
ĠP U
ĠH ir
ĠD W
ess im
el o
ĠL inks
ĠJ ail
ĠO T
ĠO dd
ĠK ub
Ġpr aying
form ers
cept ive
Ġrest ruct
Ġorgan ism
St ay
Ġdeal ings
ĠCar p
ien ced
go ers
ĠCong o
Ġsle w
Ġpair ing
Ġrail road
acc ount
Ġdict ate
ĠOs borne
Ġmagn ificent
walk er
Ġexpend itures
Ġfisher men
Ġslic es
ĠNG Os
Event ually
ĠKush ner
Ġori ented
4 50
F lor
G ive
K now
c f
d ies
Ĥ ´
Ġa isle
ig ated
ĠM ile
pp el
ĠL is
Ġsp ices
ang a
Ġinv ites
Ġinv oked
Ġfin ite
com merce
Ġgu err
ĠCom put
Ġcur ves
ĠOr t
let te
Ġannoun ces
par am
ĠGr am
umb ing
asc al
Ġtro lls
Ġnote book
Ġheavy weight
Ð½ Ð°
ĠOrgan isation
Pre vious
Ġinex pensive
ĠSad ly
" );
S ean
b ishop
g ering
o os
Ġn ud
et r
ĠL il
Ġapp les
ĠCan non
ats u
Ġviol ently
Ġz ip
ĠEd en
ser ies
orks hire
Ġspread s
Ġappl ause
Ġfort unes
Ġphenomen al
Ste ven
ĠSerge ant
Ġdiscour age
ĠRC MP
V I
ĠP oe
ĠW elcome
ĠL E
Ġch illing
Ġus able
ov able
Ġsupp lying
Ġrem oves
Ġstart ling
Ġspec ulated
ĠIs is
10 8
Ġbo iling
19 0
Ġlim b
Ġcoll ateral
ĠBill board
Ġcelebr ates
Ġuns pe
Ġtrail ing
Ġpled ges
Ġrig ged
bro ken
Ġpunch ing
Ġmarginal ized
Ġdemol ished
Ġerect ed
Ġvic inity
Ġforfe iture
Ġblat ant
D aily
H aw
T ell
t ree
Ġp ads
th ro
Ġle v
Ġout doors
Ġpe as
Ġsp ies
Ġqu ir
Ġ19 18
Ġant agon
Ġsex ism
Ġlive lihood
Ġz oo
ãģ Ĩ
Ġsort ed
Ġsat ir
Ġprec inct
Ġbur nt
ĠSil ent
Ġmut ually
Ġexplo iting
Oh io
she ll
bn b
Ġsynt hes
ĠField s
ĠFront ier
ĠOrig inally
Gu ard
ĠOpp ortun
Ġinsurg ents
~~ ~~
Ġmetab olic
Ġresent ment
ĠGuant anamo
p resent
r icted
in tern
ĠS ina
Ġhe ap
ĠB end
ĠP ra
ĠW olves
us r
Ġ( #
um at
ĠG ET
ĠE ther
ĠJ ak
ĠU E
pt a
Ġ10 9
ox ic
Ġ& &
25 6
Ġcommand ing
Ġcentral ized
Sc roll
Ġretain ing
Ġstim ulate
Ġpreced ing
ĠOrig in
Ġmanifest o
Ġjihad ists
Ġinsist ence
dig it
ĠBrun swick
ĠKath leen
J am
v d
Ġt ones
Ġf ox
Ġl ump
ĠT ut
ĠW ILL
ĠD EA
ĠR ash
ĠE lementary
ĠJ ab
Ġout going
ors uch
ang ling
Ġpol ished
Ġbl itz
ah on
Ġdisc arded
cl ose
Ġbeh old
11 7
osp ace
ĠMed ium
Ġbar bar
AC H
Ġlik ing
ĠArt icles
Ġfasc ist
Ġsky rock
ĠPay Pal
ĠHor ror
uper t
Mus ic
Ġ! =
ĠPhys ics
iche ver
Ġgly ph
Ġfilib uster
A ction
N umber
c orn
l oc
Ġs lick
at um
Ġre lic
ĠT witch
ct ory
Ġhe el
ĠF ry
ĠF ey
ĠF emin
ĠO re
Ġass urance
az ingly
Ġret iring
Ġret ali
ĠÂ ĸ
Ġsum m
13 4
att led
Ġur l
OT H
Ġge ography
Ġtele com
Ġing en
ĠHist orical
Ġharass ed
Ne il
Ġdump ing
Ġouts iders
Ġpref ers
Ġinterpre ter
Ġarc ade
Ġfo am
================ ================
Ġenerget ic
G ET
v oice
Ġt ying
re aching
Ġw aving
an an
Ġb ounty
Ġbe verage
id ate
ĠS uff
ur ations
ĠP izza
ĠH S
ĠR udd
ĠL imb
Ġle isure
Ġk idding
Ġout ward
Ġun available
ĠCh avez
reat ment
Ġsy rup
not hing
Ġbreak out
Ġspeed ing
Ġexerc ising
Ġunivers ally
Ġnut ritional
Ġcollabor ate
Ġinject ed
Ġinsult ing
Ã¨ re
Ġpione er
Ġfright ened
ĠGaw ker
L iber
l is
n ation
Ð ±
Ġa unt
is ite
Ġl akh
ĠC openhagen
ag i
ĠW S
ĠW ave
ĠF alk
un it
ĠG Hz
our ced
Ġspe lling
Ġexp ands
Ġspec ulative
Ġgener ators
ĠZ oo
Ġtest ament
ĠSc and
ĠFl ames
ĠÂ §
ãģ £
Ġhom emade
Ad vertising
Ġcapt ive
Ġsqu ir
Ex p
Ġcommercial s
Ġmotiv ations
Ġdiss olved
Ġrum ored
ĠCy prus
Ġsympt om
ĠNob le
ĠPatri ot
Ġdrunk en
Ġgentle man
Ġbetray ed
asket ball
Ġvolcan ic
ĠWend y
ĠFuk ushima
P O
f ind
h oles
k il
r Ã©
Ġn ause
ĠA FC
ĠC od
ĠC ourse
un n
em i
Ġch unks
Ġcl icks
per cent
Ġper t
Ġ19 0
Ġbr ink
Ġbel ts
Ġinter ceptions
Ġday light
Ġ12 3
ĠCon sole
ĠMan it
Ġassess ing
Ġcondem ning
ĠFair fax
ĠGall up
ĠHawai ian
Ġscrut in
Ġbureauc ratic
Ġscrew ed
ĠUA E
ĠRut gers
g ithub
l abel
ing es
ĠW AS
ĠE ld
ĠTh reat
ĠV ive
Ġdr ank
Ġdist urbed
11 3
ĠX ia
ĠCanad iens
Ġstandard ized
ĠGree ks
ĠAN Y
Ġsem ester
ĠRE P
ĠTest ament
ĠStaff ord
Ġwrap s
Ġtempt ed
Ġsmugg ling
Ġmant ra
Ġsupremac ist
Ġsod ium
ĠBened ict
ĠNiss an
A z
E ff
G F
V an
c uts
Ġs or
Ġs acked
ĠT N
ĠT ucker
ad an
ĠB I
Ġde mentia
ĠH M
ĠH oney
ĠD uty
ĠR ockefeller
ĠL oc
ble ms
Ġcontin ental
cl amation
Ġpop s
Ġ15 00
Ġpur se
Ġenjoy ment
bour g
Ġdin osaur
vis ors
Ġsand wic
Ġbrew eries
Ġswing ing
rac use
inst all
Ġoun ce
ĠMoroc co
Ġmund ane
B ad
Â ½
æ ľ
ê ²
an ol
Ġp i
ro vers
ĠS ig
ĠB DS
Ġde ception
ĠG n
reat h
Ġdiff ers
Ġexp ire
Ġmed als
Ġcor pse
Ġhop s
âĢ¦ ]
Ġra ided
lling ton
Ġcollect or
OT O
Ġcircumst ance
Ġsym met
ĠArch ive
Ġinterpret ations
Ġpresum ed
ìĿ Ħ
Ġcock pit
Ġpupp et
ĠPed ro
Ġsummon ed
ĠJav ascript
ĠIv anka
G Hz
R ev
Ġa le
Ġh iking
Ġg or
ĠM Hz
ĠB oulder
ch in
Ġne oliberal
ĠL ite
ĠL omb
ud o
ace y
ĠY orkshire
Ġco ve
oll s
ĠIs n
ĠSh ap
ĠMar riage
sc enes
ĠSy racuse
ament al
ĠIran ians
Ġrob ber
ĠMon roe
amb ig
Ġhur ry
AA AA
ĠSteven son
Ġmathem atic
[...]
