{"!":0,"\"":1,"#":2,"$":3,"%":4,"&":5,"'":6,"(":7,")":8,"*":9,"+":10,",":11,"-":12,".":13,"/":14,"0":15,"1":16,"2":17,"3":18,"4":19,"5":20,"6":21,"7":22,"8":23,"9":24,":":25,";":26,"<":27,"=":28,">":29,"?":30,"@":31,"A":32,"B":33,"C":34,"D":35,"E":36,"F":37,"G":38,"H":39,"I":40,"J":41,"K":42,"L":43,"M":44,"N":45,"O":46,"P":47,"Q":48,"R":49,"S":50,"T":51,"U":52,"V":53,"W":54,"X":55,"Y":56,"Z":57,"[":58,"\\":59,"]":60,"^":61,"_":62,"`":63,"a":64,"b":65,"c":66,"d":67,"e":68,"f":69,"g":70,"h":71,"i":72,"j":73,"k":74,"l":75,"m":76,"n":77,"o":78,"p":79,"q":80,"r":81,"s":82,"t":83,"u":84,"v":85,"w":86,"x":87,"y":88,"z":89,"{":90,"|":91,"}":92,"~":93,"¡":94,"¢":95,"£":96,"¤":97,"¥":98,"¦":99,"§":100,"¨":101,"©":102,"ª":103,"«":104,"¬":105,"®":106,"¯":107,"°":108,"±":109,"²":110,"³":111,"´":112,"µ":113,"¶":114,"·":115,"¸":116,"¹":117,"º":118,"»":119,"¼":120,"½":121,"¾":122,"¿":123,"À":124,"Á":125,"Â":126,"Ã":127,"Ä":128,"Å":129,"Æ":130,"Ç":131,"È":132,"É":133,"Ê":134,"Ë":135,"Ì":136,"Í":137,"Î":138,"Ï":139,"Ð":140,"Ñ":141,"Ò":142,"Ó":143,"Ô":144,"Õ":145,"Ö":146,"×":147,"Ø":148,"Ù":149,"Ú":150,"Û":151,"Ü":152,"Ý":153,"Þ":154,"ß":155,"à":156,"á":157,"â":158,"ã":159,"ä":160,"å":161,"æ":162,"ç":163,"è":164,"é":165,"ê":166,"ë":167,"ì":168,"í":169,"î":170,"ï":171,"ð":172,"ñ":173,"ò":174,"ó":175,"ô":176,"õ":177,"ö":178,"÷":179,"ø":180,"ù":181,"ú":182,"û":183,"ü":184,"ý":185,"þ":186,"ÿ":187,"Ā":188,"ā":189,"Ă":190,"ă":191,"Ą":192,"ą":193,"Ć":194,"ć":195,"Ĉ":196,"ĉ":197,"Ċ":198,"ċ":199,"Č":200,"č":201,"Ď":202,"ď":203,"Đ":204,"đ":205,"Ē":206,"ē":207,"Ĕ":208,"ĕ":209,"Ė":210,"ė":211,"Ę":212,"ę":213,"Ě":214,"ě":215,"Ĝ":216,"ĝ":217,"Ğ":218,"ğ":219,"Ġ":220,"ġ":221,"Ģ":222,"ģ":223,"Ĥ":224,"ĥ":225,"Ħ":226,"ħ":227,"Ĩ":228,"ĩ":229,"Ī":230,"ī":231,"Ĭ":232,"ĭ":233,"Į":234,"į":235,"İ":236,"ı":237,"Ĳ":238,"ĳ":239,"Ĵ":240,"ĵ":241,"Ķ":242,"ķ":243,"ĸ":244,"Ĺ":245,"ĺ":246,"Ļ":247,"ļ":248,"Ľ":249,"ľ":250,"Ŀ":251,"ŀ":252,"Ł":253,"ł":254,"Ń":255,"Ġt":256,"Ġa":257,"he":258,"in":259,"re":260,"Ġthe":261,"on":262,"er":263,"Ġs":264,"Ġw":265,"at":266,"Ġo":267,"en":268,"Ġc":269,"it":270,"is":271,"an":272,"or":273,"Ġb":274,"ed":275,"es":276,"Ġf":277,"ing":278,"Ġp":279,"ou":280,"Ġan":281,"al":282,"Ġto":283,"ar":284,"Ġm":285,"Ġin":286,"Ġof":287,"Ġd":288,"Ġh":289,"as":290,"âĢ":291,"ic":292,"Ġand":293,"Ġth":294,"le":295,"om":296,"ion":297,"ll":298,"ent":299,"Ġn":300,"Ġl":301,"Ġre":302,"st":303,"ve":304,"Ġe":305,"ly":306,"Ġbe":307,"ro":308,"Ġg":309,"id":310,"ut":311,"ac":312,"ot":313,"ĠT":314,"Ġthat":315,"ĠI":316,"Ġon":317,"ay":318,"ĠS":319,"Ġis":320,"im":321,"et":322,"am":323,"ad":324,"ow":325,"se":326,"Ġfor":327,"ig":328,"âĢĻ":329,"ver":330,"ĠA":331,"ur":332,"ct":333,"ld":334,"ĠC":335,"Ġu":336,"Ġst":337,"Ġy":338,"Ġit":339,"Ġhe":340,"ir":341,"ation":342,"ith":343,"Ġwh":344,"ĠM":345,"ce":346,"ter":347,"ol":348,"Ġwe":349,"il":350,"Ġwith":351,"Ġas":352,"ĠB":353,"ch":354,"ill":355,"nd":356,"Ġwas":357,"Ġyou":358,"ers":359,"ke":360,"ĠP":361,"ĠâĢ":362,"Ġcon":363,"Ġde":364,"Ġr":365,"her":366,"if":367,"ate":368,"Ġat":369,"ag":370,"Ġha":371,"ĠW":372,"Ġse":373,"ore":374,"ĠH":375,"ul":376,"Ġpro":377,"pp":378,"ment":379,"Ġare":380,"ri":381,"ĠD":382,"Ġcom":383,"est":384,"and":385,"us":386,"ist":387,"Ġ1":388,"op":389,"ĠThe":390,"ain":391,"ĠR":392,"igh":393,"rom":394,"Ġ2":395,"Ġ(":396,"th":397,"od":398,"ĠF":399,"Ġne":400,"un":401,"um":402,"Ġex":403,"res":404,"Ġnot":405,"ab":406,"âĢĿ":407,"ĠN":408,"ess":409,"Ġv":410,"ity":411,"Ġhave":412,"ould":413,"Ġor":414,"em":415,"ort":416,"Ġby":417,"ĠG":418,"os":419,"ant":420,"Ġfrom":421,"ive":422,"Ġal":423,"'s":424,"el":425,"oc":426,"Ġsu":427,"art":428,"ĠL":429,"Ġsh":430,"nt":431,"Ġthis":432,"qu":433,"ight":434,"pe":435,"ust":436,"Ġle":437,"ies":438,"ĠE":439,"end":440,"Ġch":441,"out":442,"Ġsa":443,"Ġab":444,"The":445,"all":446,"ie":447,"ack":448,"red":449,"00":450,"ally":451,"ĠâĢľ":452,"Ġhas":453,"Ġpl":454,"Ġgo":455,"ĠJ":456,"ard":457,"ap":458,"ome":459,"iv":460,"Ġhis":461,"gh":462,"ost":463,"our":464,"ear":465,"ĠO":466,"Ġtr":467,"Ġj":468,"ast":469,"ak":470,"ud":471,"Ġwor":472,"Ġdo":473,"Ġthey":474,"Ġbut":475,"rou":476,"Ġcan":477,"Ġwill":478,"ge":479,"ĠU":480,"Ġsaid":481,"Ġwhe":482,"Ġk":483,"ich":484,"Ġall":485,"Ġ\"":486,"ok":487,"ide":488,"Ġwho":489,"Ġint":490,"ame":491,"ial":492,"ther":493,"ans":494,"Ġout":495,"Ġtheir":496,"ff":497,"ice":498,"ong":499,"ect":500,"pl":501,"ure":502,"pt":503,"one":504,"Ġmore":505,"act":506,"ike":507,"age":508,"Ġme":509,"ions":510,"ous":511,"Ġup":512,"ine":513,"Ġad":514,"Ġabout":515,"ra":516,"ated":517,"ber":518,"Ġone":519,"Ġso":520,"Ġwere":521,"Ġus":522,"ime":523,"og":524,"Ġhad":525,"are":526,"ep":527,"ia":528,"ub":529,"ĠK":530,"Ġwould":531,"cc":532,"ake":533,"Ġim":534,"Ġwhich":535,"Ġcl":536,"ind":537,"Ġ20":538,"ue":539,"Ġag":540,"Ġcont":541,"very":542,"iz":543,"Ġte":544,"Ġoff":545,"Ġcomp":546,"Ġen":547,"Ġun":548,"Ġbeen":549,"ĠSt":550,"so":551,"per":552,"au":553,"ary":554,"ign":555,"ĠTh":556,"ace":557,"ip":558,"Ġyear":559,"Ġlike":560,"ven":561,"ew":562,"ere":563,"Ġinc":564,"ook":565,"ays":566,"Ġpe":567,"Ġman":568,"ry":569,"ose":570,"Ġres":571,"ite":572,"Ġper":573,"able":574,"ord":575,"ass":576,"Ġsp":577,"Ġother":578,"ire":579,"mer":580,"ile":581,"ĠIn":582,"Ġsome":583,"ople":584,"ence":585,"ib":586,"ult":587,"Ġthere":588,"ations":589,"ks":590,"Ġover":591,"ical":592,"Ġ201":593,"ress":594,"int":595,"Ġdis":596,"Ġnew":597,"own":598,"Ġar":599,"Ġbec":600,"Ġalso":601,"Ġthan":602,"ough":603,"ance":604,"Ġthem":605,"ount":606,"ru":607,"Ġapp":608,"Ġwhat":609,"ail":610,"ree":611,"Ġwhen":612,"Ġyour":613,"port":614,"Ġpart":615,"Ġpeople":616,"fter":617,"Ġsc":618,"orm":619,"ond":620,"Ġqu":621,"av":622,"ase":623,"Ġjust":624,"Ġany":625,"ĠCh":626,"ĠY":627,"Ġher":628,"Ġits":629,"Ġkn":630,"Ġtime":631,"ĠIt":632,"ach":633,"Ġrec":634,"Ġget":635,"lic":636,"Ġmy":637,"Ġif":638,"reat":639,"ens":640,"ĠV":641,"Ġinto":642,".âĢĿ":643,"irst":644,"Ġwork":645,"Ġtw":646,"vel":647,"ian":648,"ound":649,"Ġ3":650,"ction":651,"du":652,"Ġno":653,"ings":654,"ory":655,"Ġour":656,"ident":657,"ition":658,"ick":659,"ors":660,"Ġ-":661,"ob":662,"Ġpre":663,"ang":664,"wn":665,"Ġco":666,"ause":667,"Ġplay":668,"ink":669,"Ġshe":670,"ade":671,"Ġpol":672,"hing":673,"te":674,"ates":675,"ark":676,"Ġro":677,"amp":678,"Ġ19":679,"vers":680,"ove":681,"Ġafter":682,"Ġfirst":683,"Ġcould":684,"ĠHe":685,",âĢĿ":686,"ious":687,"Ġhow":688,"Ġhim":689,"ne":690,"nder":691,"aw":692,"Ġacc":693,"'t":694,"ons":695,"Ġpo":696,"ild":697,"Ġfe":698,"Ġonly":699,"hed":700,"Ġatt":701,"Ġpr":702,"ict":703,"rit":704,"Ġtwo":705,"Ġcomm":706,"ish":707,"ov":708,"Ġspe":709,"Ġbl":710,"Ġact":711,"âĢľ":712,"form":713,".\"":714,"Ġser":715,"we":716,"Ġbet":717,"ft":718,"Ġdec":719,"Ġback":720,"ning":721,"ood":722,"ces":723,"Ġmost":724,"Ġam":725,"ck":726,"Ġdid":727,"round":728,"oy":729,"iff":730,"ater":731,"rough":732,"ĠâĢĵ":733,"Ġagain":734,"Ġdes":735,"Ġunder":736,"day":737,"ual":738,"sel":739,"Ġwant":740,"ise":741,"Ġcons":742,"ull":743,"Ġ4":744,"Ġnow":745,"lud":746,"Ġbecause":747,"iss":748,"ents":749,"ublic":750,"man":751,"Ġyears":752,"Ġeven":753,"ĠâĢĶ":754,"Ġ$":755,"tern":756,"Ġneed":757,"Ġknow":758,"ĠWe":759,"ec":760,"Ġinv":761,"Ġsee":762,"Ġind":763,"ced":764,"ments":765,",\"":766,"Ġadd":767,"ting":768,"old":769,"fore":770,"Ġsec":771,"uch":772,"ĠUn":773,"urn":774,"Ġevery":775,"pect":776,"Ġem":777,"Ġmake":778,"ock":779,"Ġthese":780,"Ġsupp":781,"oll":782,"In":783,"vern":784,"Ġ5":785,"ational":786,"Ġwhere":787,"ject":788,"xt":789,"Ġlook":790,"Ġbu":791,"oss":792,"Ġdon":793,"row":794,"Th":795,"Ġway":796,"ating":797,"Ġbeing":798,"Ġev":799,"..":800,"Ġright":801,"ĠAnd":802,"Ġmay":803,"Ġthen":804,"Ġcall":805,"Ġmany":806,"ily":807,"Ġrem":808,"Ġdiff":809,"ied":810,"lect":811,"ason":812,"ng":813,"ased":814,"Ġdef":815,"Ġrel":816,"ump":817,"Ġinclud":818,"Ġthink":819,"iew":820,"Ġreg":821,"meric":822,"ĠBut":823,"les":824,"ell":825,"ath":826,"ont":827,"aking":828,"Ġimp":829,"ited":830,"Ġsy":831,"Ġthrough":832,"ĠTr":833,"rib":834,"ty":835,"Ġpres":836,"Ġsay":837,"Ġshould":838,").":839,"Ġfl":840,"Ġvery":841,"Ġ[":842,"ower":843,"Ġlast":844,"Ġthose":845,"Ġmuch":846,"uring":847,"other":848,"ics":849,"ities":850,"ĠThis":851,"tle":852,"Ġshow":853,"Ġstate":854,"ss":855,"ative":856,"hen":857,"oth":858,"arg":859,"Ġ200":860,"Ġph":861,"Ġown":862,"ĠWh":863,"ved":864,"âĢĶ":865,"ific":866,"und":867,"Ġcount":868,"als":869,"Ġwell":870,"Ġdoes":871,"Ġdown":872,"Ġend":873,"Ġbr":874,"arly":875,"Ġbel":876,"Ġass":877,"ange":878,"ĠAmeric":879,"Ġbefore":880,"Ġgovern":881,"Ġuse":882,"ince":883,"ters":884,"ward":885,"Ġlong":886,"omet":887,"ts":888,"gr":889,"Ġmon":890,"),":891,"up":892,"ible":893,"Ġreport":894,"Ġstart":895,"Ġke":896,"ĠNew":897,"ues":898,"ble":899,"ife":900,"oun":901,"Ġmade":902,"Ġfin":903,"olog":904,"Ġsuch":905,"ener":906,"Ġteam":907,"ix":908,"Ġgoing":909,"ism":910,"ually":911,"Ġsm":912,"erson":913,"Ġworld":914,"tain":915,"ists":916,"lp":917,"ful":918,"Ġac":919,"ek":920,"Ġstud":921,"It":922,"its":923,"ren":924,"ility":925,"com":926,"Ġgood":927,"Ġgame":928,"Ġsur":929,"Ġeff":930,"Ġagainst":931,"Ġset":932,"ork":933,"Ġent":934,"ars":935,"Ġgu":936,"Ġsub":937,"ax":938,"stem":939,"ys":940,"gan":941,"Ġpoint":942,"Ġlead":943,"ank":944,"Ġstill":945,"imes":946,"li":947,"Ġmin":948,"roup":949,"alk":950,"Ġwhile":951,"Ġ6":952,"ms":953,"Ġhelp":954,"ving":955,"ef":956,"Ġgr":957,"Ġprodu":958,"ween":959,"illion":960,"000":961,"self":962,"Ġsays":963,"Ġinter":964,"cy":965,"Ġstr":966,"cess":967,"Ġob":968,"Ġcr":969,"Ġsim":970,"Ġinst":971,"Ġconf":972,"Ġtake":973,"ool":974,"Ġthough":975,"Ġoffic":976,"Ġcol":977,"Ġlaw":978,"land":979,"Ġsame":980,"Ġed":981,"Ġdiffere":982,"ah":983,"read":984,"ever":985,"air":986,"Ġdisc":987,"Ġbetween":988,"ution":989,"ures":990,"io":991,"Ġop":992,"ollow":993,"Ġgovernment":994,"Ġhigh":995,"way":996,"Ġnum":997,"Ġprov":998,"arch":999,"uss":1000,"ner":1001,"led":1002,"atch":1003,"hip":1004,"Ġter":1005,".[":1006,"ĠRe":1007,"ted":1008,"--":1009,"cent":1010,"Ġsign":1011,"Ġsomet":1012,"gg":1013,"Ġins":1014,"ames":1015,"velop":1016,"Ġref":1017,"ten":1018,"any":1019,"Ġaround":1020,"hes":1021,"Ġmem":1022,"ave":1023,"We":1024,"Ġthree":1025,"Ġreal":1026,"Ġtrans":1027,"Ġfound":1028,"Ġsystem":1029,"az":1030,"ather":1031,"ves":1032,"Ġexp":1033,"ci":1034,"Ġcour":1035,"ĠYou":1036,"ives":1037,"Ġhere":1038,"Ġused":1039,"Ġmed":1040,"Ġrun":1041,"ets":1042,"ouse":1043,"cept":1044,"cer":1045,"Ġreally":1046,"ĠLe":1047,"oot":1048,"Ġgroup":1049,"Ġ10":1050,"con":1051,"ale":1052,"Ġhand":1053,"Ġsupport":1054,"Ġspec":1055,"Ġpublic":1056,"Ġmod":1057,"ĠAr":1058,"Ġret":1059,"Ġgreat":1060,"ins":1061,"pr":1062,"Ġ7":1063,"Ġext":1064,"ying":1065,"Ġfact":1066,"Ġhapp":1067,"Ġfam":1068,"ĠCom":1069,"min":1070,"Ġcur":1071,"alth":1072,"irect":1073,"Ġcar":1074,"ton":1075,"Ġcap":1076,"Ġexper":1077,"ense":1078,"ĠThey":1079,"Ġday":1080,"Ġboth":1081,"ĠAl":1082,"uth":1083,"Ġdet":1084,"Ġlit":1085,"ĠIs":1086,"Ġfind":1087,"Ġfr":1088,"Ġread":1089,"Ġwom":1090,"Ġsl":1091,"ĠSh":1092,"ph":1093,"ular":1094,"ices":1095,"Ġrep":1096,"Ġcre":1097,"Ġduring":1098,"ered":1099,"Ġmonth":1100,"oh":1101,"ines":1102,"Ġtold":1103,"ĠTrump":1104,"med":1105,"Ġiss":1106,"Ġdevelop":1107,"Ġperson":1108,"ivers":1109,"ision":1110,"ĠAs":1111,"Ġsince":1112,"get":1113,"ically":1114,"ared":1115,"the":1116,"Ġfollow":1117,"Ġbig":1118,"Ġ8":1119,"akes":1120,"ages":1121,"Ġwar":1122,"aj":1123,"Ġcent":1124,"Ġfew":1125,"Ġleg":1126,"iet":1127,"ording":1128,"Ġweek":1129,"Ġpolit":1130,"ĠCl":1131,"ex":1132,"Ġlot":1133,"Ġbelie":1134,"der":1135,"chool":1136,"Ġcontin":1137,"Ġrequ":1138,"Ġgener":1139,"Ġtoo":1140,"Ġexpl":1141,"ash":1142,"anc":1143,"Wh":1144,"rent":1145,"Ġfil":1146,"Ġcle":1147,"ness":1148,"Ġput":1149,"ĠSe":1150,"bers":1151,"Ġche":1152,"ata":1153,"ĠFr":1154,"ized":1155,"ĠIf":1156,"Ġsomething":1157,"Ġ9":1158,"Ġcor":1159,"Ġopp":1160,"ention":1161,"Ġ'":1162,"Ġdifferent":1163,"Ġprot":1164,"ric":1165,"Ġsoc":1166,"Ġresp":1167,"Ġloc":1168,"Ġplan":1169,"Ġinvest":1170,"Ġinf":1171,"Ġanother":1172,"Ġthings":1173,"Ġdep":1174,"ĠDe":1175,"Ġcommun":1176,"Ġpower":1177,"ute":1178,"thing":1179,"Ġlife":1180,"arge":1181,"Ġask":1182,"Ġposs":1183,"ience":1184,"erest":1185,"Ġfar":1186,"Ġhead":1187,"Ġrele":1188,"Ġpass":1189,"ned":1190,"Ġnever":1191,"uc":1192,"ize":1193,"Ġart":1194,"ody":1195,"Ġmet":1196,"ross":1197,"Ġmight":1198,"ox":1199,"iness":1200,"Ġcamp":1201,"This":1202,"ants":1203,"Ġvot":1204,"Ġquest":1205,"Ġeach":1206,"ĠFor":1207,"ik":1208,"view":1209,"Ġbus":1210,"Ġcome":1211,"Ġsecond":1212,"Ġnext":1213,"20":1214,"Ġ0":1215,"ret":1216,"Ġdem":1217,"Ġgot":1218,"Ġallow":1219,"ier":1220,"Ġadv":1221,"Ġbest":1222,"ĠAn":1223,"Ġopen":1224,"Ġmark":1225,"ĠâĢĺ":1226,"Ġchild":1227,"ital":1228,"Ġfeel":1229,"ient":1230,"ield":1231,"Ġ.":1232,"Ġseem":1233,"ĠThat":1234,"ple":1235,"Ġhome":1236,"nce":1237,"Ġpercent":1238,"ĠUS":1239,"cl":1240,"ug":1241,"istr":1242,"Ġdirect":1243,"ired":1244,"orn":1245,"Ġincre":1246,"gy":1247,"less":1248,"Ġpri":1249,"gram":1250,"Ġpost":1251,"Ġresult":1252,"erv":1253,"osed":1254,"ĠPro":1255,"ĠRep":1256,"Ġcontro":1257,"Ġhum":1258,"son":1259,"Ġcomple":1260,"Ġplace":1261,"Ġimport":1262,"Ġwithout":1263,"co":1264,"Ġinform":1265,"Ġincluding":1266,"Ġav":1267,"Ġcare":1268,"Ġhard":1269,"ately":1270,"chn":1271,"ama":1272,"conom":1273,"Ġproble":1274,"Ġbuild":1275,"Ġnumber":1276,"aim":1277,"ĠBl":1278,"Ġide":1279,"oney":1280,"riend":1281,"Ġcountry":1282,"Ġgl":1283,"Ġtop":1284,"Ġstand":1285,"Ġlet":1286,"Ġel":1287,"ral":1288,"__":1289,"uro":1290,"Ġmillion":1291,"Ġmov":1292,"rat":1293,"ably":1294,"ished":1295,"Ġfour":1296,"ways":1297,"Ġinterest":1298,"Ġrecent":1299,"Ġbro":1300,"Ġcalled":1301,"app":1302,"Ġtri":1303,"Ġless":1304,"Ġappro":1305,"Ġlittle":1306,"Ġbetter":1307,"Ġturn":1308,"Ġcase":1309,"Ġpartic":1310,"Ġseason":1311,"ead":1312,"Ġbeh":1313,"Ġdr":1314,"But":1315,"tt":1316,"line":1317,"inal":1318,"ised":1319,"Ġpop":1320,"Ġann":1321,"Ġfun":1322,"ling":1323,"Ġmil":1324,"ĠThere":1325,"10":1326,"ency":1327,"ina":1328,"Ġkeep":1329,"Ġpolice":1330,"me":1331,"Ġattack":1332,"Ġdidn":1333,"Ġrest":1334,"Ġfull":1335,"ode":1336,"Ġmain":1337,"ajor":1338,"Ġmove":1339,"ature":1340,"ering":1341,"Ġleft":1342,"Ġprev":1343,"ĠInd":1344,"Ġeffect":1345,"be":1346,"Ġserv":1347,"Ġear":1348,"Ġval":1349,"Ġprogram":1350,"Ġwrit":1351,"leg":1352,"ĠZ":1353,"Ġeconom":1354,"Ġsit":1355,"ract":1356,"ined":1357,"Ġwin":1358,"to":1359,"Ġform":1360,"Ġschool":1361,"Ġtest":1362,"Ġusing":1363,"Ġchar":1364,"Ġpay":1365,"ĠAmerican":1366,"ology":1367,"Ġpos":1368,"ready":1369,"Ġnews":1370,"Ġprocess":1371,"Ġdata":1372,"iving":1373,"uck":1374,"Ġsmall":1375,"reen":1376,"rap":1377,"Ġlevel":1378,"ains":1379,"ided":1380,"'re":1381,"ploy":1382,"He":1383,"Ġchange":1384,"Ġmat":1385,"Ġprom":1386,"ĠSo":1387,"ger":1388,"Ġcompany":1389,"Ġeas":1390,"Ġpresident":1391,"ruct":1392,"Ġcurrent":1393,"iversity":1394,"mit":1395,"Ġbre":1396,"Ġdri":1397,"Ġlist":1398,"Ġalready":1399,"ird":1400,"used":1401,"Ġsol":1402,"orth":1403,"Ġunt":1404,"ians":1405,"Ġty":1406,"Ġwomen":1407,"ĠHow":1408,"Ġrece":1409,"ĠOb":1410,"ĠUnited":1411,"Ġofficial":1412,"Ġlater":1413,"Ġhist":1414,"Ġmoney":1415,"ĠShe":1416,"stand":1417,"Ġtechn":1418,"Ġalways":1419,"Ġtalk":1420,"Ġorgan":1421,"ron":1422,"Ġthing":1423,"Ġexpect":1424,"Ġwhy":1425,"ĠPh":1426,"ases":1427,"Ġdesign":1428,"aign":1429,"Ġbusiness":1430,"Ġclaim":1431,"Ġproject":1432,"ĠQ":1433,"Ġchang":1434,"lection":1435,"St":1436,"Ġinformation":1437,"Ġmajor":1438,"ohn":1439,"Ġvis":1440,"aff":1441,"Ġhealth":1442,"ĠBe":1443,"Ġclass":1444,"Ġable":1445,"wit":1446,"Ġprof":1447,"Ġedit":1448,"Ġstory":1449,"Ġjob":1450,"urs":1451,"Ġ=":1452,"ards":1453,"ĠAd":1454,"iven":1455,"Ġbook":1456,"ĠCan":1457,"Ġ18":1458,"ption":1459,"Ġbo":1460,"here":1461,"Ġ--":1462,"Ġmust":1463,"Ġaway":1464,"ertain":1465,"Ġhappen":1466,"Ġpast":1467,"ural":1468,"ior":1469,"Ġfree":1470,"Ġsk":1471,"Ġimportant":1472,"outh":1473,"ample":1474,"Ġrese":1475,"Ġkill":1476,"uthor":1477,"ury":1478,"Ġcity":1479,"Ġgrow":1480,"Ġcost":1481,"Ġpat":1482,"ission":1483,"Ġvar":1484,"ured":1485,"ending":1486,"Ġoper":1487,"...":1488,"Ġdoesn":1489,"Ġtax":1490,"urity":1491,"Ġconst":1492,"Ġleast":1493,"Ġold":1494,"ror":1495,"Ġest":1496,"Ġhop":1497,"Ġstre":1498,"ern":1499,"Ġdays":1500,"ator":1501,"Ġaff":1502,"Ġtell":1503,"Ġcampaign":1504,"acy":1505,"ained":1506,"Ġpolic":1507,"Ġfore":1508,"ides":1509,"Ġlarge":1510,"Ġmen":1511,"ĠGo":1512,"rist":1513,"Ġcame":1514,"ney":1515,"Ġfriend":1516,"Ġenough":1517,"Ġdist":1518,"ider":1519,"eral":1520,"side":1521,"Ġmaking":1522,"els":1523,"ccess":1524,"Ġrecord":1525,"resident":1526,"Ġfamily":1527,"Ġkind":1528,"pped":1529,"Ġuntil":1530,"ality":1531,"19":1532,"ush":1533,"Ġview":1534,"by":1535,"Ġ12":1536,"Ġelect":1537,"ĠMar":1538,"Ġvide":1539,"ified":1540,"As":1541,"Ġworking":1542,"ister":1543,"ware":1544,"sc":1545,"ries":1546,"alf":1547,"augh":1548,"ĠSp":1549,"br":1550,"ional":1551,"50":1552,"Ġpolitical":1553,"bs":1554,"ived":1555,"Ġair":1556,"ley":1557,"ĠRepublic":1558,"ee":1559,"ued":1560,"arent":1561,"Ġactually":1562,"oad":1563,"ising":1564,"Ġmar":1565,"Ġdeal":1566,"Ġbecome":1567,"Ġintern":1568,"If":1569,"Ġline":1570,"Ġmean":1571,"Ġtook":1572,"ĠSc":1573,"Ġhuman":1574,"ĠEuro":1575,"Ġes":1576,"Ġve":1577,"âĢ¦":1578,"Ġfund":1579,"ott":1580,"ane":1581,"Ġwon":1582,"iol":1583,"ĠJohn":1584,"aring":1585,"ison":1586,"Ġword":1587,"Ġtimes":1588,"Ġformer":1589,"Ġorder":1590,"most":1591,"Ġoften":1592,"aps":1593,"Ġever":1594,"ann":1595,"Ġgive":1596,"ember":1597,"ony":1598,"ocrat":1599,"Ġ199":1600,"aining":1601,"ĠPl":1602,"Ġname":1603,"!!":1604,"for":1605,"Ġbit":1606,"Ġla":1607,"Ġaccording":1608,"ĠAll":1609,"year":1610,"Ġreturn":1611,"oint":1612,"work":1613,"Ġgames":1614,"Ġsever":1615,"Ġdeb":1616,"wh":1617,"ĠMay":1618,"Ġpar":1619,"gin":1620,"ither":1621,"Ġdev":1622,"ization":1623,"ĠSy":1624,"aken":1625,"ĠOr":1626,"Ġnight":1627,"Ġcharac":1628,"ĠDem":1629,"eng":1630,"Ġdoing":1631,"mber":1632,"Ġsing":1633,"11":1634,"ĠRuss":1635,"Ġhaving":1636,"iqu":1637,"There":1638,"Ġbas":1639,"Ġfac":1640,"uture":1641,"idence":1642,"Ġra":1643,"idd":1644,"Ġsocial":1645,"ĠCon":1646,"Ġperform":1647,"icle":1648,"Ġseen":1649,"Ġocc":1650,"Ġwr":1651,"Ġtoday":1652,"Ġlear":1653,"ched":1654,"Ġmarket":1655,"Ġseveral":1656,"Ġpress":1657,"ories":1658,"ots":1659,"Ġevent":1660,"Ġappear":1661,"ĠYork":1662,"ĠAt":1663,"iously":1664,"Ġmedia":1665,"rop":1666,"Ġsure":1667,"Ġearly":1668,"Ġmeet":1669,"Ġlikely":1670,"Ġcrit":1671,"ĠMc":1672,"Ġquestion":1673,"Ġmembers":1674,"raft":1675,"lf":1676,"Ġwent":1677,"Ġwater":1678,"une":1679,"ĠPresident":1680,"sh":1681,"Ġprop":1682,"Ġplayers":1683,"Ġyoung":1684,"Ġfive":1685,"Ġequ":1686,"Ġwhether":1687,"Ġ15":1688,"ĠEurope":1689,"artment":1690,"iver":1691,"inc":1692,"Ġside":1693,"Ġben":1694,"Ġcertain":1695,"Ġshort":1696,"Ġmilit":1697,"ats":1698,"Ġcontrol":1699,"Ġexample":1700,"ubl":1701,"ĠObama":1702,"Ġarg":1703,"Ġvers":1704,"ĠStates":1705,"ands":1706,"Ġhour":1707,"ER":1708,"ended":1709,"Ġchildren":1710,"Ġinvol":1711,"Ġonce":1712,"And":1713,"ĠMr":1714,"Ġ]":1715,"ium":1716,"Ġalong":1717,"Ġeng":1718,"enn":1719,"Ġsuccess":1720,"Ġdone":1721,"nect":1722,"Ġpot":1723,"Ġwithin":1724,"Ġmonths":1725,"Ġdesc":1726,"ulation":1727,"Ġpossible":1728,"Ġ/":1729,"ential":1730,"Ġcourse":1731,"Ġmeans":1732,"urch":1733,"iting":1734,"Ġconcer":1735,"ĠOn":1736,"Ġcho":1737,"gress":1738,"Ġfight":1739,"Ġproduct":1740,"Ġant":1741,"empt":1742,"ĠUniversity":1743,"uff":1744,"Ġactiv":1745,"Ġunderstand":1746,"ster":1747,"ially":1748,"ĠCol":1749,"Ġknown":1750,"Ġinvestig":1751,"ivid":1752,"por":1753,"Ġauthor":1754,"rew":1755,"let":1756,"ague":1757,"Ġthought":1758,"Ġamong":1759,"Ġlocal":1760,"Ġpriv":1761,"ourn":1762,"vert":1763,"Ġproblem":1764,"ortun":1765,"Ġasked":1766,"Ġavail":1767,"Ġprotect":1768,"Ġnon":1769,"Ġfuture":1770,"ederal":1771,"Ġ11":1772,"ball":1773,"Ġfail":1774,"iety":1775,"oci":1776,"Ġhold":1777,"Ġreason":1778,"ggest":1779,"Ġviol":1780,"Ġorig":1781,"imate":1782,"ĠNo":1783,"Ġ,":1784,"Ġacross":1785,"verage":1786,"ones":1787,"Ġcommunity":1788,"ĠWhen":1789,"my":1790,"not":1791,"ald":1792,"Ġyet":1793,"aged":1794,"You":1795,"Ġca":1796,"itive":1797,"Ġvideo":1798,"book":1799,"Ġ&":1800,"Ġgiven":1801,"iber":1802,"Ġsuggest":1803,"Ġstrong":1804,"ĠTe":1805,"Ġsex":1806,"12":1807,"âĢĵ":1808,"Ġlight":1809,"Ġmakes":1810,"ene":1811,"Ġmus":1812,"back":1813,"ances":1814,"Ġothers":1815,"ĠCar":1816,"Ġprob":1817,"Ġlim":1818,"ĠBr":1819,"Ġannoun":1820,"iron":1821,"ler":1822,"ensive":1823,"Ġbelieve":1824,"Ġreported":1825,"ĠState":1826,"Ġgetting":1827,"Ġ2016":1828,"ored":1829,"itions":1830,"Ġident":1831,"orld":1832,"ĠCo":1833,"ober":1834,"aster":1835,"Ġsent":1836,"Ġdeath":1837,"Ġland":1838,"Ġcut":1839,"urther":1840,"ĠHouse":1841,"'ve":1842,"Ġnational":1843,"ams":1844,"Ġindust":1845,"Ġstarted":1846,"Ġemploy":1847,"30":1848,"ament":1849,"Ġsaf":1850,"rest":1851,"Ġavailable":1852,"ĠCent":1853,"Ġissue":1854,"Ġbased":1855,"Ġcreat":1856,"ĠChrist":1857,"Ġsour":1858,"ashing":1859,"Ġcond":1860,"Ġlow":1861,"Ġseries":1862,"Ġi":1863,"Ġaccount":1864,"selves":1865,"Ġ30":1866,"Ġmom":1867,"Ġhig":1868,"Ġlove":1869,"For":1870,"Ġclose":1871,"ai":1872,"Ġbat":1873,"hers":1874,"ĠFl":1875,"ĠMin":1876,"Ġnet":1877,"Ġalmost":1878,"Ġtrying":1879,"ĠDemocrat":1880,"ring":1881,"Ġcomes":1882,"arm":1883,"Ġhistory":1884,"Ġago":1885,"Ġfollowing":1886,"ination":1887,"ĠAm":1888,"itional":1889,"utes":1890,"Ġcourt":1891,"ief":1892,"ĠWhat":1893,"erman":1894,"Ġ2015":1895,"resent":1896,"reed":1897,"uly":1898,"Ġpract":1899,"Ġclear":1900,"Ġtoget":1901,"Ġtogether":1902,"----":1903,"ĠAmerica":1904,"Ġfilm":1905,"ument":1906,"Ġaccess":1907,"Ġparty":1908,"use":1909,"though":1910,"ails":1911,"ividual":1912,"Ġexperience":1913,"Ġcommit":1914,"orts":1915,"ustom":1916,"Ġrul":1917,"ability":1918,"Ġidea":1919,"Ġtrad":1920,"AT":1921,".,":1922,"pro":1923,"of":1924,"Ġfoc":1925,"Ġisn":1926,"ators":1927,"15":1928,"ilar":1929,"ĠPr":1930,"ĠComm":1931,"Ġhalf":1932,"rael":1933,"Ġadded":1934,"unch":1935,"af":1936,"ĠÂ":1937,"eb":1938,"erence":1939,"Ġlooking":1940,"ged":1941,"ĠOne":1942,"Ġimpro":1943,"Ġanything":1944,"Ġ#":1945,"ĠEx":1946,"ote":1947,"raw":1948,"ĠX":1949,"rown":1950,"Ġcomplete":1951,"Ġpresent":1952,"Ġtaken":1953,"ĠSen":1954,"ien":1955,"ĠCanad":1956,"Ġproper":1957,"Ġsix":1958,"Ġmiss":1959,"Ġsaying":1960,"Ġfood":1961,"aid":1962,"Ġ16":1963,"Ġbad":1964,"Ġarea":1965,"ĠBrit":1966,"Ġlive":1967,"Ġtot":1968,"'m":1969,"ev":1970,"ograp":1971,"Ġhit":1972,"Ġbehind":1973,"Ġanal":1974,"wards":1975,"cially":1976,"Ġ2014":1977,"Ġentire":1978,"Ġface":1979,"Ġris":1980,"Ġ<":1981,"Ġindividual":1982,"inton":1983,"witter":1984,"oto":1985,"ids":1986,"osp":1987,"icult":1988,"nes":1989,"ert":1990,"Ġbill":1991,"What":1992,"Ġvict":1993,"ministr":1994,"Ġcompet":1995,"Ġnear":1996,"play":1997,"uge":1998,"Ġtre":1999,"par":2000,"Ġrather":2001,"Ġmult":2002,"Ġmind":2003,"Ġmilitary":2004,"Ġpubl":2005,"ĠEng":2006,"Ġmess":2007,"Ġsecurity":2008,"Ġmor":2009,"Ġtry":2010,"Ġwanted":2011,"rug":2012,"ĠPol":2013,"Ġsingle":2014,"Ġquick":2015,"Ġer":2016,"Ġpolicy":2017,"Ġfall":2018,"ĠTo":2019,"Ġthreat":2020,"Ġaut":2021,"irc":2022,"Ġfav":2023,"Ġblack":2024,"Ġsomeone":2025,"Ġ14":2026,"sy":2027,"atic":2028,"Ġdiscuss":2029,"amed":2030,"igr":2031,"ĠCal":2032,"ĠNorth":2033,"IN":2034,"Ġstudy":2035,"ĠGr":2036,"ales":2037,"Ġredu":2038,"Ġspecial":2039,"On":2040,"off":2041,"Ġbring":2042,"aper":2043,"Ġsum":2044,"ĠDon":2045,"lling":2046,"Ġcomb":2047,"ply":2048,"lement":2049,"viron":2050,"Ã©":2051,"ĠMan":2052,"Ġcompan":2053,"ĠSec":2054,"Ġener":2055,"Ġmass":2056,"ows":2057,"ww":2058,"Ġplayer":2059,"Ġcult":2060,"Ġz":2061,"over":2062,"ĠIsrael":2063,"Ġconnect":2064,"Ġcoun":2065,"Ġattempt":2066,"reme":2067,"ĠAf":2068,"olution":2069,"Ġ:":2070,"An":2071,"//":2072,"Ġcou":2073,"ĠCity":2074,"ĠWar":2075,"Ġspace":2076,"Ġnothing":2077,"Ġkey":2078,"When":2079,"Ġelse":2080,"Ġ13":2081,"Ġjo":2082,"Ġpret":2083,"Ġbenef":2084,"Ġtaking":2085,"cing":2086,"rote":2087,"Ġcoming":2088,"Ġfoot":2089,"ĠDep":2090,"ĠNational":2091,"ashington":2092,"ify":2093,"dd":2094,"Ġprobably":2095,"ully":2096,"Ġexist":2097,"yn":2098,"Ġbody":2099,"Ġfront":2100,"So":2101,"Ġhowever":2102,"go":2103,"ĠBar":2104,"elt":2105,"Ġdescrib":2106,"Ġ17":2107,"Ġrepl":2108,"ttp":2109,"ault":2110,"ON":2111,"IS":2112,"Ġfeat":2113,"ĠIm":2114,"Ġsus":2115,"Ġdecision":2116,"Ġenc":2117,"ran":2118,"asing":2119,"lier":2120,"RE":2121,"Ġrights":2122,"Ġeither":2123,"aces":2124,".)":2125,"irl":2126,"That":2127,"Ġsw":2128,"ris":2129,"Ġhouse":2130,"Ġsimilar":2131,"Ġfederal":2132,"ĠWorld":2133,"ches":2134,"16":2135,"Ġcreate":2136,"ĠSu":2137,"ĠGu":2138,"Ġey":2139,"Ġwa":2140,"Ġfig":2141,"ming":2142,"Ġresearch":2143,"Ġwhole":2144,"Ġconv":2145,"Ġpoints":2146,"Ġwrote":2147,"Ġfurther":2148,"ively":2149,"**":2150,"13":2151,"sw":2152,"Ġissues":2153,"ĠAust":2154,"Ġroom":2155,"Ġeverything":2156,"Ġstep":2157,"ĠClinton":2158,"Ġself":2159,"14":2160,"Ġtarg":2161,"Ġthird":2162,"Ġbegin":2163,"ĠJan":2164,"ĠHar":2165,"Ġsignific":2166,"Ġstri":2167,"ivil":2168,"Ġofficials":2169,"Ġcompl":2170,"ana":2171,"Ġtra":2172,"Ġ2013":2173,"ĠGe":2174,"Ġimm":2175,"Ġwatch":2176,"Ġseems":2177,"Ġstop":2178,"Ġdue":2179,"Ġdoc":2180,"Ġsound":2181,"rodu":2182,"ĠWith":2183,"Ġenergy":2184,"iday":2185,"Ġsuper":2186,"ĠHowever":2187,"ently":2188,"ried":2189,"mb":2190,"Ġexec":2191,"Ġamount":2192,"Ġcompanies":2193,"sec":2194,"anks":2195,"Ġ198":2196,"pecially":2197,"Ġservice":2198,"ĠApp":2199,"eal":2200,"uation":2201,"ĠWashington":2202,"Ġchall":2203,"Ġfire":2204,"now":2205,"Ġdam":2206,"://":2207,"vironment":2208,"ape":2209,"ĠMed":2210,"ung":2211,"ery":2212,"Ġreleased":2213,"Ch":2214,"Ġbreak":2215,"Ġbegan":2216,"ĠPart":2217,"Ġmatter":2218,"pping":2219,"Ġstates":2220,"ilt":2221,"Ġcustom":2222,"Ġdevelopment":2223,"ades":2224,"Ġinfl":2225,"Ġcand":2226,"pite":2227,"Ġrole":2228,"obal":2229,"Ġstudents":2230,"Ġleaders":2231,"Ġfinal":2232,"Al":2233,"Ġlab":2234,"Ġhimself":2235,"Ġmeas":2236,"isc":2237,"oon":2238,"ĠDav":2239,"Ġfield":2240,"Ġpick":2241,"Ġitself":2242,"ÂŃ":2243,"ĠSouth":2244,"Ġcontinue":2245,"ibility":2246,"Ġwasn":2247,"Ġbecame":2248,"Ġstatement":2249,"Ġtreat":2250,"Ġposition":2251,"Ġcharacter":2252,"Ġstat":2253,"Ġdou":2254,"att":2255,"like":2256,"ĠGerman":2257,"Ġopt":2258,"Ġrelations":2259,"Ġground":2260,"Ġgun":2261,"Ġhours":2262,"Ġ2017":2263,"Ġneg":2264,"Ġevidence":2265,"iod":2266,"Ġprovide":2267,"Ġagree":2268,"head":2269,"Ġthemselves":2270,"Ġcountries":2271,"amer":2272,"aul":2273,"Ġlarg":2274,"Ġ|":2275,"ĠInst":2276,"Ġoutside":2277,"Ġsimply":2278,"Ġgeneral":2279,"ĠAss":2280,"Ġaction":2281,"Ġinterview":2282,"Ġtyp":2283,"ĠChina":2284,"Ġoffice":2285,"Ġaddress":2286,"ĠEd":2287,"Ġinit":2288,"Ġdi":2289,"AN":2290,"ili":2291,"'ll":2292,"BC":2293,"Ġabove":2294,"17":2295,"aced":2296,"Ġrad":2297,"Ġrepresent":2298,"Ġgroups":2299,"ser":2300,"ĠJust":2301,"Ġbuilding":2302,"ender":2303,"Ġprofess":2304,"Ġ100":2305,"Ġdom":2306,"acebook":2307,"Ġversion":2308,"Ġ25":2309,"lim":2310,"ached":2311,"Ġcommon":2312,"Ġdifficult":2313,"Ġ2012":2314,"ĠRes":2315,"Ġdest":2316,"Ġneeded":2317,"lish":2318,"iddle":2319,"____":2320,"Ġbar":2321,"Ġtrue":2322,"ograph":2323,"reg":2324,"ogn":2325,"Ġwhite":2326,"Ġlat":2327,"umb":2328,"yle":2329,"18":2330,"Ġgen":2331,"ĠIntern":2332,"ĠHis":2333,"light":2334,"Ġtem":2335,"Ġsignificant":2336,"Ġsaw":2337,"Ġinclude":2338,"Ġcop":2339,"ift":2340,"eks":2341,"Ġspecific":2342,"Ġneeds":2343,"Ġcharg":2344,"Ġadministr":2345,"arter":2346,"Ġeveryone":2347,"atur":2348,"ask":2349,"ream":2350,"Ġwoman":2351,"Ġrunning":2352,"Ġdeep":2353,"Ġexc":2354,"Ġpretty":2355,"Ġmag":2356,"Ġmusic":2357,"ournal":2358,"Ġinj":2359,"Ġanim":2360,"Ġlate":2361,"Ġphys":2362,"Ġrespons":2363,"Ġbelow":2364,"oid":2365,"Ġdrug":2366,"Ġrelease":2367,"ãģ":2368,"Ġshows":2369,"Ġlegal":2370,"Ġred":2371,"Ġinstead":2372,"Ġplayed":2373,"right":2374,"Ġsuff":2375,"Ġindustry":2376,"body":2377,"Ġfriends":2378,"AR":2379,"ribut":2380,"Ġsense":2381,"How":2382,"ogle":2383,"Ġpain":2384,"lam":2385,"Ġlost":2386,"Ġquite":2387,"Ġchanges":2388,"Ġple":2389,"ĠAb":2390,"Ġball":2391,"Ġap":2392,"ĠWest":2393,"Ġjud":2394,"where":2395,"Ġblock":2396,"alt":2397,"ccording":2398,"epend":2399,"Ġbillion":2400,"Ġespecially":2401,"Ġplaying":2402,"ray":2403,"Ġrecently":2404,"ĠAfter":2405,"Ġhom":2406,"Ġelection":2407,"Ġ50":2408,"bo":2409,"angu":2410,"Ġcandid":2411,"Ġsite":2412,"istic":2413,"ival":2414,"Ġabs":2415,"Ġalleg":2416,"arc":2417,"time":2418,"osing":2419,"Ġmoment":2420,"Ġvalue":2421,"Ġrelig":2422,"Ġmot":2423,"oring":2424,"AS":2425,"Ġeconomic":2426,"medi":2427,"Ġ)":2428,"Ġdeter":2429,"Ġweeks":2430,"Ġforward":2431,"Ġhope":2432,"Ġconsum":2433,"Ġperiod":2434,"Ġtit":2435,"oe":2436,"Ġep":2437,"Ġlo":2438,"Ġobject":2439,"Ġaccept":2440,"ĠMy":2441,"key":2442,"Ġopportun":2443,"Ġpie":2444,"ager":2445,"duct":2446,"cil":2447,"eed":2448,"ĠNot":2449,"Ġtrack":2450,"Ġsoon":2451,"Ġshoot":2452,"ĠOct":2453,"Ġwords":2454,"ĠTwitter":2455,"omm":2456,"Ġvote":2457,"irm":2458,"==":2459,"Ġcred":2460,"lev":2461,"Ġdecl":2462,"Ġworks":2463,"Ġcirc":2464,"oph":2465,"ĠCong":2466,"Ġhost":2467,"ĠNews":2468,"Ġonline":2469,"ancial":2470,"Ġhigher":2471,"ĠWhite":2472,"Ġlonger":2473,"Ġtotal":2474,"Ġwebs":2475,"ĠWill":2476,"Ġcheck":2477,"oke":2478,"Ġ24":2479,"Ġce":2480,"Ġshare":2481,"ique":2482,"ĠMus":2483,"cial":2484,"Ġwrong":2485,"Ġwalk":2486,"irt":2487,"ients":2488,"Ġlaws":2489,"uary":2490,"cle":2491,"Ġconsider":2492,"put":2493,"ularly":2494,"ners":2495,"Ġheld":2496,"ĠThese":2497,"ĠDo":2498,"Ġreve":2499,"onse":2500,"Ġparent":2501,"Ġfunction":2502,"ĠSept":2503,"Ġstay":2504,"Ġpotential":2505,"ĠDepartment":2506,"Ġeduc":2507,"They":2508,"asons":2509,"ĠAug":2510,"Ġrev":2511,"Ġfocus":2512,"ns":2513,"iding":2514,"lt":2515,"Ġpred":2516,"ĠGod":2517,"str":2518,"Ġled":2519,"ĠMarch":2520,"ĠSte":2521,"Ġresults":2522,"Ġcode":2523,"Ġenvironment":2524,"Ġgoal":2525,"fer":2526,"hod":2527,"Ġstru":2528,"ĠRepublican":2529,"lege":2530,"ĠSyri":2531,"Ġcomput":2532,"aut":2533,"Ġanyone":2534,"Ġexpress":2535,"ĠJune":2536,"Ph":2537,"ole":2538,"ript":2539,"Ġcontract":2540,"Ġden":2541,"Ġtechnology":2542,"ky":2543,"Ġage":2544,"ule":2545,"ends":2546,"val":2547,"ĠSm":2548,"Ġcomment":2549,"action":2550,"Ġservices":2551,"itution":2552,"aging":2553,"urd":2554,"anger":2555,"Ġreview":2556,"Ġapplic":2557,"pril":2558,"Ġminutes":2559,"Ġpersonal":2560,"Ġproblems":2561,"Ad":2562,"ateg":2563,"ĠPe":2564,"aterial":2565,"Ġpopular":2566,"haps":2567,"Ġways":2568,"ĠMich":2569,"na":2570,"Ġarticle":2571,"ĠPar":2572,"Ġsold":2573,"Ġearlier":2574,"fect":2575,"Ġansw":2576,"che":2577,"ĠMe":2578,"Ġdead":2579,"Ġreceived":2580,"isl":2581,"Ġ197":2582,"Ġrate":2583,"Ġdiv":2584,"Ġnecess":2585,"Ġsurpr":2586,"Ġaud":2587,"Ġwind":2588,"Ġannounced":2589,"Ġupd":2590,"Ġshot":2591,"ctor":2592,"Ġ{":2593,"ĠEn":2594,"ham":2595,"Ġrespect":2596,"25":2597,"aving":2598,"Ġtarget":2599,"ĠDr":2600,"Ġincrease":2601,"Ġexpected":2602,"Ġquestions":2603,"apan":2604,"icro":2605,"Ġhy":2606,"hern":2607,"ĠJuly":2608,"Ġprim":2609,"Ġcreated":2610,"ude":2611,"Ġimpact":2612,"uel":2613,"Ġpack":2614,"hood":2615,"bit":2616,"Ġcannot":2617,"ilities":2618,"Ġvol":2619,"Ġprivate":2620,"Ġport":2621,"Ġexact":2622,"Ġscient":2623,"ĠCongress":2624,"Ġpur":2625,"ij":2626,"Ġinternational":2627,"Ġ2011":2628,"reet":2629,"Ġcivil":2630,"Ġforce":2631,"Ġoriginal":2632,"Ġcases":2633,"Ġeasy":2634,"Ġanti":2635,"iple":2636,"ourt":2637,"Ġur":2638,"ples":2639,"itiz":2640,"ires":2641,"ĠFacebook":2642,"Ġstaff":2643,"atives":2644,"60":2645,"Ġexecut":2646,"tee":2647,"Ġinvolved":2648,"Ġbase":2649,"ees":2650,"Ġnearly":2651,"ĠFriday":2652,"Ġcell":2653,"ES":2654,"Ġprice":2655,"Ġleave":2656,"Ġterror":2657,"Ġcapt":2658,"Ġheart":2659,"Ġarrest":2660,"Ġsen":2661,"Ġcoll":2662,"ills":2663,"aker":2664,"ĠMond":2665,"Ġfavor":2666,"lex":2667,"Ġsoft":2668,"Ġaverage":2669,"Ġkilled":2670,"atural":2671,"ĠRed":2672,"lled":2673,"ĠAustral":2674,"ips":2675,"ĠApril":2676,"rel":2677,"Ġet":2678,"ĠAmericans":2679,"Ġtype":2680,"Ġrisk":2681,"Ġinside":2682,"Ġ2010":2683,"Ġsubject":2684,"okes":2685,"Ġreports":2686,"ech":2687,"eter":2688,"Ġusers":2689,"Ġphot":2690,"mon":2691,"bor":2692,"Ġliving":2693,"Ġglobal":2694,"Ġfans":2695,"Ġresponse":2696,"Ġweap":2697,"Ġcontent":2698,"Ġbecom":2699,"Ġstore":2700,"uesday":2701,"joy":2702,"Ġ>":2703,"Ġbroad":2704,"ĠGoogle":2705,"Ġworked":2706,"Ġrequest":2707,"Ġmodel":2708,"ging":2709,"rem":2710,"ext":2711,"At":2712,"Ġdel":2713,"Ġworth":2714,"Ġimmedi":2715,"ises":2716,"Ġgave":2717,"Ġrespond":2718,"ael":2719,"ites":2720,"ĠCalif":2721,"Ġterms":2722,"Ġnation":2723,"Ġcal":2724,"Ġdirector":2725,"Ġclub":2726,"Ġlangu":2727,"ellig":2728,"Ġ@":2729,"Ġdecided":2730,"Ġrelationship":2731,"omb":2732,"Ġroad":2733,"Ġgirl":2734,"Ġhappened":2735,"Ġestab":2736,"To":2737,"cast":2738,"\".":2739,"apt":2740,"unt":2741,"ĠRussia":2742,"Ġcapital":2743,"Ġcollect":2744,"ĠCount":2745,"ĠWed":2746,"Ġworkers":2747,"Ġtakes":2748,"ino":2749,"osition":2750,"Ġchance":2751,"Ġmid":2752,"ops":2753,"Ġfinancial":2754,"ĠAct":2755,"Ġpublished":2756,"rought":2757,"ĠJanuary":2758,"Ġdefin":2759,"ĠWhile":2760,"Ġsqu":2761,"ĠMonday":2762,"Ġbuy":2763,"ological":2764,"ovember":2765,"ĠEm":2766,"Ġability":2767,"ĠPal":2768,"Ġassoci":2769,"ĠNow":2770,"Ġphone":2771,"Ġfem":2772,"hel":2773,"ought":2774,"Ġlack":2775,"usion":2776,"ĠSome":2777,"ĠTuesday":2778,"izing":2779,"ĠJapan":2780,"Ġinflu":2781,"istrict":2782,"Ġturned":2783,"Ġcy":2784,"Ġforeign":2785,"Ġsource":2786,"Ġrequire":2787,"Ġmother":2788,"Ġemer":2789,"fully":2790,"ĠAg":2791,"Ġareas":2792,"Ġlog":2793,"Ġmaterial":2794,"ĠBro":2795,"][":2796,"Ġwhose":2797,"Ġaffect":2798,"Ġplans":2799,"Ġsituation":2800,"ruction":2801,"Ġord":2802,"rect":2803,"iction":2804,"Ġrecogn":2805,"ĠEuropean":2806,"\",":2807,"Ġarri":2808,"Ġbank":2809,"nesday":2810,"ursday":2811,"Ġ40":2812,"oud":2813,"icated":2814,"Ġmeeting":2815,"Ġmember":2816,"Ġcurrently":2817,"Ġlives":2818,"Ġadministration":2819,"rain":2820,"based":2821,"Ġregard":2822,"ĠGeor":2823,"OR":2824,"Ġgoes":2825,"Ġfelt":2826,"Ġcouple":2827,"Ġoil":2828,"oor":2829,"ĠSund":2830,"oved":2831,"ĠCor":2832,"99":2833,"Ġsimple":2834,"Ġhuge":2835,"ĠPer":2836,"ĠSeptember":2837,"ĠOff":2838,"Ġapproach":2839,"Ġtou":2840,"ornia":2841,"Ġpict":2842,"Ġtal":2843,"One":2844,"ructure":2845,"ĠGl":2846,"ĠHill":2847,"Ġnorm":2848,"vertise":2849,"40":2850,"Ġquickly":2851,"Ġill":2852,"ese":2853,"ĠBritish":2854,"Ġmis":2855,"Ġteams":2856,"Ġpull":2857,"EN":2858,"Ġoffer":2859,"Ġemail":2860,"ĠFeb":2861,"ĠBy":2862,"ĠNovember":2863,"Ġpage":2864,"Ġthous":2865,"Ġheard":2866,"Ġmatch":2867,"Ġvia":2868,"Ġparticip":2869,"ety":2870,"ĠWednesday":2871,"Ġintrodu":2872,"Ġbi":2873,"Ġneigh":2874,"iment":2875,"Ġevents":2876,"Ġsecret":2877,"ĠCourt":2878,"ĠThursday":2879,"force":2880,"ĠTV":2881,"Ġ+":2882,"Ġmethod":2883,"Ġwide":2884,"aur":2885,"chie":2886,"Ġfather":2887,"Ġhands":2888,"ĠDavid":2889,"Ġtown":2890,"bl":2891,"Ġeconomy":2892,"Ġhon":2893,"Ġcover":2894,"ani":2895,"Ġbuilt":2896,"aily":2897,"ences":2898,"ĠSan":2899,"Ġknew":2900,"Ġfre":2901,"cember":2902,"Ġnetwork":2903,"Ġperformance":2904,"ened":2905,"Ġdeli":2906,"Ġboy":2907,"Ġrepe":2908,"Ġpers":2909,"ha":2910,"Ġlegisl":2911,"face":2912,"atory":2913,"Ġspent":2914,"Ġ21":2915,"Ġwebsite":2916,"Ġenjoy":2917,"Ġste":2918,"ĠAugust":2919,"?âĢĿ":2920,"ĠEl":2921,"Ġtravel":2922,"eg":2923,"ession":2924,"ĠIslam":2925,"Ġimprove":2926,"Ġtool":2927,"Ġtried":2928,"'d":2929,"Ġloss":2930,"order":2931,"estern":2932,"Ġreveal":2933,"Ġdig":2934,"Ġsepar":2935,"Ġrace":2936,"Ġ22":2937,"Ġnumbers":2938,"lin":2939,"ctions":2940,"ĠAfric":2941,"Ġvictim":2942,"load":2943,"Ġsize":2944,"Ġpopulation":2945,"Ġincluded":2946,"Ġlower":2947,"ĠCalifornia":2948,"Ġtrade":2949,"Ġcareer":2950,"Ġvo":2951,"Ġvisit":2952,"ceed":2953,"uses":2954,"ume":2955,"ĠUK":2956,"Ġallowed":2957,"Ġwants":2958,"Ġgrowth":2959,"orters":2960,"Ġround":2961,"Ġengine":2962,"avy":2963,"Ġpoll":2964,"Ġproduction":2965,"Ġfear":2966,"Ġgets":2967,"Ġcause":2968,"ĠOctober":2969,"ĠAng":2970,"Ġbehav":2971,"ma":2972,"ĠCanada":2973,"âĢĶâĢĶ":2974,"idents":2975,"ights":2976,"200":2977,"ĠSch":2978,"With":2979,"ishing":2980,"ĠSunday":2981,"Ġboard":2982,"down":2983,"Ġspeak":2984,"âĢĿ.":2985,"Ġperfect":2986,"Ġmovement":2987,"idered":2988,"Ġfair":2989,"Ġprogress":2990,"raz":2991,"Ġens":2992,"Ġsong":2993,"Ġfell":2994,"Ġlooks":2995,"cies":2996,"ĠHer":2997,"Ġparticular":2998,"Ġtext":2999,"After":3000,"ĠKore":3001,"Ġforces":3002,"alled":3003,"ĠSw":3004,"Ġprevious":3005,"Ġreach":3006,"Ġbrought":3007,"ĠDecember":3008,"ĠQu":3009,"ĠTimes":3010,"Ġcontact":3011,"ibly":3012,"ĠÂ£":3013,"yond":3014,"Ġdemand":3015,"gest":3016,"ĠPaul":3017,"Ġattention":3018,"lear":3019,"Ġmention":3020,"arth":3021,"undred":3022,"arily":3023,"Ġban":3024,"Ġhttp":3025,"Ġindepend":3026,"come":3027,"set":3028,"Ġveh":3029,"Ġmorning":3030,"Ġleader":3031,"Ġrac":3032,"uk":3033,"urning":3034,"Ġcitiz":3035,"Ġ23":3036,"sequ":3037,"ĠPost":3038,"ening":3039,"hold":3040,"Ġrules":3041,"ecause":3042,"Ġvarious":3043,"ĠPark":3044,"agement":3045,"field":3046,"Ġhot":3047,"Ġbud":3048,"ication":3049,"!!!!":3050,"raq":3051,"ground":3052,"iam":3053,"Ġess":3054,"22":3055,"AL":3056,"Ġlatest":3057,"Ġlink":3058,"Ġmedical":3059,"inks":3060,"ĠParty":3061,"Ġdoll":3062,"Ġliber":3063,"Ġconsidered":3064,"ope":3065,");":3066,"Ġhor":3067,"ĠCenter":3068,"Sh":3069,"Ġsearch":3070,"Ġprep":3071,"Ġfeatures":3072,"ze":3073,"ĠIS":3074,"Ġslow":3075,"ĠCont":3076,"AC":3077,"omp":3078,"Ġreb":3079,"IC":3080,"While":3081,"Ġtalking":3082,"aturday":3083,"ĠBlack":3084,"Ġimage":3085,"Ġcoach":3086,"uments":3087,"ification":3088,"Ġhear":3089,"aph":3090,"ĠStreet":3091,"ondon":3092,"bed":3093,"ĠIran":3094,"Ġcritic":3095,"OS":3096,"Ġstar":3097,"Ġsens":3098,"Ġwond":3099,"ĠKing":3100,"ĠRussian":3101,"Ġstrugg":3102,"ledge":3103,"Ġdemon":3104,"Ġupon":3105,"Ġspeed":3106,"icles":3107,"vent":3108,"oo":3109,"rim":3110,"Ġinvestigation":3111,"asc":3112,"Ġsystems":3113,"Ġsort":3114,"Ġmach":3115,"Ġsn":3116,"Ġexam":3117,"Ġtraining":3118,"Ġconduct":3119,"Ġfast":3120,"Ġaddition":3121,"coin":3122,"imately":3123,"ĠIraq":3124,"Ġson":3125,"elligence":3126,"Ġbox":3127,"Ġpen":3128,"wo":3129,"ĠMark":3130,"ĠPat":3131,"Ġserious":3132,"ps":3133,"iant":3134,"unk":3135,"tr":3136,"Ġseek":3137,"Ġachie":3138,"Ġ2009":3139,"Ġparents":3140,"ED":3141,"Ġwritten":3142,"Ġextreme":3143,"Tr":3144,"ining":3145,"eff":3146,"eared":3147,"Ġincreasing":3148,"uit":3149,"Ġpaper":3150,"Ġcrim":3151,"aries":3152,"Ġund":3153,"Ġlevels":3154,"het":3155,"Ġsurve":3156,"Ġeffort":3157,"fl":3158,"ibr":3159,"ges":3160,"ruary":3161,"illed":3162,"imum":3163,"sych":3164,"Ġofficers":3165,"Ġseven":3166,"Ġsociety":3167,"Ġprevent":3168,"Ġlooked":3169,"Ġcompletely":3170,"eth":3171,"Ġclaims":3172,"Ġscreen":3173,"ĠSenate":3174,"pir":3175,"ĠCounty":3176,"ysis":3177,"ico":3178,"Ġconserv":3179,"Ġ...":3180,"Ġcard":3181,"IT":3182,"Ġexcept":3183,"uf":3184,"Ġexactly":3185,"Ġinn":3186,"Ġdraw":3187,"Ġnatural":3188,"Ġprison":3189,"Ġspokes":3190,"Ġ2008":3191,"Ġjobs":3192,"Ġregul":3193,"Ġmajority":3194,"Ġparticularly":3195,"Ġlearn":3196,"Ġdocument":3197,"istan":3198,"Ġlanguage":3199,"ille":3200,"Ġdoub":3201,"Ġrequired":3202,"Ġexperien":3203,"reedom":3204,"Ġrange":3205,"ĠSand":3206,"ux":3207,"Ġmovie":3208,"Ġobv":3209,"Ġextra":3210,"Ġeight":3211,"Ġinteresting":3212,"ĠKe":3213,"US":3214,"Ġattacks":3215,"Ġconc":3216,"ĠSoc":3217,"ban":3218,"add":3219,"ett":3220,"Ġopportunity":3221,"lying":3222,"Ġmessage":3223,"room":3224,"Ġoccur":3225,"24":3226,"ĠSaturday":3227,"Ġplat":3228,"80":3229,"Ġprior":3230,"Ġimmigr":3231,"Ġdro":3232,"ĠIndia":3233,"Ġ*":3234,"Ġresour":3235,"inally":3236,"Ġlay":3237,"Ġdespite":3238,"Ġhundred":3239,"rast":3240,"Ġcarry":3241,"itch":3242,"Ġjournal":3243,"Ġpoor":3244,"pper":3245,"ny":3246,"ĠLondon":3247,"Ġaren":3248,"Ġleading":3249,"oses":3250,"anced":3251,"Ġconvers":3252,"Ġdetails":3253,"Ġstories":3254,"Ġproducts":3255,"Ġanswer":3256,"She":3257,"Ġblood":3258,"inese":3259,"Ġfinally":3260,"?\"":3261,"Ġstuff":3262,"Ġscience":3263,"Ġsurv":3264,"Ġnamed":3265,"Ġpractice":3266,"ĠSer":3267,"Ġdescribed":3268,"Ġbiggest":3269,"Ġones":3270,"Ġsexual":3271,"Ġmiddle":3272,"abor":3273,"ari":3274,"isions":3275,"Ġpaid":3276,"ospital":3277,"aming":3278,"Ġprotest":3279,"idge":3280,"Ġquality":3281,"ĠEast":3282,"Ġsometimes":3283,"uing":3284,"arr":3285,"ĠFebruary":3286,"ĠTex":3287,"Ġimag":3288,"vertisement":3289,"Ġdefense":3290,"entially":3291,"Ġquarter":3292,"ĠDonald":3293,"iers":3294,"Ġviolence":3295,"hib":3296,"Ġclimate":3297,"Ġmodern":3298,"aves":3299,"Ġuser":3300,"Ġpan":3301,"Ġremain":3302,"Ġkids":3303,"Ġterm":3304,"ida":3305,"Ġ}":3306,"ĠCoun":3307,"Ġcosts":3308,"Ġchanged":3309,"FL":3310,"aught":3311,"ara":3312,"rench":3313,"nces":3314,"Ġcertainly":3315,"Ġgas":3316,"ĠJew":3317,"ĠMore":3318,"Ġgiving":3319,"Ġsummer":3320,"mp":3321,"ĠSpe":3322,"ĠMuslim":3323,"Ġincreased":3324,"Ġcontinued":3325,"Ġgrowing":3326,"ĠMor":3327,"ously":3328,"Ġdog":3329,"Ġimplement":3330,"Ġult":3331,"Ġtable":3332,"Ġfix":3333,"ĠNet":3334,"No":3335,"Ġshowed":3336,"erc":3337,"Ġdanger":3338,"Ġguy":3339,"Ġdamage":3340,"utions":3341,"Ġthinking":3342,"Ġwriting":3343,"fort":3344,"OP":3345,"Ġhous":3346,"Ġcross":3347,"uclear":3348,"Ġ27":3349,"Ġpurch":3350,"ĠRom":3351,"akers":3352,"Ġaw":3353,"Ġstarting":3354,"aly":3355,"AM":3356,"Ġready":3357,"ĠRepublicans":3358,"Ġrout":3359,"Ġremains":3360,"Ġsafe":3361,"Ġpath":3362,"rowd":3363,"Ġregion":3364,"ĠGener":3365,"ĠChe":3366,"ĠEven":3367,"Ġdied":3368,"Ġcalls":3369,"Ġmaintain":3370,"Ġpurp":3371,"Ġhistor":3372,"ĠInt":3373,"Ġdirectly":3374,"Ġeducation":3375,"oul":3376,"Ġassist":3377,"ension":3378,"Ġitem":3379,"Ġprovided":3380,"egr":3381,"Ġchief":3382,"overed":3383,"Ġwouldn":3384,"astic":3385,"ĠMcC":3386,"Ġspot":3387,"Ġcorpor":3388,"Ġreality":3389,"Ġcomments":3390,"ĠLeague":3391,"Ġusually":3392,"ĠDemocratic":3393,"ĠChar":3394,"Ġmultiple":3395,"ĠDes":3396,"mitted":3397,"Ġreading":3398,"ĠCons":3399,"Ġstandard":3400,"Ġalthough":3401,"pre":3402,"Ġperhaps":3403,"Ġver":3404,"ĠStar":3405,"Ġparts":3406,"oper":3407,"Ġment":3408,"inated":3409,"Ġbeyond":3410,"zz":3411,"Ġrob":3412,"Ġcouldn":3413,"Ġil":3414,"ications":3415,"icks":3416,"using":3417,"Ġcele":3418,"Ġmill":3419,"Ġcamer":3420,"enge":3421,"inary":3422,"atever":3423,"Ġefforts":3424,"Ġavoid":3425,"Ġcounter":3426,"ables":3427,"Ġtowards":3428,"Ġconcept":3429,"Ġsle":3430,"Ġadditional":3431,"icted":3432,"Ġunf":3433,"Ġspeech":3434,"BI":3435,"Ġdesigned":3436,"Ġfigure":3437,"Ġselect":3438,"Ġmob":3439,"Ġscene":3440,"ĠMinister":3441,"Ġ28":3442,"Ġculture":3443,"urt":3444,"Ġwrite":3445,"Ġcomplex":3446,"Ġfootball":3447,"Ġproperty":3448,"ĠChinese":3449,"ĠBill":3450,"urg":3451,"Ġchoice":3452,"sp":3453,"Ġvoters":3454,"23":3455,"Ġthroughout":3456,"Ġsafety":3457,"Ġresearc":3458,"Ġsoftware":3459,"Ġ26":3460,"Ġguys":3461,"Ġwife":3462,"Ġepis":3463,"Ġdisapp":3464,"Ġten":3465,"Ġtro":3466,"Im":3467,"ĠFirst":3468,"Ġconsist":3469,"ĠMon":3470,"Ġimmediately":3471,"Ġgone":3472,"itor":3473,"Ġfit":3474,"Ġincludes":3475,"Ġcenter":3476,"Now":3477,"yl":3478,"ĠMichael":3479,"Ġ(@":3480,"ford":3481,"Ġrecomm":3482,"Ġthousands":3483,"ago":3484,"arian":3485,"Ġpressure":3486,"Ġstudent":3487,"Ġalone":3488,"wise":3489,"ilies":3490,"Ġofficer":3491,"de":3492,"Ġplatform":3493,"cient":3494,"Ġclos":3495,"Ġcomputer":3496,"itute":3497,"Ġletter":3498,"Ġlaunch":3499,"Ġchalleng":3500,"irth":3501,"Ġsuspect":3502,"anch":3503,"Ġrelative":3504,"Ġpiece":3505,"icient":3506,"Ġmoved":3507,"Ġclean":3508,"Ġreceive":3509,"Ġsell":3510,"rupt":3511,"Ġnom":3512,"Ġcris":3513,"All":3514,"aches":3515,"Ġcat":3516,"Ġreached":3517,"Ġblog":3518,"Ġpassed":3519,"Ġcast":3520,"Ġoption":3521,"Ġeyes":3522,"Ġfile":3523,"--------":3524,"Ġstage":3525,"Ġcommand":3526,"Ġsat":3527,"ĠIndian":3528,"Ġtoward":3529,"Ġopin":3530,"Ġbattle":3531,"Ġcharacters":3532,"Ġsil":3533,"ĠJames":3534,"aughter":3535,"amb":3536,"Ġeffects":3537,"Ġreasons":3538,"Ġdeg":3539,"Ġremember":3540,"ĠThen":3541,"Ġmeaning":3542,"adem":3543,"Ġahead":3544,"Ġdifference":3545,"inn":3546,"ĠTur":3547,"Ġagency":3548,"ĠGreen":3549,"airs":3550,"hest":3551,"Ġprec":3552,"olute":3553,"Ġmoving":3554,"ocked":3555,"Ġincome":3556,"ĠAssoci":3557,"ĠâĢ¦":3558,"Ġut":3559,"Ġdate":3560,"Ġnature":3561,"rief":3562,"Ġdebate":3563,"ression":3564,"Ġdrive":3565,"ĠEU":3566,"Ġfan":3567,"ĠRich":3568,"Ġ196":3569,"Ġbeginning":3570,"ĠTexas":3571,"ĠTor":3572,"Ġconditions":3573,"ĠSchool":3574,"ĠII":3575,"Ġhappy":3576,"iles":3577,"oes":3578,"Ġdark":3579,"etro":3580,"Ġign":3581,"Ġtitle":3582,"Ġalleged":3583,"roy":3584,"ivity":3585,"Ġsubst":3586,"Ġswe":3587,"My":3588,"ĠNe":3589,"Ġcentury":3590,"Ġorganization":3591,"Ġfailed":3592,"Ġdevice":3593,"Ġpark":3594,"omen":3595,"ĠApple":3596,"ĠSim":3597,"ĠSuper":3598,"ustr":3599,"ston":3600,"Ġtour":3601,"Ġscore":3602,"ampions":3603,"Ġhelped":3604,"Re":3605,"more":3606,"Ġcool":3607,"Ġbal":3608,"ĠBo":3609,"Ġspending":3610,"Ġrock":3611,"Ġcrowd":3612,"venue":3613,"new":3614,"ĠÐ":3615,"Ġencour":3616,"Ġappears":3617,"Ġ60":3618,"itation":3619,"Ġconference":3620,"Ġreligious":3621,"Ġcitizens":3622,"Ġdemonstr":3623,"35":3624,"Ġstra":3625,"ĠPlay":3626,"Ġbudget":3627,"erve":3628,"Ġlargest":3629,"Ġmeant":3630,"Ġmyself":3631,"Ġpresidential":3632,"ĠEnglish":3633,"Ġnecessary":3634,"Ġrefer":3635,"Ġshown":3636,"Ġaim":3637,"ĠJack":3638,"Ġlimited":3639,"Ġcontribut":3640,"OT":3641,"ĠHere":3642,"Ġband":3643,"chan":3644,"just":3645,"men":3646,"Ġeventually":3647,"urance":3648,"orks":3649,"Ġmaybe":3650,"Ġexecutive":3651,"Ġpositive":3652,"orney":3653,"ĠDemocrats":3654,"Ġnote":3655,"agon":3656,"aint":3657,"Ġsche":3658,"Ġconfir":3659,"Ġbott":3660,"Ġaware":3661,"ĠServ":3662,"Ġcopy":3663,"ĠRober":3664,"ĠOf":3665,"Ġnuclear":3666,"Ġpowerful":3667,"Ġestim":3668,"Ġmix":3669,"Ġsal":3670,"ĠSyria":3671,"enty":3672,"ports":3673,"27":3674,"wood":3675,"Ġtrust":3676,"ĠGermany":3677,"ufact":3678,"ĠMex":3679,"45":3680,"Ġdetail":3681,"Ġwall":3682,"Ġforced":3683,"berg":3684,"Ġcharge":3685,"Ġtwe":3686,"Ġfamilies":3687,"Ġfeature":3688,"Ġbrain":3689,"Ġschools":3690,"Ġstreng":3691,"Ġleague":3692,"Ġautom":3693,"ares":3694,"Ġyourself":3695,"Ġcollege":3696,"ĠBen":3697,"Be":3698,"New":3699,"Ġesc":3700,"Ġcandidate":3701,"Ġtouch":3702,"Ġfollowed":3703,"yan":3704,"Ġilleg":3705,"ĠDay":3706,"Ġfeed":3707,"Ġcompared":3708,"Ġallows":3709,"Ġcorrect":3710,"Ġweapons":3711,"Ġâ":3712,"Ġdisp":3713,"Ġphysical":3714,"Ġyes":3715,"Ġunique":3716,"ĠEarth":3717,"lease":3718,"Ġgrad":3719,"26":3720,"Ġanalysis":3721,"ressed":3722,"owers":3723,"Ġfirm":3724,"Ġx":3725,"Don":3726,"ĠMart":3727,"EC":3728,"encies":3729,"Ġgives":3730,"ĠCap":3731,"Ġfrequ":3732,"Ġsenior":3733,"aud":3734,"ken":3735,"29":3736,"ĠAir":3737,"Ġbooks":3738,"Ġcrisis":3739,"Ġcriminal":3740,"iny":3741,"Ġcrime":3742,"cul":3743,"Ġeasily":3744,"ĠSmith":3745,"Ġactions":3746,"iring":3747,"craft":3748,"ĠTH":3749,"Ġpolitics":3750,"Is":3751,"Ġrates":3752,"Ġcelebr":3753,"Ġpus":3754,"Ġsigned":3755,"Ġoverall":3756,"Ġdecades":3757,"Ġarch":3758,"Ġuses":3759,"ĠFrench":3760,"ĠUnion":3761,"Ġang":3762,"Ġpreviously":3763,"Ġnice":3764,"Ġcentral":3765,"Ġbenefits":3766,"Ġtruth":3767,"ĠGovern":3768,"Ġsusp":3769,"Ġrap":3770,"Ġthrow":3771,"By":3772,"Ġideas":3773,"oti":3774,"):":3775,"Ġindividuals":3776,"ĠDis":3777,"According":3778,"Ġspir":3779,"band":3780,"ĠBel":3781,"AP":3782,"Ġpromot":3783,"Ġtreatment":3784,"Ġvari":3785,"erry":3786,"Ġdeveloped":3787,"ĠCouncil":3788,"ero":3789,"Ġlif":3790,"Ġappeared":3791,"rs":3792,"bon":3793,"Ġbrother":3794,"resh":3795,"Ġcontinues":3796,"ĠVal":3797,"board":3798,"Ġ29":3799,"Ġcredit":3800,"AD":3801,"Ġcustomers":3802,"secut":3803,"Some":3804,"Ġsmart":3805,"Ġvoice":3806,"Advertisement":3807,"21":3808,"icit":3809,"Ġreform":3810,"ĠInternational":3811,"Ġspread":3812,"Ġdoor":3813,"Ġexpand":3814,"ĠGeorge":3815,"uty":3816,"itely":3817,"nown":3818,"Ġaltern":3819,"Pro":3820,"Ġgoals":3821,"Ġclearly":3822,"Ġweb":3823,"Un":3824,"Ġpsych":3825,"onents":3826,"Ġintelligence":3827,"Ġprojects":3828,"Ġstraight":3829,"ube":3830,"Ġnoted":3831,"Ġpolicies":3832,"part":3833,"Ġapparent":3834,"Ġplant":3835,"Ġdisplay":3836,"Ġplaces":3837,"Ġanaly":3838,"Ġsto":3839,"Ġseemed":3840,"www":3841,"Ġbeaut":3842,"ĠWind":3843,"ĠPolice":3844,"ean":3845,"clus":3846,"ET":3847,"ĠAustralia":3848,"Ġindic":3849,"Ġlines":3850,"Ġfully":3851,"bum":3852,"Ġlarger":3853,"Ġdetermin":3854,"Ġstudies":3855,"Ġgreater":3856,"Ġtraff":3857,"ĠAngel":3858,"Ġrelated":3859,"28":3860,"Ġconflic":3861,"Ġrule":3862,"IA":3863,"iverse":3864,"orter":3865,"sey":3866,"Ġstyle":3867,"Ġcities":3868,"ĠTom":3869,"Ġlic":3870,"ĠRob":3871,"olic":3872,"riage":3873,"Ġattract":3874,"dom":3875,"Ġdise":3876,"antly":3877,"ĠMac":3878,"Ġminor":3879,"Ġemb":3880,"Ġkept":3881,"Ġhighly":3882,"net":3883,"Ġfine":3884,"Ġprem":3885,"Ġchallenge":3886,"change":3887,"Ġincident":3888,"Ġdraft":3889,"ID":3890,"attle":3891,"Ġhar":3892,"Ġprint":3893,"Ġsuccessful":3894,"Ġfighting":3895,"roll":3896,"Ġactivity":3897,"Ġorganiz":3898,"Ġdrop":3899,"Ġpatients":3900,"osh":3901,"Ġknowledge":3902,"Ġadvant":3903,"ĠAnt":3904,"Ġmeasure":3905,"Ġ2007":3906,"Ġspend":3907,"while":3908,"ocks":3909,"Ġgreen":3910,"ĠWell":3911,"oday":3912,"Ġstatus":3913,"OM":3914,"ĠBrown":3915,"oles":3916,"Ġknows":3917,"100":3918,"Ġcaused":3919,"iced":3920,"term":3921,"Ġmist":3922,"Ġresources":3923,"Ġsources":3924,"ategy":3925,"Ġpeace":3926,"Ġsales":3927,"Ġemployees":3928,"ĠFlor":3929,"Ġhaven":3930,"Ġintegr":3931,"ĠFranc":3932,"Ġshooting":3933,"Ġprograms":3934,"Ġmanufact":3935,"Ġcharges":3936,"box":3937,"Ġcalling":3938,"Ġowners":3939,"Ġfeet":3940,"Ġfa":3941,"amm":3942,"Ġrare":3943,"ĠHigh":3944,"Ġminister":3945,"que":3946,"Ġresearchers":3947,"Ġliter":3948,"iled":3949,"Ġenforce":3950,"ĠEvery":3951,"Ġgrand":3952,"pen":3953,"Ġsend":3954,"Ġlaun":3955,"Ġmanager":3956,"Ġprimary":3957,"Ġemot":3958,"Ġoptions":3959,"Ġhospital":3960,"itness":3961,"ounds":3962,"Ġfemale":3963,"70":3964,"ĠBre":3965,"Ġregular":3966,"Ġleaving":3967,"Ġimpl":3968,"Ġsave":3969,"wide":3970,"Ġagreement":3971,"ĠRec":3972,"ĠChristian":3973,"Ġlik":3974,"Ġenem":3975,"alse":3976,".âĢĻ":3977,"uman":3978,"org":3979,"Ġtraditional":3980,"Ġended":3981,"iance":3982,"Ġfunding":3983,"Ġadding":3984,"ya":3985,"Ġbeat":3986,"iders":3987,"Ġgold":3988,"ki":3989,"ĠFrom":3990,"Ġnormal":3991,"Ġpun":3992,"Ġrise":3993,"udd":3994,"Ġauthorities":3995,"ength":3996,"ĠComp":3997,"ĠGeneral":3998,"Ġele":3999,"Ġwait":4000,"Ġclaimed":4001,"Ġactual":4002,"Ġpush":4003,"Ġtrou":4004,"Ġslight":4005,"Ġconcerns":4006,"lick":4007,"Ġcolor":4008,"vere":4009,"ĠArab":4010,"ingly":4011,"levision":4012,"miss":4013,"see":4014,"Ġadop":4015,"Ġbasic":4016,"Ġsupposed":4017,"ĠReg":4018,"earch":4019,"Ġbirth":4020,"Ġabsolute":4021,"SA":4022,"ĠEngland":4023,"ĠScott":4024,"ifying":4025,"icago":4026,"Ġensure":4027,"Ġshut":4028,"Ġir":4029,"Ġcreating":4030,"Ġwhatever":4031,"Ġhappens":4032,"ĠBay":4033,"Not":4034,"Ġjudge":4035,"spect":4036,"Ġtemper":4037,"Ġreflect":4038,"ĠBit":4039,"mark":4040,"ĠGold":4041,"Ġraised":4042,"Here":4043,"Ġcommer":4044,"33":4045,"Ġfreedom":4046,"Ġseeing":4047,"________":4048,"Ġcry":4049,"Ġbehavior":4050,"ribution":4051,"Ġeye":4052,"ĠInternet":4053,"ĠDef":4054,"mission":4055,"Ġmechan":4056,"Ġfat":4057,"Ar":4058,"ĠUp":4059,"Con":4060,"Ġnames":4061,"ĠMost":4062,"Ġprices":4063,"Ġbeg":4064,"olf":4065,"ado":4066,"EO":4067,"ĠAccording":4068,"roid":4069,"Ġmassive":4070,"Ġestabl":4071,"Ġvac":4072,".'":4073,"Ġmostly":4074,"mittee":4075,"Ġfeeling":4076,"ĠMo":4077,"Ġjump":4078,"ĠLet":4079,"ĠTrans":4080,"Ġvalues":4081,"Ġacqu":4082,"ram":4083,"ĠAlex":4084,"ĠBush":4085,"ĠFrance":4086,"Ġrestr":4087,"Ġbenefit":4088,"Ġweekend":4089,"Ġdrink":4090,"Ġoffered":4091,"ĠFlorida":4092,"vest":4093,"igned":4094,"ica":4095,"Ġresidents":4096,"Ġpropos":4097,"gen":4098,"Ġstation":4099,"Ġlawy":4100,"ville":4101,"ĠMag":4102,"Ġrank":4103,"Ġproduce":4104,"Ġchoose":4105,"Ġarrested":4106,"Ġstreet":4107,"Ġapplication":4108,"ota":4109,"Ġhero":4110,"Ġwonder":4111,"ĠLou":4112,"Ġarm":4113,"onent":4114,"Ġscen":4115,"Ġrevealed":4116,"Ġconfirmed":4117,"90":4118,"Ġfavorite":4119,"Ġbelieved":4120,"Ġappl":4121,"Ġobser":4122,"inger":4123,"Sc":4124,"Ġmission":4125,"Ġdistrict":4126,"Ġbrief":4127,"Ġwhom":4128,"rial":4129,"Ġdevices":4130,"ĠPhil":4131,"ING":4132,"Ġteac":4133,"Ġparties":4134,"ĠHealth":4135,"rol":4136,"Ġwild":4137,"500":4138,"Ġalbum":4139,"Ġinstall":4140,"Ġmemory":4141,"Ġindependent":4142,"ties":4143,"ĠCommission":4144,"ords":4145,"Ġadult":4146,"ava":4147,"Ġdollars":4148,"uild":4149,"Ġpicture":4150,"ae":4151,"Ġstrategy":4152,"istry":4153,"Ġwat":4154,"Ġwilling":4155,"âĢĿ,":4156,"ĠLa":4157,"Ġetc":4158,"ĠÃ":4159,"itude":4160,"icial":4161,"ĠStud":4162,"ãĤ":4163,"Ġqual":4164,"Ġnegoti":4165,"Ġagreed":4166,"Ġlose":4167,"ona":4168,"Ġtick":4169,"acing":4170,"Ġchem":4171,"Ġimages":4172,"pri":4173,"Ġlearned":4174,"Ġassault":4175,"Ġposted":4176,"ĠPeople":4177,"Ġproduced":4178,"ĠSun":4179,"Ġrecords":4180,"Ġenter":4181,"Ġuns":4182,"Ġinfluence":4183,"ste":4184,"aby":4185,"Ġinvestment":4186,"ĠLaw":4187,"ĠBer":4188,"Ġspecies":4189,"Ġadvoc":4190,"ags":4191,"orial":4192,"aked":4193,"Ġtend":4194,"Ġasking":4195,"cher":4196,"ĠHillary":4197,"Ġdebt":4198,"Ð°":4199,"Ex":4200,"ĠPress":4201,"Ġopposition":4202,"Ġshowing":4203,"Ġmount":4204,"Ġeth":4205,"Ġice":4206,"Ġtrial":4207,"Ġvirt":4208,"rian":4209,"ĠAP":4210,"icians":4211,"EL":4212,"Ġlearning":4213,"Ġcru":4214,"ĠOther":4215,"Ġsolution":4216,"cience":4217,"Ġdire":4218,"ented":4219,"Ġoperations":4220,"ugg":4221,"ĠSecret":4222,"====":4223,"However":4224,"orrow":4225,"Ġcars":4226,"Ġsection":4227,"Ġdefend":4228,"Ġweight":4229,"liament":4230,"no":4231,"Ġcore":4232,"Ġsleep":4233,"Ġeffective":4234,"Ġruns":4235,"ĠMod":4236,"Ġrat":4237,"Ġprovides":4238,"ĠWall":4239,"Ġinterested":4240,"Ġworse":4241,"ĠLiber":4242,"ĠChicago":4243,"ĠSanders":4244,"Ġcritical":4245,"ĠPort":4246,"ront":4247,"ription":4248,"Ġbrand":4249,"Ġreplace":4250,"Ġpattern":4251,"Ġlimit":4252,"Ġmale":4253,"ĠWhy":4254,"mine":4255,"mar":4256,"Ġdigital":4257,"Ġkick":4258,"Ġtypes":4259,"bert":4260,"cell":4261,"ection":4262,"Ġsurround":4263,"ĠWestern":4264,"Ġgenerally":4265,"well":4266,"point":4267,"Cl":4268,"rav":4269,"Ġresponsible":4270,"Ġship":4271,"Ġmer":4272,"Ġchair":4273,"estic":4274,"ĠBecause":4275,"ĠCommittee":4276,"ias":4277,"ST":4278,"Ġresist":4279,"uana":4280,"Ġneighbor":4281,"ĠJustice":4282,"ĠSam":4283,"ocr":4284,"Ġmur":4285,"Ġvill":4286,"Ġtheory":4287,"Ġexplained":4288,"coming":4289,"ĠNFL":4290,"ĠPalest":4291,"Ġbur":4292,"Ġborder":4293,"cont":4294,"Ġthus":4295,"outhern":4296,"Ġoccas":4297,"Ġcoal":4298,"ĠOh":4299,"These":4300,"lands":4301,"ĠKorea":4302,"Ġdefe":4303,"Ġtrain":4304,"Ġopening":4305,"Ġmillions":4306,"win":4307,"Ġoffers":4308,"Ġunderstanding":4309,"ĠFrancis":4310,"44":4311,"ĠBank":4312,"ĠDel":4313,"orthern":4314,"Ġ80":4315,"ĠVir":4316,"Ġhighest":4317,"Ġopinion":4318,"Ġdestroy":4319,"ih":4320,"Ġonto":4321,"Ġbecoming":4322,"Ġheavy":4323,"ĠMat":4324,"Ġteach":4325,"Ġproposed":4326,"Ġnotice":4327,"illing":4328,"Ġpartners":4329,"ĠOur":4330,"Ġdaily":4331,"ĠSecurity":4332,"Ġspl":4333,"Ġseparate":4334,"Ġbasis":4335,"Ġreject":4336,"Ġbecomes":4337,"http":4338,"Ġcondition":4339,"Ġwinning":4340,"rey":4341,"Ġhundreds":4342,"Ġbed":4343,"ĠMil":4344,"ĠCup":4345,"ios":4346,"Ġobtain":4347,"Ġserve":4348,"ĠLab":4349,"ĠJer":4350,"Ġlegislation":4351,"Ġbottom":4352,"Ġnine":4353,"Ġillegal":4354,"Ġtelevision":4355,"soft":4356,"ading":4357,"Ġstructure":4358,"Ġreduce":4359,"ĠHall":4360,"ĠCanadian":4361,"Ġassum":4362,"ictions":4363,"house":4364,"Ġadvantage":4365,"ĠUk":4366,"Ġhearing":4367,"Ġcoverage":4368,"Ġjoin":4369,"36":4370,"oom":4371,"Ġopened":4372,"Ġextremely":4373,"icip":4374,"Ġserved":4375,"Ġborn":4376,"oly":4377,"azing":4378,"IL":4379,"ĠCommun":4380,"Ġunlike":4381,"uries":4382,"known":4383,"ĠOffice":4384,"Ġload":4385,"Ġputting":4386,"hem":4387,"ĠCr":4388,"ĠHam":4389,"Ġmiles":4390,"Ġepisode":4391,"Ġappeal":4392,"Ġphoto":4393,"ĠMany":4394,"Ġannounce":4395,"tered":4396,"ĠMike":4397,"Ġbelief":4398,"Ġachieve":4399,"Ġmachine":4400,"ĠMal":4401,"Ġaspect":4402,"Ġtransfer":4403,"Ġstrik":4404,"Ġanimals":4405,"GB":4406,"Ġstated":4407,"Ġder":4408,"ĠUN":4409,"Ġscientists":4410,"Ġnegative":4411,"Ġprofessional":4412,"witch":4413,"Mr":4414,"Ð¾":4415,"atically":4416,"Ġran":4417,"ĠOver":4418,"Ġvs":4419,"Ġcontrovers":4420,"Ġinitial":4421,"ĠFound":4422,"Ġincred":4423,"Ġaccused":4424,"Ġmarriage":4425,"Get":4426,"Ġshared":4427,"Ġassociated":4428,"ada":4429,"BA":4430,"Ġcamera":4431,"Ġcateg":4432,"ipe":4433,"CH":4434,"Ġpurs":4435,"Ġreturned":4436,"la":4437,"Ġeasier":4438,"iliar":4439,"ipped":4440,"32":4441,"ijuana":4442,"Ġactive":4443,"Ġ2006":4444,"zen":4445,"Ġamb":4446,"Ġdocuments":4447,"OU":4448,"Ġpurpose":4449,"iller":4450,"Ġaudience":4451,"Ġinsurance":4452,"ĠBritain":4453,"iful":4454,"Ġdouble":4455,"za":4456,"Ġharm":4457,"Ġvehicle":4458,"Ġexisting":4459,"NA":4460,"Ġfresh":4461,"ĠChurch":4462,"upp":4463,"Ġinternet":4464,"Ġdepartment":4465,"Ġsun":4466,"Ġmanagement":4467,"Ġmicro":4468,"Ġsites":4469,"ĠGet":4470,"ortunately":4471,"ĠFrank":4472,"Ġtraffic":4473,"Ġ31":4474,"Ġlocation":4475,"inate":4476,"omas":4477,"ears":4478,"Ġcancer":4479,"ĠYour":4480,"Ġvictims":4481,"Ġsolid":4482,"ulf":4483,"andon":4484,"ĠMedic":4485,"Ġleadership":4486,"ĠAtt":4487,"Ġbomb":4488,"ĠSup":4489,"eline":4490,"Ġinstance":4491,"rig":4492,"Ġdoubt":4493,"Ġchurch":4494,"works":4495,"Ġwealth":4496,"ander":4497,"Ġhack":4498,"Ġdangerous":4499,"Ġrefere":4500,"aks":4501,"Ġmap":4502,"Ġsupporters":4503,"Ġfloor":4504,"Ġlabor":4505,"level":4506,"37":4507,"Ġspoke":4508,"acity":4509,"Ġargument":4510,"Ġwatching":4511,"Ġsupported":4512,"Ġcells":4513,"ĠFBI":4514,"0000":4515,"Ġdriver":4516,"Ġsett":4517,"Ġdaughter":4518,"odes":4519,"Ġvictory":4520,"Bl":4521,"ĠWil":4522,"Ġfaith":4523,"Ġcharged":4524,"Ġentirely":4525,"Ġded":4526,"anted":4527,"istics":4528,"ĠGreat":4529,"Ġissued":4530,"Ġcommunities":4531,"Ġ90":4532,"Ġelectric":4533,"Ġ35":4534,"Ġclosed":4535,"inct":4536,"going":4537,"ghan":4538,"Ġitems":4539,"Ġcards":4540,"lor":4541,"Ġenforcement":4542,"Ġrepeated":4543,"ĠChris":4544,"Ġnotes":4545,"ĠMad":4546,"ĠGame":4547,"Ġcomfort":4548,"Ġviews":4549,"Ġnor":4550,"ography":4551,"ĠInstitute":4552,"Ġexplain":4553,"Ðµ":4554,"SP":4555,"ĠGree":4556,"Ġbackground":4557,"FC":4558,"Ġframe":4559,"actions":4560,"ĠInc":4561,"Ġlaunched":4562,"ady":4563,"ibrary":4564,"ĠAdd":4565,"Ġcommercial":4566,"38":4567,"ĠArt":4568,"Ġconservative":4569,"ĠIslamic":4570,"Ġradio":4571,"imb":4572,"ĠSince":4573,"Ġsurface":4574,"ĠLike":4575,"Ġnovel":4576,"Ġnorth":4577,"ribe":4578,"itt":4579,"ĠWindows":4580,"Ġcompar":4581,"Ġexperiment":4582,"Ġjoined":4583,"Ġdefinitely":4584,"Ġhus":4585,"ctors":4586,"34":4587,"Ġdiscovered":4588,"gency":4589,"Ġmax":4590,"Ġcommittee":4591,"ĠTre":4592,"iling":4593,"ĠMicro":4594,"Ġunit":4595,"OL":4596,"Ġrequires":4597,"Ġ2005":4598,"Ġrestaur":4599,"Ġconcerned":4600,"ĠUkrain":4601,"ĠJohnson":4602,"Americ":4603,"Ġdriving":4604,"ĠFin":4605,"ĠLos":4606,"arant":4607,"Ġfalse":4608,"ĠSil":4609,"ĠIsraeli":4610,"resp":4611,"ĠKh":4612,"ait":4613,"Ġallowing":4614,"equ":4615,"Ġholding":4616,"oman":4617,"Ġbelieves":4618,"isation":4619,"Ġoccup":4620,"ĠEv":4621,"ĠDirect":4622,"which":4623,"Ġsan":4624,"ĠRobert":4625,"Ġwitness":4626,"Ġtrend":4627,"lo":4628,"Ġsuggested":4629,"Ġsmaller":4630,"do":4631,"Ġcompetition":4632,"met":4633,"âĢ¢":4634,"ribute":4635,"Ġphil":4636,"Ġgeneration":4637,"Ġtelling":4638,"azon":4639,"Ġwel":4640,"Ġdie":4641,"Ġbanks":4642,"ource":4643,"Ġfinding":4644,"ici":4645,"lant":4646,"55":4647,"Ġtim":4648,"Ġeat":4649,"Ġconstruction":4650,"Ġplanning":4651,"Ġhair":4652,"Ġworst":4653,"Ġplays":4654,"night":4655,"urb":4656,"Ġplease":4657,"ĠMP":4658,"Ġjustice":4659,"ĠQue":4660,"Ġfuel":4661,"!âĢĿ":4662,"ĠPC":4663,"ampionship":4664,"ĠCarol":4665,"overy":4666,"Ġblue":4667,"ĠPri":4668,"ĠFox":4669,"Ġdecade":4670,"Ġphotos":4671,"Ġconcern":4672,"Ġ70":4673,"Ġattend":4674,"Ġtools":4675,"itz":4676,"Ġbusinesses":4677,"Ġmobile":4678,"ey":4679,"Ġafford":4680,"Ġdirection":4681,"ĠAre":4682,"Ġkid":4683,"Ġannual":4684,"Ġtruly":4685,"Ġolder":4686,"48":4687,"ulated":4688,"Ġspirit":4689,"ĠAM":4690,"Ġguess":4691,"Ġdrugs":4692,"NN":4693,"nel":4694,"Ġhousing":4695,"Ġstrength":4696,"rad":4697,"Ġstock":4698,"tery":4699,"Ġconsequ":4700,"Ġlength":4701,"TC":4702,"ĠSal":4703,"Ġraise":4704,"Ġcaught":4705,"owl":4706,"Ġlargely":4707,"iation":4708,"Ġcash":4709,"Ġdownload":4710,"ĠBig":4711,"Image":4712,"how":4713,"Ġrough":4714,"itable":4715,"Ġcontext":4716,"ipp":4717,"Ġearth":4718,"izes":4719,"ius":4720,"spe":4721,"but":4722,"Ġplaced":4723,"ĠSupreme":4724,"vention":4725,"Ġcontain":4726,"ĠAssociation":4727,"Ġwaiting":4728,"Ġhomes":4729,"ĠTy":4730,"Ġmurder":4731,"Ġpresence":4732,"EM":4733,"Ġexerc":4734,"Ġge":4735,"apped":4736,"Ġfarm":4737,"ãĥ":4738,"anging":4739,"More":4740,"Ġrecommend":4741,"serv":4742,"ossible":4743,"Ġestablished":4744,"ĠMiss":4745,"kin":4746,"39":4747,"Ġmissing":4748,"ĠVirgin":4749,"Ġuseful":4750,"Ġproviding":4751,"phone":4752,"ĠPM":4753,"ancy":4754,"Ġtransport":4755,"Ġactivities":4756,"Ġgirls":4757,"Ġcook":4758,"semb":4759,"ĠLeg":4760,"47":4761,"bour":4762,"andom":4763,"asy":4764,"PS":4765,"Ġbul":4766,"Ġcandidates":4767,"Ġdisease":4768,"ĠLouis":4769,"osure":4770,"esc":4771,"Ġowner":4772,"annel":4773,"what":4774,"ĠJeff":4775,"ĠAc":4776,"Ġstrateg":4777,"ception":4778,"ĠJud":4779,"Ġtask":4780,"ĠVer":4781,"ĠStep":4782,"oyal":4783,"CC":4784,"Ġidentified":4785,"Ġaccur":4786,"ĠInstead":4787,"Ġarrived":4788,"Ġcatch":4789,"mail":4790,"ference":4791,"iable":4792,"ĠGroup":4793,"Ġscale":4794,"azine":4795,"icy":4796,"Ġconversation":4797,"Ġmentioned":4798,"Ġstopped":4799,"oted":4800,"ĠAfghan":4801,"Our":4802,"ĠSur":4803,"Ġtells":4804,"Ġdeliver":4805,"ests":4806,"fe":4807,"ĠJones":4808,"Ġcircum":4809,"hi":4810,"Ġdecisions":4811,"ĠProf":4812,"bre":4813,"wing":4814,"ĠAfrican":4815,"Ġspokesman":4816,"ario":4817,"Ġgay":4818,"Ġtaxes":4819,"cknow":4820,"igan":4821,"Ġcrew":4822,"vered":4823,"ils":4824,"icon":4825,"ocracy":4826,"Ġfunds":4827,"Ġaggress":4828,"Ġ2000":4829,"Ġrelatively":4830,"ĠAngeles":4831,"ĠMexico":4832,"Ġhighlight":4833,"Ġdat":4834,"onto":4835,"ĠMer":4836,"Ġtesting":4837,"Ġintroduced":4838,"vant":4839,"ĠArmy":4840,"âĢĺ":4841,"verse":4842,"Ġsequ":4843,"Ġoffensive":4844,"Ġinterests":4845,"Ġskills":4846,"Ġstick":4847,"Ġmeasures":4848,"rees":4849,"PA":4850,"isf":4851,"Ġconflict":4852,"inter":4853,"Ġsust":4854,"Ġdetect":4855,"ĠJapanese":4856,"adium":4857,"ania":4858,"Ġconclud":4859,"Ġplanet":4860,"stitution":4861,"Ġ2018":4862,"oms":4863,"Ġconnection":4864,"ĠAfrica":4865,"Ġfant":4866,"Ġestablish":4867,"BS":4868,"Ġsetting":4869,"kins":4870,"ĠPalestin":4871,"ocal":4872,"Ġhasn":4873,"Ġrefuge":4874,"gypt":4875,"lig":4876,"ups":4877,"Ġupdate":4878,"ĠMet":4879,"Ġsteps":4880,"Ġmanaged":4881,"Ġslightly":4882,"ĠKen":4883,"Ġtherefore":4884,"Ġfeels":4885,"ĠRichard":4886,"49":4887,"Ġfocused":4888,"rick":4889,"Ġmarijuana":4890,"Ġaward":4891,"Ġsouth":4892,"Ġiniti":4893,"Ġfourth":4894,"Ġidentity":4895,"Ġcommitted":4896,"Ġfle":4897,"Ġremoved":4898,"Ġstrike":4899,"Photo":4900,"Ġassess":4901,"ĠCEO":4902,"ga":4903,"real":4904,"aven":4905,"ĠPre":4906,"Ġcommission":4907,"agn":4908,"ronic":4909,"Ġkeeping":4910,"dden":4911,"illa":4912,"Ġnewsp":4913,"ighter":4914,"ulate":4915,"Ġinjury":4916,"Ġobvious":4917,"ĠJim":4918,"Ġtough":4919,"DA":4920,"Ġgraph":4921,"ula":4922,"ĠMary":4923,"ĠFore":4924,"Ġfailure":4925,"Ġotherwise":4926,"!\"":4927,"umn":4928,"Ġstandards":4929,"Ġappropri":4930,"ĠGovernment":4931,"cks":4932,"ĠBitcoin":4933,"ym":4934,"ĠYes":4935,"eah":4936,"Ġpartner":4937,"mas":4938,"Ġappoint":4939,"cious":4940,"ancing":4941,"Ġprotection":4942,"Ġsurvey":4943,"ucky":4944,"Ġhusband":4945,"Ġbeer":4946,"eless":4947,"Ġenvironmental":4948,"Ġterrit":4949,"iter":4950,"ĠMont":4951,"enses":4952,"ĠAlthough":4953,"Ġabuse":4954,"Ġoperation":4955,"outs":4956,"onym":4957,"Ġspect":4958,"ĠPak":4959,"Ġprefer":4960,"with":4961,"Ġmodels":4962,"Ġheat":4963,"Ġacknow":4964,"ĠGood":4965,"place":4966,"Ġnone":4967,"ĠJewish":4968,"****":4969,"hedul":4970,"gu":4971,"Ġcorner":4972,"ĠGOP":4973,"Ġsuggests":4974,"uke":4975,"Ġtalks":4976,"Ġseconds":4977,"ansion":4978,"Ġplanned":4979,"Ġsudden":4980,"aren":4981,"Ġdiscussion":4982,"Ġsports":4983,"Ġfigures":4984,"Pl":4985,"iams":4986,"uct":4987,"Ġfamiliar":4988,"Le":4989,"Ġstruct":4990,"ĠTim":4991,"64":4992,"Ġneighborhood":4993,"olly":4994,"Why":4995,"ĠSub":4996,"Ġmere":4997,"range":4998,"RA":4999,"ĠNor":5000,"Ġfinished":5001,"Ġpet":5002,"Ġimmigration":5003,"Ġorganizations":5004,"odies":5005,"Ġtransform":5006,"gar":5007,"pet":5008,"ĠIr":5009,"Ġanimal":5010,"Ġdepend":5011,"Ġkilling":5012,"Ġexchange":5013,"Ġphilos":5014,"makers":5015,"Ġdefensive":5016,"Ġ2004":5017,"Ġrevolution":5018,"season":5019,"Ġguard":5020,"idering":5021,"aded":5022,"Ġrich":5023,"ĠResearch":5024,"Ġaccounts":5025,"Ġwish":5026,"Ġveter":5027,"iser":5028,"Ġremind":5029,"Ġdecide":5030,"den":5031,"Ġstanding":5032,"abb":5033,"Ġmulti":5034,"ĠThomas":5035,"Ġhappening":5036,"erous":5037,"obby":5038,"rency":5039,"Ġsupply":5040,"!!!!!!!!":5041,"Ġelements":5042,"Ġturns":5043,"itect":5044,"Ġcollection":5045,"Ġprofessor":5046,"Ġclick":5047,"ka":5048,"gers":5049,"ĠRyan":5050,"Ġweak":5051,"Ġdropped":5052,"Ġflight":5053,"ĠInter":5054,"ano":5055,"ĠPrime":5056,"Ã¡":5057,"Ġroll":5058,"Ġsubsc":5059,"ĠSecretary":5060,"prof":5061,"Ġamazing":5062,"ini":5063,"Ġpit":5064,"Ġfiles":5065,"ynam":5066,"Ġgain":5067,"Ġprinc":5068,"Ġscientific":5069,"Ġfiled":5070,"Ġvariety":5071,"Ġstarts":5072,"ĠRock":5073,"Ġtrip":5074,"Ġ32":5075,"Ġfellow":5076,"ĠTer":5077,"ĠTheir":5078,"acks":5079,"Ġthanks":5080,"Ġcarried":5081,"Ġunits":5082,"Ġreligion":5083,"ĠMars":5084,"ĠService":5085,"uters":5086,"anda":5087,"Ġhelping":5088,"Ġskin":5089,"ĠSl":5090,"ĠTeam":5091,"Ġspeaking":5092,"Ġagencies":5093,"Ġtweet":5094,"Ġsides":5095,"Ġtransl":5096,"Ġmental":5097,"##":5098,"ĠMartin":5099,"Ġtests":5100,"Ġworry":5101,"uate":5102,"Ġhumans":5103,"Ġbigger":5104,"Ġmigr":5105,"Ġtwice":5106,"hens":5107,"ĠSyrian":5108,"Go":5109,"ĠTwo":5110,"Ġcuts":5111,"ĠFed":5112,"Ġschedul":5113,"ĠBern":5114,"gn":5115,"oston":5116,"Ġincreasingly":5117,"Ġacadem":5118,"reci":5119,"Ġimpossible":5120,"Trump":5121,"Ġunivers":5122,"Ġcorporate":5123,"stein":5124,"Ġsounds":5125,"ortion":5126,"Ġsettle":5127,"Ġvast":5128,"ĠOut":5129,"ĠAndroid":5130,"ĠUs":5131,"ĠJose":5132,"Ġhonest":5133,"agues":5134,"Read":5135,"ĠEgypt":5136,"Ġpair":5137,"Ġsolar":5138,"ĠCollege":5139,"ĠTime":5140,"Ġpaying":5141,"Ġcold":5142,"iot":5143,"Ġlosing":5144,"Ġinnov":5145,"Ġseeking":5146,"Last":5147,"ĠCamp":5148,"Ġbalance":5149,"Ġauthority":5150,"icide":5151,"Ġdegree":5152,"Ġabsolutely":5153,"ipment":5154,"Ġscript":5155,"].":5156,"ĠLat":5157,"Ġmut":5158,"âĢĶâĢĶâĢĶâĢĶ":5159,"78":5160,"ĠBur":5161,"Ġcovered":5162,"Ġtast":5163,"Ġfundament":5164,"Ġdomestic":5165,"ola":5166,"ĠRo":5167,"anche":5168,"under":5169,"Ġprospect":5170,"Ġalternative":5171,"rd":5172,"Ġdin":5173,"ader":5174,"ruit":5175,"rastructure":5176,"ĠAlso":5177,"isher":5178,"ĠPet":5179,"Ġunless":5180,"Ġpossibly":5181,"ĠST":5182,"Ġultimately":5183,"Ġcolle":5184,"stream":5185,"Ġchanging":5186,"Ġapply":5187,"ĠMicrosoft":5188,"ĠRub":5189,"ĠDec":5190,"Ġcapacity":5191,"Ġmarkets":5192,"75":5193,"Up":5194,"Ġwindow":5195,"ĠCentral":5196,"Ġsitting":5197,"Ġvotes":5198,"Ġhate":5199,"ĠAmazon":5200,"HL":5201,"Ġunion":5202,"Ġarmy":5203,"Ġshall":5204,"Of":5205,"olit":5206,"01":5207,"cons":5208,"enced":5209,"Ġimagine":5210,"ashed":5211,"Ġdeveloping":5212,"Ġfamous":5213,"Ġapparently":5214,"ayer":5215,"Even":5216,"ĠJoe":5217,"Ġlived":5218,"Ġattorney":5219,"Ġregarding":5220,"state":5221,"Ġvision":5222,"Ġintended":5223,"Ġpossibility":5224,"Ġexpensive":5225,"ocol":5226,"Ġoptim":5227,"Ġscr":5228,"war":5229,"Ġdevelopers":5230,"Ġfired":5231,"Ġguarant":5232,"Ġtack":5233,"ĠLast":5234,"Ġpresented":5235,"roud":5236,"isted":5237,"apers":5238,"ĠFoundation":5239,"Ġcloser":5240,"CA":5241,"Ġstreets":5242,"Ġelim":5243,"Ġstars":5244,"Ġsoldiers":5245,"Ġforest":5246,"ores":5247,"Ġbeautiful":5248,"ĠPublic":5249,"arks":5250,"Ġfactors":5251,"Ġprosecut":5252,"rible":5253,"ĠToronto":5254,"Ġhealthy":5255,"Ġarms":5256,"Ġoccurred":5257,"Ġ45":5258,"Ġapart":5259,"ĠMass":5260,"run":5261,"65":5262,"Just":5263,"ĠMiddle":5264,"Ġcarbon":5265,"Ġbroke":5266,"Ġoperating":5267,"ĠDistrict":5268,"Ġapplications":5269,"atures":5270,"ĠUSA":5271,"Ġodd":5272,"porary":5273,"ours":5274,"Ġbroken":5275,"Ġconsult":5276,"edia":5277,"ĠFire":5278,"ĠAny":5279,"Ġflow":5280,"Ġexpert":5281,"Ġ;":5282,"uration":5283,"ĠPlan":5284,"related":5285,"ĠCarolina":5286,"Ġ195":5287,"31":5288,"From":5289,"95":5290,"inating":5291,"Ġexperts":5292,"Ġcouncil":5293,"ĠFrancisco":5294,"coh":5295,"Ġwriter":5296,"Ġpieces":5297,"ĠCath":5298,"ĠJo":5299,"Ġtrail":5300,"ĠVirginia":5301,"vis":5302,"Ġpil":5303,"Ġprime":5304,"ĠOpen":5305,"Ġgar":5306,"aine":5307,"ĠUnder":5308,"Ġsurprise":5309,"lets":5310,"class":5311,"Ġrapid":5312,"Ġque":5313,"Ġexclus":5314,"awn":5315,"person":5316,"Ġfif":5317,"Ġruling":5318,"Ġinternal":5319,"Ġrid":5320,"ĠDen":5321,"look":5322,"ĠJon":5323,"ologies":5324,"Ġgender":5325,"ĠImages":5326,"Des":5327,"Do":5328,"Ġton":5329,"uzz":5330,"Ġdeploy":5331,"ĠOnce":5332,"osen":5333,"Ġperspect":5334,"Ġbreat":5335,"Ġgovernments":5336,"ĠSol":5337,"ĠChief":5338,"uster":5339,"Ġerror":5340,"pm":5341,"idden":5342,"Ġchemical":5343,"Ġelections":5344,"Let":5345,"Ġelected":5346,"that":5347,"oving":5348,"ĠWeb":5349,"Ġminimum":5350,"ĠAtlant":5351,"ĠWho":5352,"Ġadjust":5353,"ĠSocial":5354,"pire":5355,"ĠWilliams":5356,"Ġsea":5357,"Ġinstit":5358,"Ġhelps":5359,"ĠGuard":5360,"IV":5361,"Ġbringing":5362,"Ġbrow":5363,"Ġtroops":5364,"Ġforms":5365,"IP":5366,"onom":5367,"ĠThose":5368,"Ġequal":5369,"ĠLee":5370,"Ġvul":5371,"anish":5372,"ĠConserv":5373,"col":5374,"ĠJes":5375,"phas":5376,"Ġfol":5377,"etic":5378,"Ġseasons":5379,"Ġherself":5380,"Ġsector":5381,"Ġvoted":5382,"Ġdetermine":5383,"hand":5384,"rie":5385,"ressive":5386,"gl":5387,"Ġminute":5388,"reens":5389,"hy":5390,"Ġspecifically":5391,"raud":5392,"Ġtourn":5393,"Ġresponsibility":5394,"Ġsymb":5395,"Ġrevenue":5396,"Ġconvention":5397,"ĠFe":5398,"Ġplus":5399,"IG":5400,"terday":5401,"Ġserver":5402,"ocking":5403,"Ġweapon":5404,"ĠJournal":5405,"....":5406,"ĠParis":5407,"Ġmort":5408,"Ġvehicles":5409,"App":5410,"Ġestimated":5411,"Ã¤":5412,"ĠFederal":5413,"Ġprepared":5414,"Ġstret":5415,"Ġrefused":5416,"Ġconducted":5417,"ĠBoston":5418,"Ġid":5419,"Ġequipment":5420,"och":5421,"odd":5422,"icate":5423,"ĠAri":5424,"Ġheav":5425,"ĠPut":5426,"Ġhun":5427,"Ġcas":5428,"apter":5429,"DP":5430,"Ġsecure":5431,"46":5432,"Ġdram":5433,"Ġinfrastructure":5434,"ĠSing":5435,"Ab":5436,"ĠPeter":5437,"Ġteen":5438,"Every":5439,"Ġsport":5440,"standing":5441,"ĠBoth":5442,"ĠAT":5443,"alls":5444,"Ġremained":5445,"Ġproposal":5446,"Ġvir":5447,"Ġregime":5448,"Ġast":5449,"Ġhurt":5450,"Ġsch":5451,"Ġoffering":5452,"ĠGal":5453,"ĠDuring":5454,"ĠSher":5455,"ĠSpr":5456,"road":5457,"Ġprivacy":5458,"ros":5459,"oty":5460,"Ġbought":5461,"rier":5462,"OW":5463,"Ġ1990":5464,"Ġmaster":5465,"olved":5466,"Ġsale":5467,"Ġgreatest":5468,"life":5469,"asp":5470,"Ġreact":5471,"Ġtight":5472,"Ġclin":5473,"clusion":5474,"Ġearn":5475,"Ġoriginally":5476,"Ġprove":5477,"ĠFree":5478,"Ġappearance":5479,"Ġpowers":5480,"inent":5481,"Ġwidely":5482,"Ġshape":5483,"Ġcombat":5484,"()":5485,"Ġweren":5486,",[":5487,"noon":5488,"Ġselling":5489,"Ġreduced":5490,"Ġfaster":5491,"centr":5492,"Ġboost":5493,"Ġstress":5494,"Ĥ¬":5495,"Ġplants":5496,"Ġcart":5497,"Ġera":5498,"ĠBBC":5499,"Ġplenty":5500,"Ġhandle":5501,"Ġaffected":5502,"Ġobviously":5503,"Ġlocated":5504,"Ġtact":5505,"Ġwearing":5506,"ruption":5507,"arp":5508,"Ġjail":5509,"ĠMos":5510,"auc":5511,"pired":5512,"vey":5513,"Ġpulled":5514,"Ġpotentially":5515,"Ġpointed":5516,"Ġretail":5517,"ĠAN":5518,"useum":5519,"mosp":5520,"Ġexpressed":5521,"ighters":5522,"Ġaccident":5523,"ĠMel":5524,"ipping":5525,"MA":5526,"ĠRiver":5527,"Ġbound":5528,"Ġfactor":5529,"Ġcriticism":5530,"Ġchallenges":5531,"Ġpositions":5532,"ĠAustralian":5533,"SS":5534,"Ġinvolve":5535,"Ġexperienced":5536,"CL":5537,"ĠBook":5538,"cean":5539,"Ġrandom":5540,"Since":5541,"First":5542,"orage":5543,"ĠTHE":5544,"Well":5545,"ION":5546,"Ġpoliticians":5547,"rog":5548,"Ġdepart":5549,"Ġpredict":5550,"Ġshift":5551,"Ġpercentage":5552,"Ġexcited":5553,"yr":5554,"Ġnut":5555,"Ġremove":5556,"Ġleads":5557,"66":5558,"ĠCur":5559,"Ġtalked":5560,"Ġmethods":5561,"Ġuniversity":5562,"sen":5563,"ĠMur":5564,"Ġclot":5565,"Ġconsidering":5566,"Ind":5567,"Ġpages":5568,"Ġfinish":5569,"Ġhyp":5570,"Ġcultural":5571,"Ġglass":5572,"Ġremaining":5573,"Ġath":5574,"tion":5575,"Ġbaby":5576,"Ġthr":5577,"Ġproceed":5578,"Ġrecorded":5579,"Ġconstitution":5580,"Ġtypically":5581,"],":5582,"ĠRem":5583,"essions":5584,"Ġdiscl":5585,"olt":5586,"Ġconstruct":5587,"ĠBet":5588,"Ġargued":5589,"Ġquant":5590,"Ġdistance":5591,"Ġfacing":5592,"Ġnar":5593,"ĠForce":5594,"Ġmode":5595,"ENT":5596,"Ġyards":5597,"Ġhopes":5598,"Ġupgr":5599,"Ġpurchase":5600,"Ġec":5601,"Ġappreci":5602,"ĠBat":5603,"aling":5604,"ashion":5605,"Ġcombined":5606,"Ġvoting":5607,"Ġsurprising":5608,"reland":5609,"unction":5610,"Ġemergency":5611,"ller":5612,"Ġgrew":5613,"Ġtele":5614,"ownt":5615,"Ġseat":5616,"Ġsigns":5617,"apping":5618,"Ġsignificantly":5619,"Ġafternoon":5620,"Ġindeed":5621,"ĠPlease":5622,"Ġthank":5623,"Ġagent":5624,"Ġ500":5625,"ompl":5626,"rawn":5627,"gment":5628,"ĠDaily":5629,"Ġsatisf":5630,"Ġopposed":5631,"Ġdepth":5632,"Ġends":5633,"Ġreference":5634,"Ġcompleted":5635,"Ġidentify":5636,"Ġtrig":5637,"Ġaircraft":5638,"ĠSteve":5639,"hered":5640,"lyn":5641,",âĢĻ":5642,"Ġyouth":5643,"Ġmatters":5644,"43":5645,"Ġtreated":5646,"Ġswitch":5647,"Ġdefault":5648,"hab":5649,"Ġfrustr":5650,"Ġdenied":5651,"Ġaid":5652,"Ġdream":5653,"ita":5654,"oken":5655,"Ġsupporting":5656,"Ġfilms":5657,"Ġmotiv":5658,"Ġmal":5659,"Ġopportunities":5660,"idel":5661,"Ġproced":5662,"Ġtrouble":5663,"Ġdetermined":5664,"ĠProt":5665,"Ġrenew":5666,"Ġbelong":5667,"Ġdisappoint":5668,"ĠLabour":5669,"Ġapproved":5670,"Ġwood":5671,"Ġbuildings":5672,"care":5673,"Ġ2003":5674,"ĠPenn":5675,"Ġevening":5676,"ĠHaw":5677,"ensions":5678,"anged":5679,"ache":5680,"zer":5681,"ulations":5682,"Ġlots":5683,"ĠScience":5684,"Pe":5685,"rant":5686,"Ġconcentr":5687,"cohol":5688,"TV":5689,"ato":5690,"Ġvulner":5691,"host":5692,"ĠMatt":5693,"ĠRad":5694,"Ġpanel":5695,"oral":5696,"Ġdismiss":5697,"lymp":5698,"Ġthoughts":5699,"Ġinjured":5700,"Ġbodies":5701,"Ġmovies":5702,"lines":5703,"ĠStan":5704,"Ġstruggle":5705,"Over":5706,"Ġdim":5707,"Ġturning":5708,"ternal":5709,"Ġcreation":5710,"Ð¸":5711,"Ġapprox":5712,"Ġexpansion":5713,"aniel":5714,"Ġunable":5715,"Ġreporting":5716,"PR":5717,"Ġmarg":5718,"Ġdial":5719,"Ġ2001":5720,"Ġreporters":5721,"erved":5722,"Ġfish":5723,"Ġhol":5724,"42":5725,"à¸":5726,"oma":5727,"ĠIN":5728,"razil":5729,"Ġsubs":5730,"Ġvisual":5731,"Ġsem":5732,"Se":5733,"PU":5734,"Ġzone":5735,"Ġbasically":5736,"cel":5737,"Ġconsumers":5738,"oves":5739,"arl":5740,"Ġcontrast":5741,"Ġresponded":5742,"Ġvideos":5743,"PD":5744,"Ġlisten":5745,"nell":5746,"aled":5747,"Ġspring":5748,"ĠIsland":5749,"Ġconfident":5750,"Ġcoord":5751,"Ġpackage":5752,"endment":5753,"Ġcollabor":5754,"Ġsac":5755,"ĠSum":5756,"ĠNAS":5757,"Ġourselves":5758,",'":5759,"ivered":5760,"Ġburn":5761,"ht":5762,"mm":5763,"top":5764,"ĠSaud":5765,"Ġsplit":5766,"Ġnumerous":5767,"Ġattempts":5768,"ĠYet":5769,"Ġrent":5770,"osite":5771,"Ġinstruct":5772,"ĠShow":5773,"Ġordered":5774,"respond":5775,"Ġcircumst":5776,"Ġarchitect":5777,"Ġflood":5778,"Ġbroadcast":5779,"onna":5780,"ĠSant":5781,"Ġprompt":5782,"aza":5783,"Ġadvance":5784,"Ġdifferences":5785,"Ġforget":5786,"Ġliberal":5787,"Ġcraz":5788,"Ġupdates":5789,"Ġquiet":5790,"Ġforg":5791,"Cont":5792,"ansas":5793,"Ġexplos":5794,"ii":5795,"istered":5796,"Ġcapable":5797,"Ġwrites":5798,"ĠRoad":5799,"oking":5800,"LE":5801,"obe":5802,"Ġaccompl":5803,"Ġvalid":5804,"Ġsuffered":5805,"Ġ1980":5806,"Ġdiscrim":5807,"IM":5808,"word":5809,"ilit":5810,"ĠToday":5811,"imal":5812,"Ġdiss":5813,"ributed":5814,"ffee":5815,"Ġtechnical":5816,"Ġpassing":5817,"usiness":5818,"Ġentertain":5819,"Ġdatab":5820,"pass":5821,"Ġproud":5822,"writ":5823,"ĠGrand":5824,"free":5825,"Ġtradition":5826,"ounded":5827,"Ġcraft":5828,"Ġtransition":5829,"uous":5830,"ĠPhot":5831,"Ġconnected":5832,"Ġseriously":5833,"ĠIreland":5834,"Ġongoing":5835,"nergy":5836,"ket":5837,"Ġexperiences":5838,"inals":5839,"TH":5840,"ishes":5841,"De":5842,"Ġcalcul":5843,"Ġsets":5844,"Ġgather":5845,"Ġsuit":5846,"isters":5847,"Ġphilosoph":5848,"ampion":5849,"Another":5850,"Ġgra":5851,"ĠiPh":5852,"Ġcrimes":5853,"05":5854,"ilty":5855,"illance":5856,"ĠHuman":5857,"Ġdeclared":5858,"Ġdelay":5859,"ĠDirector":5860,"His":5861,"eration":5862,"Ġarray":5863,"Ġguns":5864,"Ġatmosp":5865,"uthors":5866,"ĠChristmas":5867,"Ġapps":5868,"Ġeditor":5869,"Ġvan":5870,"ĠRon":5871,"Ġcentre":5872,"ĠCru":5873,"ogue":5874,"Sp":5875,"ĠMedia":5876,"aped":5877,"Ġstatements":5878,"can":5879,"Ġinstitutions":5880,"Ġexplains":5881,"Ġloved":5882,"Ġreaction":5883,"Ġpicked":5884,"abilities":5885,"dule":5886,"ĠPhoto":5887,"Ġcrack":5888,"Ġconfidence":5889,"unte":5890,"ĠBack":5891,"Ġpictures":5892,"Ġexplo":5893,"ĠOlymp":5894,"Ġelement":5895,"Ġtree":5896,"ador":5897,"Ġadvice":5898,"Ġcaption":5899,"Ġcopyright":5900,"eds":5901,"ĠSov":5902,"ao":5903,"Ġperspective":5904,"ĠUkraine":5905,"Ġpractices":5906,"Ġenemy":5907,"illy":5908,"Ġarmed":5909,"resents":5910,"esters":5911,"Ġeffectively":5912,"Ġcoast":5913,"Ġfilled":5914,"Ġsevere":5915,"Ġadmitted":5916,"uations":5917,"orse":5918,"Ġfaces":5919,"Ġwithd":5920,"Ġshouldn":5921,"Ġ\\":5922,"ĠSqu":5923,"ĠMem":5924,"Ġpublicly":5925,"Ġconfirm":5926,"Ġsecretary":5927,"ellow":5928,"kay":5929,"astern":5930,"Ġcontains":5931,"Ġartist":5932,"aints":5933,"ĠRel":5934,"Ġweather":5935,"Ġabandon":5936,"Ġagents":5937,"xual":5938,"ĠWood":5939,"ĠCharl":5940,"fire":5941,"employ":5942,"Ġsubstant":5943,"Ġemails":5944,"Ġwalking":5945,"Ġstands":5946,"ĠSystem":5947,"Ġmessages":5948,"41":5949,"Ġpatient":5950,"Ġpitch":5951,"ĠColumb":5952,"Ġmarried":5953,"ĠPower":5954,"Ġflat":5955,"Ġfraud":5956,"ĠAndrew":5957,"name":5958,"Ġnewspaper":5959,"ĠPac":5960,"Ġgovernor":5961,"ĠWilliam":5962,"ĠMichigan":5963,"Rep":5964,"Ġviolent":5965,"Ġcooper":5966,"Can":5967,"edd":5968,"Ġlawyer":5969,"ĠTal":5970,"ĠLake":5971,"elly":5972,"Ġsam":5973,"ooth":5974,"called":5975,"ĠFollow":5976,"Ġcloud":5977,"Oh":5978,"Ġmand":5979,"law":5980,"orry":5981,"Ġtun":5982,"abin":5983,"Ġemphas":5984,"ĠWal":5985,"Ġleaves":5986,"Ġneither":5987,"ucks":5988,"rid":5989,"enture":5990,"ĠAfghanistan":5991,"Ġdelivered":5992,"avor":5993,"Ġreportedly":5994,"Ġexamples":5995,"enger":5996,"Ġpool":5997,"ĠSpace":5998,"Ġtemperature":5999,"Ġfly":6000,"Ġexcell":6001,"ena":6002,"Ġdesire":6003,"Ġmagazine":6004,"Ġsession":6005,"Ġlegit":6006,"Ġgiant":6007,"essor":6008,"Am":6009,"Ġdebut":6010,"Ġappropriate":6011,"Ġdoctor":6012,"ĠScot":6013,"Ġcauses":6014,"Ġhttps":6015,"Many":6016,"long":6017,"ionally":6018,"ĠProject":6019,"arters":6020,"Ġradical":6021,"Although":6022,"ĠPakistan":6023,"TA":6024,"LS":6025,"ĠMount":6026,"Ġperman":6027,"Ġsubsequ":6028,"Ġincor":6029,"ĠWars":6030,"Ġshop":6031,"Ġrealize":6032,"During":6033,"Ġroute":6034,"04":6035,"Ġclient":6036,"adow":6037,"Other":6038,"Ġdeclined":6039,"TER":6040,"date":6041,"ĠJackson":6042,"Ġargue":6043,"formation":6044,"Ġprin":6045,"ĠSwed":6046,"plom":6047,"Äĥ":6048,"ideo":6049,"Ġrot":6050,"rich":6051,"Ġphen":6052,"Ġoutput":6053,"Ġnearby":6054,"Ġactivists":6055,"abled":6056,"Ġsad":6057,"Ġresident":6058,"Ġapplied":6059,"ĠBrazil":6060,"ĠColor":6061,"Ġindustrial":6062,"Ġlie":6063,"ĠRead":6064,"acter":6065,"ĠNov":6066,"Ġlinked":6067,"=\"":6068,"ala":6069,"Ġreaders":6070,"evin":6071,"Ġconsumer":6072,"Ġobjects":6073,"ĠTurkey":6074,"enda":6075,"Ġscheduled":6076,"ĠDan":6077,"Ġtotally":6078,"uls":6079,"ĠGames":6080,"Ġske":6081,"Ġthinks":6082,"Ġresolution":6083,"ĠGen":6084,"itors":6085,"Ġsurprised":6086,"ĠFer":6087,"Ġmissed":6088,"ĠSky":6089,"Ġinitially":6090,"Ġquarterback":6091,"American":6092,"Ġfacts":6093,"Ġincreases":6094,"II":6095,"Ġdynam":6096,"Ġfaced":6097,"Ġinput":6098,"Ġadvert":6099,"edy":6100,"Ġlawsuit":6101,"Ġedge":6102,"Ġpra":6103,"Ġwarned":6104,"Ġessentially":6105,"Ġsuc":6106,"Ġsongs":6107,"OD":6108,"Ġsought":6109,"ĠOhio":6110,"Ġfranch":6111,"Ġexistence":6112,"icing":6113,"whel":6114,"Ġisland":6115,"Ġplane":6116,"Ġperformed":6117,"Ġfort":6118,"Ġwear":6119,"ĠLin":6120,"hips":6121,"rum":6122,"ĠBarack":6123,"asure":6124,"Ġterrorist":6125,"Ġscored":6126,"Ġpure":6127,"Ġhell":6128,"angers":6129,"ĠSee":6130,"arn":6131,"ĠWork":6132,"Ġeval":6133,"Yes":6134,"ĠKim":6135,"Ġfindings":6136,"Follow":6137,"ĠHen":6138,"orders":6139,"Ġsquare":6140,"68":6141,"Ġtow":6142,"active":6143,"Ġguilty":6144,"Ġexplan":6145,"ĠKorean":6146,"ĠTra":6147,"Ġdeaths":6148,"otic":6149,"Ġtalent":6150,"Ġmyster":6151,"etroit":6152,"Ġstring":6153,"Ġbull":6154,"dis":6155,"Ġdecre":6156,"agers":6157,"Ġflag":6158,"Ġannouncement":6159,"estival":6160,"ĠVict":6161,"Ġadds":6162,"Ġyesterday":6163,"ĠRev":6164,"Ġexercise":6165,"Ġaccepted":6166,"ĠDou":6167,"Ġlisted":6168,"Ġrepresents":6169,"Ġaf":6170,"ittle":6171,"stood":6172,"ĠOnly":6173,"ÑĤ":6174,"Ġbond":6175,"iest":6176,"acle":6177,"Ġdiscussed":6178,"Ġyounger":6179,"Ġsuffering":6180,"Res":6181,"Ġing":6182,"usal":6183,"born":6184,"ĠHy":6185,"Then":6186,"Ġtech":6187,"Ġwarm":6188,"Ġfairly":6189,"mates":6190,"ĠWalk":6191,"Ġfollows":6192,"Qu":6193,"Ġexpression":6194,"ĠAff":6195,"ĠCard":6196,"Ġstood":6197,"Ġjoint":6198,"Ġdemocracy":6199,"Ġdrivers":6200,"Ġmir":6201,"ĠStr":6202,"Ġrail":6203,"bur":6204,"Ġarticles":6205,"Ġchart":6206,"ourney":6207,"Ġconsequences":6208,"ĠCNN":6209,"Ġprohib":6210,"Ġcreative":6211,"ĠJul":6212,"west":6213,"rip":6214,"Ġalt":6215,"ĠIll":6216,"Ġeverybody":6217,"Ġinjuries":6218,"Tube":6219,"Ġstorm":6220,"Ġcann":6221,"Ġlabel":6222,"Ġfill":6223,"ĠMuslims":6224,"Ġrein":6225,"Ġnations":6226,"ĠSign":6227,"atell":6228,"oked":6229,"issions":6230,"athan":6231,"Ġboss":6232,"ician":6233,"Ġshots":6234,"Ġplot":6235,"ua":6236,"Ġbare":6237,"ĠAv":6238,"Ġinvestors":6239,"ican":6240,"umber":6241,"ĠIts":6242,"Ob":6243,"ĠHol":6244,"ĠDevelop":6245,"def":6246,"Ġresc":6247,"gia":6248,"ĠClub":6249,"Ġsav":6250,"ĠTechn":6251,"Ġkit":6252,"Ġremark":6253,"Ġanywhere":6254,"Ġwarning":6255,"Ġcombination":6256,"Ġroughly":6257,"ĠPrem":6258,"Ġnetworks":6259,"Com":6260,"Ġmaterials":6261,"Ġrestaurant":6262,"Ġempt":6263,"Ġentered":6264,"Ġfunctions":6265,"Ġdivision":6266,"Ġbegins":6267,"Ġbot":6268,"ocket":6269,"Ġrain":6270,"Ġmoves":6271,"Man":6272,"Ġlibrary":6273,"ĠRights":6274,"IF":6275,"ĠHel":6276,"Ġintention":6277,"ĠDiv":6278,"Ġmoral":6279,"Ġallegations":6280,"Spe":6281,"icious":6282,"Ġliqu":6283,"ĠiPhone":6284,"Ġsucceed":6285,"pret":6286,"obb":6287,"Ġessential":6288,"ĠRE":6289,"Ġcorrespond":6290,"ĠEr":6291,"Ġclasses":6292,"Ġcolleagues":6293,"Most":6294,"Ġstores":6295,"Ġcommunication":6296,"gent":6297,"iat":6298,"hetic":6299,"Ġuniverse":6300,"Ġcurrency":6301,"adel":6302,"Ġ33":6303,"ĠDev":6304,"Ġlaugh":6305,"Ġadvanced":6306,"ĠWhe":6307,"Ġevolution":6308,"Ġ//":6309,"Ġrising":6310,"Ġcheap":6311,"Ġheads":6312,"ĠLife":6313,"Ġmanufacture":6314,"IR":6315,"Ġreturns":6316,"Ġnecessarily":6317,"Ġbrings":6318,"Ġhoping":6319,"Ġbuying":6320,"Ġdistribution":6321,"Ġcycle":6322,"Ġmine":6323,"erences":6324,"Ġspons":6325,"erate":6326,"Ġthreats":6327,"Ġtiny":6328,"esome":6329,"irty":6330,"ĠAnother":6331,"Ġhardware":6332,"ĠMaybe":6333,"Ġcampus":6334,"ĠSoviet":6335,"Ġalcohol":6336,"Ġsees":6337,"Ġrelevant":6338,"Ġimproved":6339,"Ġadm":6340,"Ġentry":6341,"Ġride":6342,"Ġreplaced":6343,"ĠWatch":6344,"ĠSeattle":6345,"Ġenh":6346,"Ġ300":6347,"Ġmetal":6348,"Ġ</":6349,"Ġtom":6350,"Ġegg":6351,"Ġgrown":6352,"Ġsick":6353,"ocratic":6354,"Ġbehavi":6355,"88":6356,"ĠGM":6357,"Ġsym":6358,"Ġheavily":6359,"water":6360,"Ñģ":6361,"Ġallegedly":6362,"Ġpushed":6363,"greg":6364,"Ġstorage":6365,"ĠBlue":6366,"sembly":6367,"emen":6368,"Ġbon":6369,"Ġbright":6370,"Ġimmediate":6371,"Ã³":6372,"style":6373,"ĠDC":6374,"Ġ37":6375,"TS":6376,"Ġdoctors":6377,"Ġboys":6378,"Ġfeatured":6379,"Ġshif":6380,"Ġ36":6381,"Ġtournament":6382,"ĠRod":6383,"Ġunlikely":6384,"Ġsomewhat":6385,"Ġsurveillance":6386,"Ġnav":6387,"fortunately":6388,"ĠBoy":6389,"\":":6390,"Ġcausing":6391,"ockey":6392,"Pol":6393,"ĠSaudi":6394,"Ġsharing":6395,"Ġplayoff":6396,"En":6397,"Ġ=>":6398,"Ġmarketing":6399,"ĠBoard":6400,"Ġtargets":6401,"Ġrow":6402,"ĠSociety":6403,"ĠCIA":6404,"ĠWeek":6405,"</":6406,"Ġextent":6407,"ĠWik":6408,"luding":6409,"igure":6410,"arden":6411,"Ġholds":6412,"zona":6413,"ĠLong":6414,"Ġflo":6415,"ometimes":6416,"lv":6417,"See":6418,"Ġbike":6419,"ĠYear":6420,"Ġoffense":6421,"ugh":6422,"Ġnative":6423,"Ġcircumstances":6424,"Ġfewer":6425,"Ġhat":6426,"Ġbutton":6427,"duc":6428,"Ġauthors":6429,"cho":6430,"Ġmeat":6431,"Ġblow":6432,"Ġpromise":6433,"ĠSupp":6434,"ĠEnter":6435,"Ġconsistent":6436,"po":6437,"Ġ2002":6438,"xy":6439,"ĠBob":6440,"Ġtrick":6441,"Ġmotor":6442,"Ġdetailed":6443,"Ġisol":6444,"efully":6445,"Ġimportance":6446,"Donald":6447,"Ġbird":6448,"Ġobserv":6449,"Ġdiplom":6450,"olve":6451,"ĠHist":6452,"Ġserving":6453,"Ġregulations":6454,"mond":6455,"Ġlinks":6456,"ether":6457,"Ġskill":6458,"Ġanalyst":6459,"game":6460,"ĠWild":6461,"Ġurban":6462,"Ġrum":6463,"Ġbug":6464,"ayers":6465,"Ġstrange":6466,"Ġpled":6467,"Ġopposite":6468,"Ġparliament":6469,"Ġwalked":6470,"Ġgrab":6471,"Ġfavour":6472,"nam":6473,"Ġcontest":6474,"anges":6475,"bel":6476,"certain":6477,"Ġmanage":6478,"ĠID":6479,"Ġsyn":6480,"print":6481,"Ġvice":6482,"Ġrape":6483,"ĠISIS":6484,"Ġintent":6485,"',":6486,"Ġcommitment":6487,"power":6488,"Ġdefined":6489,"Like":6490,"ĠEach":6491,"Ġwaste":6492,"Ġchain":6493,"alty":6494,"Ġclassic":6495,"Ġcustomer":6496,"Per":6497,"Ġassets":6498,"Add":6499,"Ġteachers":6500,"icer":6501,"Ġattempted":6502,"ĠCatholic":6503,"ĠEnergy":6504,"Two":6505,"Ġmoments":6506,"Ġvolunte":6507,"chen":6508,"uy":6509,"Ġhall":6510,"ĠFar":6511,"Ġfacility":6512,"alian":6513,"Ġrally":6514,"Ġmanner":6515,"ĠAsia":6516,"boy":6517,"ette":6518,"ĠDi":6519,"ĠSecond":6520,"ez":6521,"iques":6522,"pan":6523,"Ġfundamental":6524,"Ġcrazy":6525,"Ġbatt":6526,"ĠAut":6527,"Ġsquad":6528,"opy":6529,"85":6530,"Ġsample":6531,"Ġdownt":6532,"Ġusual":6533,"ologist":6534,"Ġrepeatedly":6535,"Ġsymbol":6536,"ĠLib":6537,"friend":6538,"Ġmechanism":6539,"Ġwinter":6540,"ml":6541,"stone":6542,"ĠAnn":6543,"ĠRomney":6544,"ollywood":6545,"ĠDie":6546,"Ġembr":6547,"Ġhousehold":6548,"kel":6549,"Ġefficient":6550,"Ġbreaking":6551,"Ġcere":6552,"Ġflu":6553,"Ġpushing":6554,"press":6555,"ouston":6556,"Ġversions":6557,"erves":6558,"apse":6559,"Ġdedicated":6560,"Or":6561,"alle":6562,"ÃŃ":6563,"Ġadapt":6564,"Ġprotests":6565,"Ġwake":6566,"sters":6567,"Ġterrorism":6568,"Ġsand":6569,"Ġslowly":6570,"Ġnarr":6571,"Ġcarrying":6572,"Ġreferred":6573,"Ġschedule":6574,"Ġcert":6575,"ixt":6576,"ulous":6577,"Ġacts":6578,"ĠEconom":6579,"ĠLord":6580,"Ġhistorical":6581,"ĠDetroit":6582,"Ġsustain":6583,"Ġdesk":6584,"Ġclosely":6585,"Ġselection":6586,"ĠImage":6587,"hus":6588,"Ġdiet":6589,"Ġgang":6590,"iger":6591,"ĠDavis":6592,"utch":6593,"Ġorders":6594,"ĠElect":6595,"Ġsurrounding":6596,"ati":6597,"Ġancient":6598,"omin":6599,"07":6600,"tering":6601,"ĠDNA":6602,"Ġshel":6603,"Ġacknowled":6604,"ĠWilson":6605,"ĠEll":6606,"andal":6607,"Ġzero":6608,"uated":6609,"Ġfrequently":6610,"Ġhur":6611,"Ġreceiving":6612,"chers":6613,"Despite":6614,"Ġexcellent":6615,"mes":6616,"Ġdomin":6617,"Ġowned":6618,"Ġalongside":6619,"Ġadults":6620,"Ġcontroversial":6621,"otal":6622,"amin":6623,"Ġunus":6624,"Ġoverwhel":6625,"Ġguide":6626,"Ġartists":6627,"Ġformed":6628,"Ġacting":6629,"Ġfashion":6630,"ĠNBA":6631,"allas":6632,"Ġbag":6633,"Ġtermin":6634,"Ġmouth":6635,"awa":6636,"ĠConstitution":6637,"Ġanx":6638,"Ġsentence":6639,"Ã¶":6640,"Ġsister":6641,"Ġmotion":6642,"iciency":6643,"Ġblame":6644,"Ġhotel":6645,"Ġphenomen":6646,"ĠJr":6647,"ĠWay":6648,"Ġharder":6649,"----------------":6650,"Ġcongress":6651,"ĠAgain":6652,"ORE":6653,"uable":6654,"Ð½":6655,"ora":6656,"Ġkinds":6657,"ĠTit":6658,"oration":6659,"Ġupcoming":6660,"Ġstruck":6661,"Ġwatched":6662,"burg":6663,"Ġring":6664,"Ġlock":6665,"ĠMot":6666,"Int":6667,"nic":6668,"ĠHome":6669,"azi":6670,"iami":6671,"Ġsnow":6672,"ulture":6673,"ĠYouTube":6674,"Ġproperly":6675,"Ġtargeted":6676,"amily":6677,"Ġdealing":6678,"Ġemotional":6679,"People":6680,"iveness":6681,"agan":6682,"Ġearned":6683,"ĠTop":6684,"ĠBrook":6685,"ĠGar":6686,"ĠPalestinian":6687,"77":6688,"Ġthread":6689,"ĠFil":6690,"ĠStephen":6691,"Ġproperties":6692,"Ġathlet":6693,"Ġwins":6694,"Ġwave":6695,"Ġeating":6696,"ceived":6697,"ĠFord":6698,"Ġinspired":6699,"ĠCy":6700,"Ġrealized":6701,"Ġdescribe":6702,"Ġpassion":6703,"iro":6704,"ĠMen":6705,"ĠFour":6706,"iscons":6707,"Ġreward":6708,"Ġhits":6709,"Ġparticipants":6710,"foot":6711,"Ġcolumn":6712,"aze":6713,"Ġchairman":6714,"86":6715,"Ġdu":6716,"isconsin":6717,"ĠWin":6718,"Ġinstru":6719,"54":6720,"Ġfuck":6721,"ĠMs":6722,"ensus":6723,"Ġlies":6724,"anes":6725,"Ġgod":6726,"Ġprotected":6727,"OC":6728,"Ġ1970":6729,"ĠBell":6730,"Ġpregn":6731,"Ġreput":6732,"ĠJews":6733,"Ġliterally":6734,"ĠCharles":6735,"Ġopponents":6736,"Ġregional":6737,"Ġstream":6738,"Ġaside":6739,"Ġknowing":6740,"ko":6741,"rison":6742,"ĠCle":6743,"ĠSpanish":6744,"Ġapproximately":6745,"rome":6746,"Ġsho":6747,"Ġterritory":6748,"Ġprecise":6749,"Ġsuddenly":6750,"Ġstudio":6751,"Ġdiscover":6752,"twitter":6753,"vin":6754,"you":6755,"Ġneut":6756,"Ġpromised":6757,"Ġresistance":6758,"Ġsimpl":6759,"Ġrequirements":6760,"Ġconver":6761,"Ġagenda":6762,"Ġrequests":6763,"Ġdatabase":6764,"ĠGra":6765,"ĠCub":6766,"ĠItaly":6767,"Ġcrash":6768,"Ġlocations":6769,"chain":6770,"Ġcoffee":6771,"rence":6772,"ĠJesus":6773,"Ġsubsid":6774,"wan":6775,"ĠRight":6776,"Ġforth":6777,"Ġpip":6778,"aug":6779,"ĠLand":6780,"ordan":6781,"Ġnewslet":6782,"AA":6783,".\"[":6784,"Ġcomfortable":6785,"ĠYoung":6786,"Ġexplore":6787,"Ġcategory":6788,"ellect":6789,"ĠSports":6790,"ĠEric":6791,"ĠRam":6792,"Ġabortion":6793,"Ġcolon":6794,"ĠPutin":6795,"Ġsoul":6796,"sole":6797,"Ġsigning":6798,"Ġwire":6799,"ĠDam":6800,"Ġgap":6801,"Ġ38":6802,"Ġremote":6803,"59":6804,"ĠArizona":6805,"Ġdecline":6806,"FP":6807,"Ġnoticed":6808,"post":6809,"asks":6810,"Ġnorthern":6811,"ĠRog":6812,"Ġworried":6813,"ĠPolit":6814,"bar":6815,"Ġschol":6816,"ĠMa":6817,"mun":6818,"Ġposts":6819,"ĠDefense":6820,"aylor":6821,"Ġcompetitive":6822,"Ġlatter":6823,"Ġconscious":6824,"ĠMiller":6825,"Ġapproval":6826,"Ġrisks":6827,"Ġnomine":6828,"Ġwelcome":6829,"lies":6830,"Ġwage":6831,"Ġprote":6832,"Ġanyway":6833,"type":6834,"Ġmaximum":6835,"Ġunemploy":6836,"Ġfemin":6837,"Ġcomparison":6838,"ĠJava":6839,"Ġdeeply":6840,"Ġupdated":6841,"Ġdrag":6842,"ographic":6843,"ĠAgency":6844,"Ġuncle":6845,"Ġsending":6846,"Ġexhib":6847,"Ġlikes":6848,"ĠCast":6849,"Ġattacked":6850,"Ġfasc":6851,"ĠValley":6852,"Ġmainstream":6853,"Ġinvolving":6854,"Ġmerely":6855,"iform":6856,"ĠEp":6857,"Ġimmigrants":6858,"Ġteacher":6859,"onymous":6860,"Ġì":6861,"Ġsuicide":6862,"ĠVan":6863,"kl":6864,"Ġtopic":6865,"57":6866,"han":6867,"lder":6868,"Ġtheme":6869,"anchester":6870,"Ġtypical":6871,"Ġ49":6872,"Ġimpressive":6873,"unning":6874,"adelph":6875,"ums":6876,"Ġking":6877,"Ġunknown":6878,"Ġdestroyed":6879,"Ġsouthern":6880,"ĠAdam":6881,"Ġexciting":6882,"Ġfighters":6883,"weight":6884,"Ġconstant":6885,"Ġfixed":6886,"Ġjourney":6887,"Ġmatches":6888,"Ġselected":6889,"Ġalive":6890,"cers":6891,"Ġcourts":6892,"Ġwid":6893,"ĠDar":6894,"Ġobserved":6895,"ÑĢ":6896,"Ġbattery":6897,"Ġrecognize":6898,"ingu":6899,"Ġdress":6900,"otten":6901,"ĠTO":6902,"Ġbunch":6903,"Ġeast":6904,"Ġphase":6905,"Ġrub":6906,"Ġdogs":6907,"ĠJersey":6908,"rive":6909,"Ġobtained":6910,"Ġextended":6911,"Ġtested":6912,"aser":6913,"Ġchannel":6914,"Ġped":6915,"izz":6916,"ĠNations":6917,"Ġlicense":6918,"Ġpal":6919,"Ġassume":6920,"rors":6921,"Ġunderstood":6922,"Ġarguments":6923,"Ġ34":6924,"woman":6925,"Ġdisag":6926,"asts":6927,"Ġ48":6928,"Ġtort":6929,"Ġatmosphere":6930,"ĠKevin":6931,"Ġruled":6932,"Ġfranchise":6933,"56":6934,"06":6935,"pool":6936,"Ġconfront":6937,"Ġsky":6938,"Ġstrongly":6939,"Ġrelationships":6940,"08":6941,"orted":6942,"Ġretire":6943,"Ġextract":6944,"lock":6945,"ĠPR":6946,"ĠBrad":6947,"Ġbasket":6948,"Ġamounts":6949,"ĠNetwork":6950,"ĠLu":6951,"Ġtrees":6952,"Ġillustr":6953,"Ġpover":6954,"Ġcontrolled":6955,"Ġdry":6956,"iments":6957,"celer":6958,"Ġmistake":6959,"Ġfolks":6960,"Ġmurd":6961,"ĠDown":6962,"ĠDaniel":6963,"Ġstretch":6964,"Ġnarrow":6965,"NC":6966,"Ġvolume":6967,"Ġregions":6968,"Ġconstit":6969,"Ġsomehow":6970,"ensity":6971,"Ġopponent":6972,"Ġaspects":6973,"adelphia":6974,"Ġdiagn":6975,"Ġoblig":6976,"Fr":6977,"acc":6978,"Ġchose":6979,"Ġbrew":6980,"uilding":6981,"Ġheight":6982,"redit":6983,"Ġemissions":6984,"Ġjournalists":6985,"Ġdefeat":6986,"Ġpoverty":6987,"Ġallies":6988,"Ġsole":6989,"Ġcommunications":6990,"ĠSar":6991,"igation":6992,"ĠHouston":6993,"ĠAdministr":6994,"ĠMax":6995,"ĠPy":6996,"Ġplug":6997,"regon":6998,"May":6999,"ship":7000,"ĠWisconsin":7001,"inations":7002,"Ġempty":7003,"Ġescape":7004,"list":7005,"Ġgotten":7006,"mod":7007,"Ġmedic":7008,"Ġcritics":7009,"Ġemployee":7010,"gor":7011,"va":7012,"dro":7013,"Ġpaint":7014,"Ġenemies":7015,"oric":7016,"Ġfinds":7017,"ĠPan":7018,"ems":7019,"Ġwest":7020,"ĠSP":7021,"%)":7022,"Ġstronger":7023,"Ġvillage":7024,"acking":7025,"Ġhonor":7026,"ĠIrish":7027,"ĠWat":7028,"ĠLove":7029,"Ġflex":7030,"owered":7031,"Ġlimits":7032,"Ġdefinition":7033,"ĠCat":7034,"Ġpromote":7035,"GBT":7036,"DS":7037,"ĠIP":7038,"Ġputs":7039,"gender":7040,"Ġretain":7041,"Ġscheme":7042,"Ġpunish":7043,"VER":7044,"Ġ75":7045,"axy":7046,"ĠBest":7047,"Ġformat":7048,"02":7049,"ĠColorado":7050,"ipl":7051,"Ġrejected":7052,"Ġsignal":7053,"sm":7054,"Ġsatell":7055,"ĠGi":7056,"Ġgoods":7057,"Ġchoices":7058,"ĠStand":7059,"Ġfalling":7060,"ĠSteven":7061,"Ġanswers":7062,"Ġcaptured":7063,"Ġending":7064,"Ġprotesters":7065,"isan":7066,"Ġexposed":7067,"Ġicon":7068,"ĠSea":7069,"Ġdrawn":7070,"Ġtransp":7071,"Ġequival":7072,"Ġrefugees":7073,"Ġpurposes":7074,"Ġfacilities":7075,"aire":7076,"obile":7077,"Ġdeals":7078,"Ġoutcome":7079,"MS":7080,"Ġfees":7081,"phy":7082,"ĠReal":7083,"Ã¼":7084,"ĠNY":7085,"Ġencoun":7086,"gery":7087,"rary":7088,"Ġinqu":7089,"ĠCivil":7090,"Ġclaiming":7091,"Ġcutting":7092,"Ġemployment":7093,"Ġsupports":7094,"Ġreasonable":7095,"Ġflying":7096,"ĠMiami":7097,"raid":7098,"Ġwinner":7099,"Ġtruck":7100,"Ġchampion":7101,"anny":7102,"Ġdollar":7103,"Ġletters":7104,"Ġimper":7105,"Rel":7106,"Ġprofit":7107,"ĠNASA":7108,"ĠOld":7109,"Any":7110,"Ġsomewhere":7111,"ĠBru":7112,"Ġprimarily":7113,"Ġdeveloper":7114,"Ġbench":7115,"Ġbid":7116,"otes":7117,"ĠFort":7118,"itarian":7119,"Ġanymore":7120,"Police":7121,"icken":7122,"ĠCD":7123,"Ġconfig":7124,"Te":7125,"rehens":7126,"Ġsweet":7127,"Ġties":7128,"ĠScotland":7129,"bal":7130,"Ġdesper":7131,"Ġcontributed":7132,"ĠAttorney":7133,"ĠMic":7134,"owed":7135,"dr":7136,"Ġbear":7137,"igg":7138,"Ġrival":7139,"Ġdeck":7140,"ĠHollywood":7141,"Ġdirected":7142,"98":7143,"arity":7144,"ĠLew":7145,"pected":7146,"Ġpersonally":7147,"Ġdriven":7148,"Ġconstantly":7149,"Ġbitcoin":7150,"ĠCamer":7151,"Ġwal":7152,"Ġble":7153,"Ġpic":7154,"Ġcontem":7155,"inson":7156,"Ġdemands":7157,"ĠWater":7158,"ĠDark":7159,"ĠNight":7160,"Ġshit":7161,"Ġengage":7162,"aun":7163,"Ġhouses":7164,"Ġstim":7165,"Ġthreatened":7166,">>":7167,"Ġdistinct":7168,"Ġplastic":7169,"Ġtherap":7170,"Ġdeleg":7171,"Ġideal":7172,"Ġsituations":7173,"Ġdegrees":7174,"Ġru":7175,"Ġproof":7176,"azz":7177,"Ġdrinking":7178,"oster":7179,"Ġgear":7180,"Ġadmit":7181,"LA":7182,"ciples":7183,"Ġangry":7184,"Ġticket":7185,"Ġregistered":7186,"era":7187,"âĢĻ.":7188,"Ġupper":7189,"ĠPS":7190,"rett":7191,"ĠBowl":7192,"Ġkil":7193,"Ġnewly":7194,"ĠCarl":7195,"Ġconven":7196,"Ġofficially":7197,"Ġgenerate":7198,"zens":7199,"Ġboot":7200,"Ġnobody":7201,"Ġhabit":7202,"Ġtall":7203,"ĠDallas":7204,"arry":7205,"Ġpin":7206,"Ġmyth":7207,"Ġloan":7208,"Ġfifth":7209,"++":7210,"ĠThank":7211,"Ġcomic":7212,"Ġapartment":7213,"Ġfeedback":7214,"ima":7215,"ĠVol":7216,"Ġestimates":7217,"oming":7218,"owa":7219,"Ġenthus":7220,"Ġencourage":7221,"97":7222,"itar":7223,"Ġexists":7224,"ĠArch":7225,"Ġmixed":7226,"Ġreturning":7227,"Ġcup":7228,"ĠViet":7229,"ĠKn":7230,"ocation":7231,"Ġextensive":7232,"ĠGeorgia":7233,"vy":7234,"Ġphr":7235,"Ġcondem":7236,"Ġincredibly":7237,"Today":7238,"Ġagric":7239,"CS":7240,"inem":7241,"Ġregularly":7242,"asters":7243,"Once":7244,"Ġpolls":7245,"ĠBalt":7246,"apes":7247,"ĠSpecial":7248,"ni":7249,"ĠBrian":7250,"osis":7251,"iscal":7252,"FF":7253,"Ġweird":7254,"Ġfields":7255,"========":7256,"ĠCruz":7257,"Ġprofile":7258,"ĠWomen":7259,"Ġcomprom":7260,"Ġracial":7261,"enders":7262,"ogan":7263,"Ġtrading":7264,"mont":7265,"ĠConf":7266,"ilarly":7267,"Ġrig":7268,"aa":7269,"ĠEnd":7270,"Ġkeeps":7271,"300":7272,"Ġmeetings":7273,"keep":7274,"Ġparking":7275,"Ġconsumption":7276,"Ġfold":7277,"ĠAR":7278,"ĠAuthor":7279,"ĠAcadem":7280,"Ġconcluded":7281,"Ġterrible":7282,"Ġtitles":7283,"fast":7284,"Ġsympt":7285,"Ġevil":7286,"Ġsomebody":7287,"Ġengaged":7288,"ĠDespite":7289,"Ġvacc":7290,"Ġtaught":7291,"alo":7292,"Ġparam":7293,"Ġrecon":7294,"ĠBudd":7295,"ĠHot":7296,"Ġreporter":7297,"Ġelectricity":7298,"Ġtrib":7299,"Ġrecovery":7300,"ifications":7301,"ĠOrgan":7302,"Ġvirtual":7303,"ĠSk":7304,"ĠDun":7305,"ĠPhiladelphia":7306,"Ġinstitution":7307,"ĠBusiness":7308,"rete":7309,"ura":7310,"CE":7311,"Ġsight":7312,"ĠWhere":7313,"Ġchat":7314,"Ġresulting":7315,"uts":7316,"Ġdecent":7317,"Ġsolutions":7318,"Ġcrucial":7319,"iner":7320,"ĠJosh":7321,"Ġcontinuing":7322,"Ġcontrols":7323,"Ġperfectly":7324,"Ġinformed":7325,"Ġmanip":7326,"ĠCam":7327,"oil":7328,"uine":7329,"ĠLabor":7330,"Ġcapture":7331,"Ġnarrative":7332,"ĠId":7333,"Ġcomponents":7334,"Ġmayor":7335,"Ġcomplaint":7336,"ĠMcCain":7337,"Ġprovince":7338,"lls":7339,"Ġstead":7340,"Ġmonit":7341,"Ġtur":7342,"idelines":7343,"ĠBas":7344,"Ġblocks":7345,"Ġaccurate":7346,"Ġchosen":7347,"cow":7348,"sea":7349,"Ġintellect":7350,"gets":7351,"ĠTurk":7352,"Because":7353,"ĠIT":7354,"ĠAh":7355,"Ġunp":7356,"ĠChampionship":7357,"Ġincredible":7358,"ĠOregon":7359,"Ġinstalled":7360,"Ġnegotiations":7361,"Ġtaste":7362,"ads":7363,"Ġdozen":7364,"Ġelsewhere":7365,"Ġsanctions":7366,"Ġfounder":7367,"Ġwestern":7368,"inder":7369,"Ġincl":7370,"Ġwriters":7371,"ules":7372,"ĠZeal":7373,"Ġwithdraw":7374,"Ġtechnologies":7375,"Ġcollected":7376,"Ġautomatically":7377,"Ġteaching":7378,"96":7379,"Ġgranted":7380,"Ġinfect":7381,"ĠVictor":7382,"ĠManchester":7383,"ĠThough":7384,"ĠItalian":7385,"Ġinterpret":7386,"ĠSouthern":7387,"ĠNic":7388,"Ġ42":7389,"ker":7390,"ĠInf":7391,"Ġlawyers":7392,"Also":7393,"Ġiron":7394,"Ġchances":7395,"she":7396,"Ġtied":7397,"ĠChild":7398,"Ġraising":7399,"Ġconclusion":7400,"ĠNBC":7401,"Ġworldwide":7402,"Ġroutine":7403,"Ġfake":7404,"Ġestate":7405,"eda":7406,"Ġsuccessfully":7407,"ĠGreek":7408,"Ġaggressive":7409,"nesota":7410,"there":7411,"essed":7412,"Ġroot":7413,"Ġorganized":7414,"Ġtaxp":7415,"Ġrepresented":7416,"58":7417,"Ġstuck":7418,"Ġgrant":7419,"ĠJoseph":7420,"pes":7421,"Ġharass":7422,"sex":7423,"Ġshares":7424,"Ġbills":7425,"ĠJordan":7426,"________________":7427,"ĠNHL":7428,"Ġpossession":7429,"ĠAsian":7430,"Ġcounty":7431,"Ġcorruption":7432,"Ġpayment":7433,"intend":7434,"enth":7435,"ĠProgram":7436,"Ġregardless":7437,"star":7438,"Ġexcess":7439,"03":7440,"lers":7441,"ĠHun":7442,"ls":7443,"esy":7444,"Ġcompens":7445,"etary":7446,"Ġcomplicated":7447,"Ġhel":7448,"Ġinev":7449,"Ġproved":7450,"acked":7451,"ĠInvest":7452,"Ġattended":7453,"Ġpayments":7454,"ĠÎ":7455,"Ġ($":7456,"Ġhadn":7457,"Ġsolve":7458,"inity":7459,"Ġtank":7460,"Ġbrowser":7461,"Dr":7462,"Ġseats":7463,"Ġpilot":7464,"Ġfir":7465,"Ġmachines":7466,"Ġclubs":7467,"))":7468,"quarters":7469,"Ġsufficient":7470,"Ġcoalition":7471,"%.":7472,"ĠThanks":7473,"Ġextrem":7474,"ĠDisney":7475,"Ġgro":7476,"ĠColl":7477,"ĠHas":7478,"Ġthousand":7479,"ĠâĢĻ":7480,"Ġinspir":7481,"ĠTony":7482,"Ġvisited":7483,"ushed":7484,"Ġexplanation":7485,"cling":7486,"Ġ1999":7487,"cript":7488,"Ġassistant":7489,"67":7490,"rage":7491,"Ø§":7492,"ĠLGBT":7493,"Ġcited":7494,"everal":7495,"State":7496,"Ġinnoc":7497,"abis":7498,"Ġoperate":7499,"Ġmagic":7500,"09":7501,"UR":7502,"Ġgonna":7503,"ĠCare":7504,"Ġtracks":7505,"Ġaimed":7506,"John":7507,"Ġuncertain":7508,"ked":7509,"ta":7510,"ĠSC":7511,"Ġrecording":7512,"Ġaccomp":7513,"orne":7514,"prise":7515,"Ġawesome":7516,"Ġassistance":7517,"ĠKurd":7518,"Ġoverse":7519,"idency":7520,"Ġveget":7521,"Ġunw":7522,"Ġpace":7523,"agram":7524,"ĠRose":7525,"arsh":7526,"Ġvisible":7527,"Ġactor":7528,"Sec":7529,"Ġgaming":7530,"Ġpenalty":7531,"uan":7532,"ĠCross":7533,"Ġimplementation":7534,"bro":7535,"Ġmarked":7536,"ria":7537,"aron":7538,"Ġsup":7539,"Ġmainly":7540,"ĠMoore":7541,"lla":7542,"Inst":7543,"ĠLook":7544,"iana":7545,"Ġgall":7546,"ĠOper":7547,"ĠNation":7548,"Ġprocesses":7549,"Ġdict":7550,"Ġclients":7551,"inding":7552,"Ġportion":7553,"MP":7554,"Ġloud":7555,"Ġborrow":7556,"ĠOS":7557,"ĠView":7558,"Ġlawmakers":7559,"Ġpermanent":7560,"ĠTake":7561,"ĠAvenue":7562,"Ġyield":7563,"ĠEduc":7564,"Ġfunny":7565,"Ġdisaster":7566,"ĠCompany":7567,"Ġads":7568,"Pr":7569,"Ġelite":7570,"Ġprominent":7571,"Ġadopted":7572,"Ġspin":7573,"iel":7574,"Ġscenes":7575,"ĠForeign":7576,"Ed":7577,"Ġtechniques":7578,"ĠParliament":7579,"53":7580,"Ġaudio":7581,"Ġbaseball":7582,"ĠZealand":7583,"rep":7584,"Ġdefence":7585,"Ġthin":7586,"bell":7587,"ĠClass":7588,"ibilities":7589,"52":7590,"tes":7591,"rypt":7592,"ĠSeries":7593,"mal":7594,"Ġindex":7595,"Ġcompete":7596,"Ġenable":7597,"ĠBefore":7598,"ĠSpain":7599,"Ġfought":7600,"text":7601,"Ġemerged":7602,"Ġcrypt":7603,"Ne":7604,"from":7605,"ĠAli":7606,"Ġ44":7607,"ĠDead":7608,"ĠKingdom":7609,"ĠLight":7610,"Ġsaved":7611,"ĠServices":7612,"Ġhidden":7613,"Ġ150":7614,"Ġroster":7615,"ras":7616,"Ġmail":7617,"sylv":7618,"imore":7619,"ĠLive":7620,"viously":7621,"reams":7622,"ali":7623,"Ġacademic":7624,"ĠPacific":7625,"Ġminority":7626,"Ġbehalf":7627,"Mar":7628,"ĠOak":7629,"Ġenjoyed":7630,"Ġafraid":7631,"ĠTurn":7632,"Ġstrict":7633,"pread":7634,"Ġformal":7635,"NE":7636,"Ġvaluable":7637,"Ġreputation":7638,"Ġ400":7639,"Ġdescribes":7640,"upid":7641,"Ġentit":7642,"Ġpatterns":7643,"ĠKent":7644,"ĠMarc":7645,"Ġprinciples":7646,"bn":7647,"itals":7648,"ĠTw":7649,"Ġequivalent":7650,"Ġduty":7651,"Ġju":7652,"idespread":7653,"aturally":7654,"ifies":7655,"Ġcounsel":7656,"raph":7657,"ĠFC":7658,"erm":7659,"ĠTaylor":7660,"Ġstadium":7661,"ĠFund":7662,"Ġcorporations":7663,"Ġdowntown":7664,"Ġlaid":7665,"Ġrelief":7666,"ĠRet":7667,"thew":7668,"Off":7669,"gun":7670,"Ġconspir":7671,"Ġsurvive":7672,"ĠCome":7673,"Ġintense":7674,"Ġgenuine":7675,"gorith":7676,"Ġbes":7677,"oz":7678,"ĠKir":7679,"istent":7680,"Ġtor":7681,"ĠPolicy":7682,"ĠPremier":7683,"ĠFre":7684,"Ġapolog":7685,"Ġmedium":7686,"rently":7687,"Ġanticip":7688,"Ġmel":7689,"ĠOtt":7690,"Ġresulted":7691,"Ġlosses":7692,"Ġcameras":7693,"ĠColumbia":7694,"ĠNorthern":7695,"ĠStill":7696,"ĠCoast":7697,"ilipp":7698,"ĠContin":7699,"orough":7700,"Ġbusy":7701,"Ġrating":7702,"ogen":7703,"ĠBry":7704,"olis":7705,"front":7706,"etts":7707,"inking":7708,"ĠMoh":7709,"ĠEastern":7710,"ĠMinnesota":7711,"Ġunusual":7712,"Ġenorm":7713,"Ġdepending":7714,"Ġshock":7715,"Ġrarely":7716,"Ġrecip":7717,"Ġphilosophy":7718,"Ġelev":7719,"ĠJac":7720,"Ġ39":7721,"Ġpersonnel":7722,"ĠLinux":7723,"ĠSenator":7724,"ĠUt":7725,"Ġpropag":7726,"Ġparticipate":7727,"Ġhistoric":7728,"ĠFair":7729,"Ġexplicit":7730,"Ġarrange":7731,"elect":7732,"Ġbom":7733,"Ġtroub":7734,"Ġcomputers":7735,"Ġexception":7736,"Me":7737,"this":7738,"Ġstrikes":7739,"imp":7740,"Ġextension":7741,"uce":7742,"sylvania":7743,"ĠCapt":7744,"ĠGall":7745,"Ġshortly":7746,"Getty":7747,"ĠIowa":7748,"Ġblind":7749,"Ġfinance":7750,"Ġpod":7751,"Ġdistr":7752,"amber":7753,"igen":7754,"umer":7755,"ĠCH":7756,"Ġwarming":7757,"Ġdestruction":7758,"athered":7759,"Ġveteran":7760,"athy":7761,"onic":7762,"Ġchampionship":7763,"Ġrecru":7764,"Ġacceler":7765,"Ġdiscipl":7766,"Ġcable":7767,"ouch":7768,"Ġven":7769,"earing":7770,"Ġworker":7771,"Ġ1998":7772,"ĠMarket":7773,"imm":7774,"month":7775,"Ġfault":7776,"Ġbeliefs":7777,"Ġexpectations":7778,"51":7779,"Ġphones":7780,"Ġcyber":7781,"Ġpermission":7782,"ja":7783,"Ġbrut":7784,"ĠMah":7785,"Ġprivile":7786,"izon":7787,"olen":7788,"fall":7789,"ĠFred":7790,"making":7791,"Ġcrop":7792,"Ġtox":7793,"Rec":7794,"Ġcreates":7795,"fr":7796,"ĠReport":7797,"asion":7798,"Ġships":7799,"interest":7800,"Ġvulnerable":7801,"Ġ?":7802,"Ġfounded":7803,"ĠMS":7804,"Ġthick":7805,"Ġreduction":7806,"Us":7807,"ĠNext":7808,"ĠKelly":7809,"ĠOs":7810,"ĠVR":7811,"Ġhired":7812,"ĠFood":7813,"ĠESP":7814,"ione":7815,"Ġpasses":7816,"Ġstable":7817,"ĠDevelopment":7818,"Ġsharp":7819,"Ġuniform":7820,"Ġdinner":7821,"pat":7822,"ĠThus":7823,"enny":7824,"Ġneighb":7825,"Ġgenerated":7826,"page":7827,"Ġeverywhere":7828,"ogether":7829,"Ġstations":7830,"Ġsynt":7831,"Ġcontracts":7832,"ĠHom":7833,"Ġmagn":7834,"rient":7835,"Ġwonderful":7836,"Ġnominee":7837,"ĠHard":7838,"ureau":7839,"ounced":7840,"Ġ64":7841,"Mean":7842,"ĠGreg":7843,"ĠIns":7844,"cles":7845,"ĠSnow":7846,"Ġroles":7847,"anna":7848,"Ġincent":7849,"Star":7850,"Ġadvis":7851,"Ġfeelings":7852,"Ġaffili":7853,"Ġmilk":7854,"car":7855,"ĠOF":7856,"Ġproducer":7857,"Ġlights":7858,"antic":7859,"ĠDiego":7860,"ĠMu":7861,"Ġcollapse":7862,"oured":7863,"Ġhole":7864,"Ġconvicted":7865,"Ġwidespread":7866,"ĠThree":7867,"ĠAnth":7868,"hent":7869,"Ġbail":7870,"ĠMajor":7871,"Ġheaded":7872,"Ġprofession":7873,"world":7874,"ĠHT":7875,"ĠNavy":7876,"Ġprinciple":7877,"ulating":7878,"Ġliked":7879,"ĠRay":7880,"away":7881,"Ġobst":7882,"Ġstruggling":7883,"rical":7884,"uma":7885,"Ġinterface":7886,"bec":7887,"etime":7888,"ML":7889,"ilton":7890,"Ġsurgery":7891,"Ġindicate":7892,"Ġdiscrimination":7893,"RS":7894,"Ġcha":7895,"Ġentering":7896,"Ġexposure":7897,"da":7898,"arlier":7899,"Ġdrawing":7900,"Ð¾Ð":7901,"Ġdeliber":7902,"ĠHenry":7903,"ĠTem":7904,"scape":7905,"69":7906,"rific":7907,"Ġmanufacturing":7908,"Ġaver":7909,"Ġdoors":7910,"who":7911,"87":7912,"olves":7913,"Ġelectronic":7914,"Ġrely":7915,"Ġ47":7916,"Ġridic":7917,"Ġspr":7918,"Ġspark":7919,"ĠHD":7920,"Ġachieved":7921,"Ġmo":7922,"Ġhang":7923,"ĠBull":7924,"Ġdozens":7925,"jo":7926,"Ġbath":7927,"Before":7928,"Tile":7929,"Col":7930,"ashes":7931,"Ġ1960":7932,"Mc":7933,"Ġtoler":7934,"Ġsensitive":7935,"Ġprogramming":7936,"Ġuncom":7937,"ba":7938,"ÙĦ":7939,"ĠRuby":7940,"ĠPennsylvania":7941,"Ġbegun":7942,"ystem":7943,"Ġfoundation":7944,"Ġcaptain":7945,"Ġrecognition":7946,"ĠNote":7947,"Ġcampaigns":7948,"Ġeuro":7949,"ĠNick":7950,"eland":7951,"teen":7952,"Ġfee":7953,"ãĢ":7954,"ĠAdministration":7955,"ĠAlbert":7956,"adi":7957,"ĠKat":7958,"Ġrestrictions":7959,"Ġscenario":7960,"ĠCentre":7961,"Ġscores":7962,"ologists":7963,"lete":7964,"ĠAL":7965,"ĠâĢ¢":7966,"ĠKey":7967,"portion":7968,"Ġgrass":7969,"Ġmovements":7970,"Ġnormally":7971,"ĠLatin":7972,"EA":7973,"ĠSn":7974,"ĠPay":7975,"Ġwebsites":7976,"ATO":7977,"Ġpriority":7978,"Ġjournalist":7979,"ĠMoscow":7980,"usse":7981,"alling":7982,"Ġcarefully":7983,"ĠJudge":7984,"then":7985,"ĠAsh":7986,"engers":7987,"Ġstructures":7988,"Ġfirms":7989,"achus":7990,"Ġengineering":7991,"Ġpounds":7992,"ĠLittle":7993,"Ġphotograph":7994,"Ġrecognized":7995,"Ġprogressive":7996,"ĠJason":7997,"omething":7998,"profit":7999,"Ġ43":8000,"ĠScient":8001,"Ġho":8002,"abinet":8003,"Ġgained":8004,"ĠRick":8005,"veary":8006,"Alveary":8007,"TileAlveary":8008,"uer":8009,"BO":8010,"Ġ->":8011,"Ġupset":8012,"ATE":8013,"Ġexclusive":8014,"Ġ55":8015,"ĠGlobal":8016,"ĠRoman":8017,"\".[":8018,"Ġexceed":8019,"Ġalgorith":8020,"riers":8021,"Ġunex":8022,"Ġlistening":8023,"ĠFoot":8024,"Ġpump":8025,"ushing":8026,"Ġforever":8027,"Ġminds":8028,"ĠTest":8029,"Ġcontaining":8030,"Ġgenetic":8031,"âĢĻ,":8032,"plete":8033,"Ġplate":8034,"Ġtail":8035,"Ġrif":8036,"Ġtickets":8037,"ca":8038,"usive":8039,"opher":8040,"Ġsoil":8041,"Ġneutral":8042,"Ġcos":8043,"LC":8044,"Ġhumanity":8045,"Ġsettlement":8046,"Ġrapidly":8047,"Ref":8048,"mate":8049,"osexual":8050,"Ġrecover":8051,"icket":8052,"Ġinteract":8053,"Ġproducing":8054,"Ġgrounds":8055,"een":8056,"ami":8057,"Ġrose":8058,"ĠPen":8059,"abs":8060,"abama":8061,"Ġcontained":8062,"achusetts":8063,"abil":8064,"ĠOl":8065,"Ġreaching":8066,"found":8067,"heast":8068,"ye":8069,"ĠRoyal":8070,"Ġcomponent":8071,"Ġscoring":8072,"aska":8073,"unior":8074,"appy":8075,"Ġprocessing":8076,"Ġdeeper":8077,"Ġpractical":8078,"ĠMedical":8079,"Ġbanned":8080,"Ġtackle":8081,"aching":8082,"Meanwhile":8083,"Ġtag":8084,"Ġtip":8085,"Ġfriendly":8086,"Ġhide":8087,"xit":8088,"Ġinterviews":8089,"ĠFull":8090,"Ġasks":8091,"core":8092,"Ġdevast":8093,"!!!!!!!!!!!!!!!!":8094,"Ġfootage":8095,"aning":8096,"ĠMir":8097,"Ġchallenging":8098,"âĸ":8099,"ĠReuters":8100,"Ġren":8101,"ĠLo":8102,"mann":8103,"Ġmathem":8104,"ĠMedicine":8105,"Ġsin":8106,"ĠTenn":8107,"Ġvary":8108,"Ġsmooth":8109,"ĠBrother":8110,"Ġepisodes":8111,"Ġeastern":8112,"ĠAcademy":8113,"ĠData":8114,"Ġprepare":8115,"ĠMid":8116,"Ġperpet":8117,"Ġbranch":8118,"Ġflaw":8119,"Ġlobby":8120,"Ġtechnique":8121,"Ġfarmers":8122,"Ġalien":8123,"Ġlegend":8124,"ĠConservative":8125,"Ġliquid":8126,"ĠAS":8127,"ikes":8128,"Ġadvertising":8129,"Ġracist":8130,"Ġanybody":8131,"Ġbasketball":8132,"ĠPerhaps":8133,"Ġratio":8134,"ĠBaltimore":8135,"ĠVeg":8136,"weet":8137,"owing":8138,"Ġsuggesting":8139,"Ġbacked":8140,"Ġequally":8141,"Ġassociation":8142,"Ġocean":8143,"Ġbridge":8144,"EG":8145,"Ġfiscal":8146,"Ġpapers":8147,"ifest":8148,"Ġreducing":8149,"ĠMusic":8150,"ĠMayor":8151,"Ġlayer":8152,"Ġwing":8153,"Ġedition":8154,"ĠHor":8155,"Ġterrorists":8156,"ĠLuc":8157,"Ġairport":8158,"Ġneighbour":8159,"oen":8160,"Ġanger":8161,"ĠNob":8162,"Those":8163,"rine":8164,"klah":8165,"udes":8166,"ĠShare":8167,"Ġwalls":8168,"Ġestablishment":8169,"Ġcasual":8170,"ĠWalker":8171,"Co":8172,"ouver":8173,"ĠLA":8174,"Ġ65":8175,"ĠBattle":8176,"Ġproven":8177,"Ġindicated":8178,"Ġindependence":8179,"ĠAI":8180,"log":8181,"ĠSaf":8182,"Ġhandful":8183,"Ġdeputy":8184,"ĠPhilipp":8185,"Ġ46":8186,"including":8187,"Ġfinger":8188,"Ġexternal":8189,"Ġsugar":8190,"Ġ1996":8191,"ĠHit":8192,"Ġcontribute":8193,"Ġreferend":8194,"Ġflash":8195,"Ġconvin":8196,"Ġunclear":8197,"PG":8198,"rolled":8199,"Ġfears":8200,"Ġutil":8201,"ĠEducation":8202,"Ġcivilians":8203,"Ġconstitutional":8204,"ĠJam":8205,"ĠReview":8206,"Ġunemployment":8207,"ĠMult":8208,"Ġnotion":8209,"Ġhitting":8210,"vard":8211,"Ġlists":8212,"uties":8213,"kill":8214,"ĠHo":8215,"Ġdescription":8216,"uper":8217,"iti":8218,"ĠGaza":8219,"Ġusage":8220,"ĠSir":8221,"BM":8222,"Ġbra":8223,"ĠOK":8224,"lessly":8225,"ĠRand":8226,"Ġoverwhelming":8227,"Under":8228,"acon":8229,"Ġwelf":8230,"angel":8231,"Ġ41":8232,"Dav":8233,"Ġgathered":8234,"ĠFurther":8235,"Who":8236,"aying":8237,"Ġinvent":8238,"ĠCirc":8239,"ancouver":8240,"ĠAbout":8241,"Ġroads":8242,"Ġbarely":8243,"::":8244,"UN":8245,"ĠRa":8246,"Ġviewers":8247,"Ġreferring":8248,"Ġloyal":8249,"senal":8250,"\")":8251,"har":8252,"Ġburd":8253,"Ġinvolvement":8254,"hot":8255,"Ġprosec":8256,"Ġrobot":8257,"burgh":8258,"oice":8259,"ila":8260,"obs":8261,"Ġelig":8262,"Ġpurchased":8263,"Ġrural":8264,"Ġmining":8265,"Ġconnections":8266,"inois":8267,"Ġwelfare":8268,"lad":8269,"ĠNSA":8270,"ĠCommunity":8271,"fare":8272,"ĠIce":8273,"ĠDid":8274,"aka":8275,"Ġinvited":8276,"ĠGreece":8277,"dney":8278,"ipal":8279,"Ġstatistics":8280,"arrass":8281,"Ġfoss":8282,"Ġhook":8283,"ĠHoward":8284,"Ġ1997":8285,"agg":8286,"Ġhardly":8287,"iverpool":8288,"klahoma":8289,"Ġsteel":8290,"ĠSquare":8291,"lan":8292,"Ġdelivery":8293,"400":8294,"ĠKansas":8295,"ĠConference":8296,"President":8297,"rous":8298,"Ġcitizen":8299,"PP":8300,"Ġversus":8301,"Ġtasks":8302,"umes":8303,"Ġfailing":8304,"ĠMassachusetts":8305,"Ġjury":8306,"ĠAmendment":8307,"ĠDivision":8308,"ho":8309,"isa":8310,"Ġcomprehens":8311,"ĠHarry":8312,"ĠIndepend":8313,"ĠStadium":8314,"ecut":8315,"Ġtransgender":8316,"Ġexpanded":8317,"Ġdisagree":8318,"Ġreviews":8319,"Ġincorpor":8320,"Ġattacking":8321,"ultural":8322,"ĠGuardian":8323,"ester":8324,"wered":8325,"worth":8326,"Ġvital":8327,"%,":8328,"Ġthrown":8329,"Ġstupid":8330,"ĠLyn":8331,"Ġillness":8332,"ĠAtlanta":8333,"dem":8334,"Ġsubjects":8335,"FA":8336,"Will":8337,"ĠAp":8338,"ĠLy":8339,"Ġretired":8340,"Ġcollective":8341,"Ġintellectual":8342,"Ġplatforms":8343,"News":8344,"Look":8345,"Ġscreens":8346,"ĠGov":8347,"ourse":8348,"Ġastron":8349,"kind":8350,"Ġhanded":8351,"Ġlegs":8352,"ĠQueen":8353,"ĠTurkish":8354,"ĠESPN":8355,"Ġserves":8356,"Ġholiday":8357,"Che":8358,"Ġbrown":8359,"Ġrepresentative":8360,"Ġsymptoms":8361,"ĠRos":8362,"Ġovert":8363,"Ġremarks":8364,"ĠMcG":8365,"Ġimprovements":8366,"Ġgam":8367,"Ġgift":8368,"ĠRadio":8369,"Ġwww":8370,"Ġremem":8371,"usted":8372,"ĠArm":8373,"ĠRen":8374,"ĠNever":8375,"Ġinvestigate":8376,"ĠMinistry":8377,"isp":8378,"Ġriver":8379,"Ġsoph":8380,"ĠUFC":8381,"ĠAlabama":8382,"Ġjoining":8383,"Ġignore":8384,"Ġneuro":8385,"hour":8386,"umin":8387,"eman":8388,"HA":8389,"ixed":8390,"iversary":8391,"Ġcoc":8392,"Ġownership":8393,"Ġfrag":8394,"Ġrespectively":8395,"Ġsamples":8396,"ogs":8397,"Ġsmoke":8398,"Ġimplemented":8399,"Ġbrothers":8400,"Ġreprodu":8401,"ĠField":8402,"Ġregister":8403,"Ġentr":8404,"Ġsettings":8405,"Ġconvinced":8406,"ĠRoss":8407,"Ġneck":8408,"Er":8409,"Ġfab":8410,"Ġporn":8411,"Ġaffairs":8412,"ĠSuch":8413,"cover":8414,"oln":8415,"Ġdiscovery":8416,"Ġpublication":8417,"Ġfiction":8418,"Ġluck":8419,"ĠLewis":8420,"eding":8421,"Ġdefine":8422,"Ġethnic":8423,"case":8424,"Ġwars":8425,"ĠAllen":8426,"PC":8427,"ĠAction":8428,"Ġattached":8429,"agh":8430,"Ġpeak":8431,"Ġparalle":8432,"Ġtemporary":8433,"Ġsuffer":8434,"76":8435,"ĠHon":8436,"Ġestimate":8437,"Ġfro":8438,"Ġtone":8439,"ĠCO":8440,"Ġcovers":8441,"UL":8442,"Ġguest":8443,"Ġmenu":8444,"uten":8445,"Ġaccus":8446,"Ġsuspected":8447,"aver":8448,"Ġsteal":8449,"oding":8450,"Ġoffices":8451,"Ġfallen":8452,"Ġstayed":8453,"Ġspiritual":8454,"rik":8455,"Ġreven":8456,"Ġwheel":8457,"ĠStone":8458,"Ġregistr":8459,"ĠâĤ¬":8460,"Ġcareful":8461,"ĠMarvel":8462,"ĠPatrick":8463,"olph":8464,"ĠHay":8465,"Ġjoy":8466,"About":8467,"Ġreferendum":8468,"Ġstone":8469,"ĠUlt":8470,"Ġdepression":8471,"Ġfeaturing":8472,"ĠAustin":8473,"Note":8474,"Ġovers":8475,"Ġvisitors":8476,"Ġenormous":8477,"Ġawareness":8478,"Ass":8479,"SD":8480,"ĠHind":8481,"Ġregulation":8482,"Ġdepends":8483,"Ġthrew":8484,"Ġinvolves":8485,"Ġinvestigating":8486,"cific":8487,"ĠLind":8488,"Ġdramatic":8489,"Ġtomorrow":8490,"EE":8491,"Ġcomplaints":8492,"Ġcontroversy":8493,"mat":8494,"ĠPoint":8495,"ĠRef":8496,"Ġclimb":8497,"Ġdiscussions":8498,"Ġlanguages":8499,"Ġlegitimate":8500,"Ġsuspended":8501,"Sm":8502,"Ġpoly":8503,"ira":8504,"ĠFreedom":8505,"Ġextend":8506,"Ġtestim":8507,"Ġlicens":8508,"ĠBernie":8509,"Ġ%":8510,"Ġultimate":8511,"Ġfantastic":8512,"ĠPent":8513,"ĠBlake":8514,"Ġbehaviour":8515,"ĠAD":8516,"Ġstrategic":8517,"Ġdynamic":8518,"ĠCore":8519,"Ġreader":8520,"Ġwarrant":8521,"Ġ2019":8522,"Ġraw":8523,"ĠPrince":8524,"dri":8525,"Ġefficiency":8526,"ĠDig":8527,"Ġinvestigators":8528,"Ġdomain":8529,"Ġsilver":8530,"ĠIII":8531,"ĠTown":8532,"Ġscandal":8533,"quest":8534,"icking":8535,"Ġaddressed":8536,"ĠSus":8537,"Ġconversations":8538,"Ġjur":8539,"ĠYemen":8540,"ĠArk":8541,"ĠiP":8542,"79":8543,"Ġresource":8544,"UT":8545,"ĠChair":8546,"GE":8547,"Ġdepos":8548,"Ġexit":8549,"Ġdemocratic":8550,"Ġprotein":8551,"ĠTour":8552,"irlf":8553,"Ġje":8554,"ĠMaster":8555,"Ġraces":8556,"Ġsubstantial":8557,"ĠEs":8558,"ĠAdv":8559,"RI":8560,"aus":8561,"ĠRoy":8562,"annels":8563,"Ġfantasy":8564,"Ġentertainment":8565,"Ġsatellite":8566,"uits":8567,"ĠSeason":8568,"amsung":8569,"Ġabandoned":8570,"Back":8571,"HS":8572,"Ġsorry":8573,"Ġcust":8574,"ective":8575,"Ġingred":8576,"irlfriend":8577,"Ġpreced":8578,"Ġprofits":8579,"Ġinitiative":8580,"Ġunc":8581,"Ġheading":8582,"ĠIraqi":8583,"ĠMexican":8584,"itionally":8585,"Ġamid":8586,"Ġpopulations":8587,"Ġbread":8588,"'.":8589,"ĠBeach":8590,"Ġmarks":8591,"Ġextraord":8592,"Ġtweeted":8593,"Post":8594,"Ġfruit":8595,"Ġdance":8596,"Ġfactory":8597,"Ġbub":8598,"Ġbrill":8599,"Ġreplacement":8600,"Ġwages":8601,"Ġdeficit":8602,"claim":8603,"ĠABC":8604,"ĠAle":8605,"ĠSpring":8606,"Ġinner":8607,"ĠVancouver":8608,"ĠPlus":8609,"Ġadvocates":8610,"Ġframework":8611,"ais":8612,"Ġinject":8613,"Ġles":8614,"Ġpromises":8615,"Ġanxiety":8616,"Ġgal":8617,"mary":8618,"Ġbarrel":8619,"ĠMatthew":8620,".-":8621,"ĠArabia":8622,"ĠCameron":8623,"ĠProfessor":8624,"Ġabsence":8625,"ijing":8626,"72":8627,"ĠMoon":8628,"Ġpresum":8629,"Ġmountain":8630,"Ġnoise":8631,"Ġguarantee":8632,"Related":8633,"rec":8634,"rets":8635,"icity":8636,"ĠCow":8637,"Ġbars":8638,"Ġattempting":8639,"Ġcovering":8640,"Ġhorror":8641,"Ġcannabis":8642,"Ġdiversity":8643,"itage":8644,"Ġresign":8645,"Ġstolen":8646,"ĠPot":8647,"ivals":8648,"Ġmonitor":8649,"Ġrecommended":8650,"Ġinquir":8651,"Ġhint":8652,"Ġtrained":8653,"Ġincidents":8654,"Ġviewed":8655,"ĠIranian":8656,"Ġembarrass":8657,"Ġstake":8658,"Ġconce":8659,"leveland":8660,"Ġfed":8661,"ammed":8662,"Ġmortg":8663,"Ġfulf":8664,"ĠBa":8665,"Ġbreaks":8666,"Ġtries":8667,"Ġloans":8668,"Ġrational":8669,"ĠOklahoma":8670,"Ġintervention":8671,"ĠBang":8672,"abeth":8673,"Ġattitude":8674,"Ġpetition":8675,"ĠIllinois":8676,"Ġnoting":8677,"gener":8678,"Ġactors":8679,"Ġpassengers":8680,"Ġimprovement":8681,"ĠAnton":8682,"89":8683,"ĠNATO":8684,"ped":8685,"ĠSat":8686,"Ġseemingly":8687,"Ġmuscle":8688,"otype":8689,"ĠInformation":8690,"Ġactivist":8691,"ĠAud":8692,"ĠMuseum":8693,"Ġcontributions":8694,"Where":8695,"ources":8696,"Ġsmile":8697,"Ġpersonality":8698,"Ġranked":8699,"Ġlucky":8700,"ĠCost":8701,"isting":8702,"Ġvirtually":8703,"Ġlying":8704,"Ġsalary":8705,"Ġranks":8706,"Ġdispl":8707,"oval":8708,"Ġvoter":8709,"ĠCooper":8710,"Ġjoke":8711,"Ġpremium":8712,"Ġtemperatures":8713,"inch":8714,"Ġdump":8715,"Ġscope":8716,"Ġmissile":8717,"Ġencouraged":8718,"74":8719,"Ġtrave":8720,"Ġspaces":8721,"Ġdisrupt":8722,"Ġappreciate":8723,"Your":8724,"eping":8725,"Ġheadquarters":8726,"ĠConnect":8727,"ĠPrice":8728,"Ġclothes":8729,"Ġrevel":8730,"ĠBra":8731,"Ġtwenty":8732,"RC":8733,"Ġscholars":8734,"sels":8735,"ĠCheck":8736,"Ġinnovation":8737,"Ã¢":8738,"Ġcoaches":8739,"Her":8740,"Ġham":8741,"ĠHead":8742,"Ġtheat":8743,"erted":8744,"ref":8745,"agic":8746,"ĠWithout":8747,"Ġdrew":8748,"Ġopinions":8749,"Ġthrowing":8750,"Please":8751,"Ġlocked":8752,"unes":8753,"Ġportray":8754,"Ġsalt":8755,"ĠPit":8756,"ĠIndeed":8757,"ĠHarvard":8758,"Ġmedicine":8759,"Ġprotecting":8760,"ĠCall":8761,"Ġspoken":8762,"Ġstages":8763,"Ġlowest":8764,"ĠiOS":8765,"Ġarrive":8766,"Ġcommonly":8767,"ĠTri":8768,"Ġyellow":8769,"Ġexch":8770,"pload":8771,"ĠDeath":8772,"Ġreplied":8773,"Ġchapter":8774,"aware":8775,"ÂĴ":8776,"esh":8777,"Ġli":8778,"ĠBatman":8779,"ĠHistory":8780,"race":8781,"Ġrhet":8782,"Ġdistributed":8783,"Ġ1994":8784,"Ġpartnership":8785,"Ġhockey":8786,"ĠTai":8787,"Ġshout":8788,"ĠJustin":8789,"ĠRevolution":8790,"Ġgrav":8791,"Ġpersons":8792,"cut":8793,"ĠBrew":8794,"ĠSydney":8795,"Ġimproving":8796,"Ġmidfield":8797,"Ġsurvival":8798,"Ġconsistently":8799,"sub":8800,"ĠMake":8801,"Ġchest":8802,"Ġinflation":8803,"ĠStart":8804,"Ġhandling":8805,"ught":8806,"cription":8807,"aeda":8808,"Ġ52":8809,"Ġ1995":8810,"Ġgains":8811,"!)":8812,"ui":8813,"Ġ00":8814,"ĠCook":8815,"ropri":8816,"stract":8817,"eters":8818,"Ġshoulder":8819,"ĠBall":8820,"Ste":8821,"iences":8822,"Ġtransportation":8823,"was":8824,"iture":8825,"Ġappointed":8826,"Ġshopping":8827,"ĠVegas":8828,"Ġbacter":8829,"Ġclosing":8830,"Ġspeaks":8831,"Ġmonitoring":8832,"ethe":8833,"ĠWhich":8834,"Ġjudges":8835,"Ġdivided":8836,"Ġignored":8837,"ĠAND":8838,"des":8839,"yard":8840,"Ġhomeless":8841,"Sen":8842,"Ġlogic":8843,"ĠEnvironment":8844,"Script":8845,"ĪĴ":8846,"arms":8847,"Ġguitar":8848,"ĠGolden":8849,"Ġhypot":8850,"Comp":8851,"Ġfunded":8852,"ĠTech":8853,"geon":8854,"ĠChristians":8855,"ĠBron":8856,"62":8857,"PM":8858,"bi":8859,"Ġrescue":8860,"iban":8861,"comes":8862,"Ġorigin":8863,"Ġpursue":8864,"ĠAnthony":8865,"Both":8866,"maker":8867,"Russ":8868,"hesis":8869,"incoln":8870,"ĠBelg":8871,"ĠForm":8872,"Ġlands":8873,"Ġcomedy":8874,"Ġouts":8875,"Ġpref":8876,"WS":8877,"ĠFront":8878,"Ġmembership":8879,"low":8880,"Ġinsisted":8881,"orge":8882,"ieties":8883,"Ġassessment":8884,"uh":8885,"ĠProv":8886,"Ġsubsequent":8887,"mo":8888,"pie":8889,"helsea":8890,"Ġupgrade":8891,"Ġokay":8892,"ifer":8893,"Ġtrem":8894,"Ġinequ":8895,"73":8896,"inf":8897,"Ġdad":8898,"ika":8899,"Ġboat":8900,"Sub":8901,"Ġrom":8902,"phones":8903,"Are":8904,"Ġscan":8905,"Ġstudied":8906,"usalem":8907,"iano":8908,"Ġcriticized":8909,"reate":8910,"ĠBad":8911,"Ġvisiting":8912,"ĠCorpor":8913,"Ġconservatives":8914,"Ġproposals":8915,"Ġlegacy":8916,"Ġskept":8917,"Ġwine":8918,"alia":8919,"unicip":8920,"ommod":8921,"ĠAz":8922,"Ġcopies":8923,"ĠMean":8924,"ĠPD":8925,"Ġspokesperson":8926,"omes":8927,"Ġperforming":8928,"ĠAk":8929,"ĠBuff":8930,"aga":8931,"igare":8932,"ĠFamily":8933,"Ġuniversal":8934,"ĠAcc":8935,"ĠSometimes":8936,"ĠBon":8937,"ĠPack":8938,"ĠUse":8939,"Ġconspiracy":8940,"sect":8941,"Ġacknowledged":8942,"door":8943,"ĠWolf":8944,"Ġwrest":8945,"oded":8946,"Part":8947,"zed":8948,"ĠAward":8949,"Ġsurf":8950,"Ġhorse":8951,"Ġprisoners":8952,"ĠSet":8953,"ela":8954,"izabeth":8955,"ĠHospital":8956,"Ġcolors":8957,"Ġpermit":8958,"ailed":8959,"Ġmonthly":8960,"amac":8961,"Ġblocked":8962,"ĠStat":8963,"Ġphrase":8964,"ĠJay":8965,"Ġmistakes":8966,"TON":8967,"yer":8968,"Ġthorough":8969,"AND":8970,"Ġracism":8971,"Ġliterature":8972,"Ġsty":8973,"Ġstored":8974,"ĠSanta":8975,"zing":8976,"ĠControl":8977,"itting":8978,"Ġtea":8979,"Ġ1992":8980,"Ġconcrete":8981,"ĠLiverpool":8982,"ĠUnfortunately":8983,"ĠBroad":8984,"Ġproviders":8985,"Ġlanding":8986,"Ġauthent":8987,"Ġcogn":8988,"ĠCleveland":8989,"Ġplain":8990,"Ġ51":8991,"ĠDoes":8992,"ĠCBS":8993,"Ġcenters":8994,"ĠAC":8995,"thon":8996,"ĠDesign":8997,"ĠXbox":8998,"Ġwaters":8999,"isk":9000,"Ġ2020":9001,"ultane":9002,"Ġdrama":9003,"isons":9004,"Ġdiverse":9005,"Ġcompe":9006,"ĠHell":9007,"Ġtransit":9008,"Ġinvestigations":9009,"Ġbeauty":9010,"Ġwealthy":9011,"Ġapproached":9012,"ĠWW":9013,"Ġdrone":9014,"Ġauto":9015,"ĠSweden":9016,"dit":9017,"Ġ_":9018,"ĠExt":9019,"Ġvariable":9020,"Ġdismissed":9021,"walk":9022,"ĠMaryland":9023,"ĠNev":9024,"pled":9025,"Ġgrade":9026,"theless":9027,"Ġordinary":9028,"mad":9029,"ĠEmpire":9030,"iler":9031,"iy":9032,"ported":9033,"ĠTechnology":9034,"Ġreads":9035,"Ġrequested":9036,"Ġentitled":9037,"uction":9038,"ĠUr":9039,"ĠBeijing":9040,"only":9041,"Ġaccomplish":9042,"ĠBase":9043,"Ġclassified":9044,"Ġappearances":9045,"backs":9046,"hop":9047,"ington":9048,"ĠEngine":9049,"ihad":9050,"61":9051,"BN":9052,"Ġ),":9053,"repre":9054,"ĠOnt":9055,"Ġresponses":9056,"trans":9057,"don":9058,"assador":9059,"********":9060,"Ġtap":9061,"Ġtape":9062,"nedy":9063,"Ġfalls":9064,"RL":9065,"ĠVis":9066,"Ġhung":9067,"Ġsupplies":9068,"Ġsavings":9069,"Ġmarch":9070,"uted":9071,"Ġhyper":9072,"Ð»":9073,"ĠAbb":9074,"Ġurged":9075,"Ġbuff":9076,"Ġassign":9077,"ĠDoctor":9078,"Ġbreath":9079,"Ġcongressional":9080,"intendo":9081,"ĠCaption":9082,"zy":9083,"ĠDet":9084,"ĠAnderson":9085,"pa":9086,"rite":9087,"ppers":9088,"Ġ(\"":9089,"####":9090,"ĠDave":9091,"Ġrender":9092,"through":9093,"Ġsubmit":9094,"Ġdemonstrated":9095,"bridge":9096,"reprene":9097,"rows":9098,"Ġhoped":9099,"ĠAssad":9100,"amacare":9101,"ded":9102,"Ġlunch":9103,"Ġramp":9104,"Ġaccommod":9105,"Ġwarn":9106,"Ġmad":9107,"ĠSony":9108,"Ġequality":9109,"Ġnaturally":9110,"Ġnomination":9111,"Ġcontrad":9112,"Ġpolitically":9113,"Ġchecks":9114,"Ġabsor":9115,"Ġpopularity":9116,"Ġsenator":9117,"Ke":9118,"high":9119,"icism":9120,"ĠPortland":9121,"Ġtactics":9122,"aval":9123,"Ġprogramme":9124,"Ġlets":9125,"Ġweekly":9126,"ntil":9127,"Ġgrid":9128,"minute":9129,"Ġquoted":9130,"Ġballot":9131,"Ġdeny":9132,"63":9133,"dated":9134,"issue":9135,"ĠOrig":9136,"Ġswing":9137,"Ġdivor":9138,"ĠSon":9139,"Ġwhenever":9140,"Ġtargeting":9141,"ĠMarsh":9142,"Ġchannels":9143,"Ġclock":9144,"Ġflags":9145,"iculture":9146,"cr":9147,"max":9148,"plate":9149,"ĠIndiana":9150,"Ġguidelines":9151,"Ġrepresenting":9152,"Ġconventional":9153,"irts":9154,"ĠIntelligence":9155,"Act":9156,"iate":9157,"ĠNOT":9158,"Ġblast":9159,"84":9160,"berry":9161,"Ġactively":9162,"Though":9163,"ĠBrexit":9164,"ounce":9165,"Facebook":9166,"ĠGun":9167,"Ġswim":9168,"âĢĶâĢĶâĢĶâĢĶâĢĶâĢĶâĢĶâĢĶ":9169,"acts":9170,"ecutive":9171,"Ġconsole":9172,"Ġmos":9173,"Ġunpre":9174,"Ġdrove":9175,"Ġawarded":9176,"Ġprepar":9177,"Ġcelebrate":9178,"Ġcro":9179,"Ġmoon":9180,"Ġphotograp":9181,"ĠJerusalem":9182,"Ġmaps":9183,"ocolate":9184,"Ġmusical":9185,"SC":9186,"Source":9187,"asty":9188,"Ġmole":9189,"Ġ(âĢľ":9190,"ĠVideo":9191,"800":9192,"Ġdub":9193,"ĠEth":9194,"Ġrook":9195,"Ġuniversities":9196,"Ġtonight":9197,"ĠâĢĿ":9198,"Ġpros":9199,"rapped":9200,"Ġtie":9201,"Ġbonus":9202,"VP":9203,"Ġdust":9204,"Ġclim":9205,"itary":9206,"ĠCredit":9207,"Ġweigh":9208,"odox":9209,"plus":9210,"ĠSilver":9211,"ĠOlympic":9212,"fund":9213,"Ġclar":9214,"Ġcounts":9215,"Ġhealthcare":9216,"ĠFootball":9217,"Ty":9218,"Ġcivilian":9219,"ĠLas":9220,"they":9221,"Ġdates":9222,"Ġbutt":9223,"ĠKar":9224,"bow":9225,"cos":9226,"ĠCustom":9227,"Ġprotocol":9228,"ĠVietnam":9229,"Ġwaves":9230,"ĠAge":9231,"shire":9232,"Ġencounter":9233,"Ġwider":9234,"Ġsaving":9235,"Ġquote":9236,"math":9237,"atar":9238,"ĠTel":9239,"ĠGT":9240,"Ġmaintained":9241,"Ġtestimony":9242,"Ġfool":9243,"Ġfighter":9244,"esty":9245,"Ġdiscount":9246,"Ġcream":9247,"ĠPatri":9248,"Ġphenomenon":9249,"Ġinstrument":9250,"erg":9251,"ĠMill":9252,"Ġrush":9253,"Ġarguing":9254,"flix":9255,"Ġveterans":9256,"iden":9257,"iki":9258,"Ġacquired":9259,"]:":9260,"mony":9261,"ĠDutch":9262,"Ġrear":9263,"Ġpresidency":9264,"Ġhelpful":9265,"Ġpredicted":9266,"ĠCro":9267,"Ġages":9268,"Ġcompare":9269,"Ġgenerations":9270,"acket":9271,"Ġdisturb":9272,"Ġviolation":9273,"ĠAssociated":9274,"Ġfossil":9275,"92":9276,"acted":9277,"Ġoverseas":9278,"ahu":9279,"Ġbanking":9280,"Ġpreparing":9281,"ĠGraham":9282,"onder":9283,"Ġemployed":9284,"ĠPA":9285,"Ġabroad":9286,"rooms":9287,"ordon":9288,"ĠLincoln":9289,"Ġshr":9290,"conf":9291,"Ġmuseum":9292,"ĠSamsung":9293,"Ġ1993":9294,"emed":9295,"Ġtherapy":9296,"Ġcance":9297,"Ġtips":9298,"Ġcul":9299,"essee":9300,"ĠAtlantic":9301,"ĠBible":9302,"ĠStory":9303,"Ġsurely":9304,"Ġintroduce":9305,"argo":9306,"https":9307,"Ġprovision":9308,"ĠPo":9309,"ĠEqu":9310,"iffs":9311,"hatt":9312,"Ġreveals":9313,"scale":9314,"Ġtrillion":9315,"enez":9316,"Ġans":9317,"igs":9318,"Ġmeasured":9319,"ĠHop":9320,"Ġsuspects":9321,"ĠLine":9322,"ipedia":9323,"ierce":9324,"Ġloose":9325,"Ġconsideration":9326,"Cons":9327,"king":9328,"encing":9329,"organ":9330,"Ġpatch":9331,"Ġrelax":9332,"Ġletting":9333,"oenix":9334,"Ġsettled":9335,"izer":9336,"Ġsubmitted":9337,"Ġspokeswoman":9338,"Sim":9339,"eries":9340,"ĠPop":9341,"umble":9342,"ĠKong":9343,"ĠHawai":9344,"held":9345,"ingers":9346,"made":9347,"Ġgirlfriend":9348,"Ġcontribution":9349,"Ġforecast":9350,"Ġprosecutors":9351,"ĠPhotos":9352,"Yet":9353,"Ġunions":9354,"ĠGovernor":9355,"ĠTro":9356,"ĠAst":9357,"Ġsimultane":9358,"Ġreleases":9359,"Ġtracking":9360,"Ġpipeline":9361,"Ġtens":9362,"ouri":9363,"Ġdying":9364,"ĠIndust":9365,"Ġnin":9366,"Ġsmell":9367,"Ġobs":9368,"Ġanniversary":9369,"Ġarchitecture":9370,"ĠBruce":9371,"OK":9372,"Ġsymp":9373,"Ġdocumentary":9374,"Ġdelic":9375,"ested":9376,"Ġunexpected":9377,"ĠTed":9378,"cedented":9379,"Ġassert":9380,"Ġformation":9381,"Ġdemanding":9382,"party":9383,"rection":9384,"Ġbowl":9385,"Ġmissions":9386,"Ġrestaurants":9387,"mers":9388,"orous":9389,"Ġburning":9390,"ormon":9391,"Ġacid":9392,"ERS":9393,"ĠCarter":9394,"vernment":9395,"ounding":9396,"Ġsoccer":9397,"afe":9398,"Ġforcing":9399,"Ġdesigns":9400,"Ġwounded":9401,"93":9402,"erts":9403,"itol":9404,"ĠTaliban":9405,"Ġfiring":9406,"Ġroof":9407,"Ġlandscape":9408,"lined":9409,"Ġtitled":9410,"Ġgraphics":9411,"David":9412,"81":9413,"tc":9414,"ĠNE":9415,"Ġstreaming":9416,"Ġreforms":9417,"say":9418,"Ġaer":9419,"Ġintroduction":9420,"Ġretirement":9421,"jud":9422,"ito":9423,"enter":9424,"Ġimportantly":9425,"Ġimplications":9426,"break":9427,"yo":9428,"ĠGulf":9429,"aki":9430,"pton":9431,"aved":9432,"ĠAPI":9433,"igate":9434,"ĠClick":9435,"Ġcomics":9436,"Ġsmoking":9437,"Ġfestival":9438,"ĠPalestinians":9439,"ĠHur":9440,"Still":9441,"ĠAmong":9442,"ĠGetty":9443,"Ġdominant":9444,"Ġkilomet":9445,"Ġpuzz":9446,"asury":9447,"Ġrevers":9448,"kee":9449,"tra":9450,"ĠSix":9451,"Ġexpanding":9452,"Ġgent":9453,"Ġarbit":9454,"ĠYang":9455,"ĠEdward":9456,"ĠGalaxy":9457,"71":9458,"fol":9459,"arre":9460,"Ġintim":9461,"Ġfocusing":9462,"Ġinnocent":9463,"âĢĭ":9464,"Ġproducers":9465,"ĠDenver":9466,"Ġreceiver":9467,"ĠCaptain":9468,"Os":9469,"Ġreverse":9470,"ĠTen":9471,"Ġblank":9472,"ylum":9473,"Ġtouchdown":9474,"after":9475,"mind":9476,"uj":9477,"Ġquestioned":9478,"Ġsilence":9479,"ĠKhan":9480,"Ġodds":9481,"Ġbrilliant":9482,"igious":9483,"archy":9484,"Ġinspect":9485,"Ġassumed":9486,"Ġbeating":9487,"Ġcalm":9488,"Ġdemonstrate":9489,"Ġcomprehensive":9490,"Ġsear":9491,"olds":9492,"ĠProp":9493,"ĠExpl":9494,"Ġcustody":9495,"Ġdisorder":9496,"Ġrepresentatives":9497,"Art":9498,"Ġcategories":9499,"Ġbin":9500,"Ġwanting":9501,"ĠRoberts":9502,"Ġalarm":9503,"Ġkm":9504,"Ġsequence":9505,"ĠOakland":9506,"Ġpropaganda":9507,"Ġborders":9508,"Ġhosp":9509,"ĠMetro":9510,"ributes":9511,"ĠLeader":9512,"Ġfacilit":9513,"Ġrooms":9514,"inction":9515,"Step":9516,"Ġargues":9517,"Ġprincipal":9518,"orious":9519,"Ġfate":9520,"throp":9521,"ocial":9522,"Ġdrives":9523,"Ġrounds":9524,"Ġpa":9525,"Ġdeadly":9526,"Ġsovere":9527,"Ġreliable":9528,"holders":9529,"ĠBerlin":9530,"tenance":9531,"Ġstriking":9532,"ĠLow":9533,"Ġadventure":9534,"ĠKennedy":9535,"ĠBureau":9536,"ĠHave":9537,"ĠElizabeth":9538,"Ġtransactions":9539,"Ġexperiments":9540,"Ġdifficulty":9541,"Ġobjective":9542,"Ġindicates":9543,"Ġwhereas":9544,"Ġhydro":9545,"inator":9546,"ĠEag":9547,"Ġadmin":9548,"portation":9549,"ĠAlexander":9550,"Ġmanifest":9551,"open":9552,"Ġstepped":9553,"Ġcontacted":9554,"El":9555,"heim":9556,"Ġstem":9557,"Ġpron":9558,"Ġinvestments":9559,"94":9560,"Ġservers":9561,"Ġmemories":9562,"Ġaccessible":9563,"Ġenthusi":9564,"ĠGirl":9565,"Ġpointing":9566,"Ġshield":9567,"Ġrecall":9568,"ĠTele":9569,"Ġtab":9570,"ixon":9571,"Ġcapabilities":9572,"Ġsemi":9573,"ĠBeck":9574,"Ġtremend":9575,"Hz":9576,"Ġeager":9577,"ĠLt":9578,"Ġwindows":9579,"Ġregulatory":9580,"ĠScottish":9581,"Ġremarkable":9582,"82":9583,"Ġexha":9584,"Ge":9585,"ses":9586,"ĠBloom":9587,"EST":9588,"Ġceremony":9589,"ĠList":9590,"Ġconsciousness":9591,"bian":9592,"ĠBal":9593,"oret":9594,"Ġscientist":9595,"Ġbroader":9596,"iev":9597,"ĠChelsea":9598,"Ġlegislative":9599,"PL":9600,"aria":9601,"Ġopenly":9602,"erent":9603,"Ġtrials":9604,"Ġerrors":9605,"ĠWarren":9606,"ĠIntel":9607,"Ġprecisely":9608,"ĠMeanwhile":9609,"Ġsevent":9610,"Ġshame":9611,"ĠVice":9612,"Ġabilities":9613,"Ġspan":9614,"ova":9615,"Ġmeaningful":9616,"ìĿ":9617,"Ġlad":9618,"ĠGDP":9619,"ĠCommon":9620,"Ġdamaged":9621,"Ġaffordable":9622,"step":9623,"Ġloves":9624,"acco":9625,"ĠCA":9626,"Ġthreatening":9627,"Reuters":9628,"ĠCrime":9629,"Ġstability":9630,"oli":9631,"Ġartific":9632,"Ġdifferently":9633,"Ġtorture":9634,"Ġgate":9635,"Ġdeserve":9636,"Ġgreatly":9637,"600":9638,"Ġfur":9639,"Ġspots":9640,"ĠEmail":9641,"author":9642,"Ġdiscussing":9643,"Ġgross":9644,"Ġtrigger":9645,"Ġbeings":9646,"Ġministry":9647,"Ġexecution":9648,"Ġprocedures":9649,"Ġbow":9650,"aping":9651,"Ġinches":9652,"lando":9653,"ĠMagic":9654,"ĠBud":9655,"ĠJean":9656,"Story":9657,"Ġgraduate":9658,"Ġsubscrib":9659,"Ġmit":9660,"ĠPass":9661,"elson":9662,"Ġroy":9663,"Ġendorse":9664,"Ġmodule":9665,"brid":9666,"Ġvoices":9667,"ĠLiberal":9668,"ĠThrough":9669,"Ġcompeting":9670,"Ġsorts":9671,"ĠBox":9672,"iley":9673,"Ġindustries":9674,"Ġsmartphone":9675,"aration":9676,"Ġmac":9677,"Ġsecondary":9678,"Ġmathemat":9679,"etch":9680,"ĠWas":9681,"ĠVill":9682,"ĠAffairs":9683,"watch":9684,"Ġtired":9685,"asant":9686,"Ġdish":9687,"Ġfled":9688,"Ġchildhood":9689,"Ġfoods":9690,"Mark":9691,"apolis":9692,"oker":9693,"Ġemerging":9694,"Ġrepeat":9695,"Ġkeys":9696,"Ġautonom":9697,"Ġhal":9698,"ĠTrade":9699,"Ġ99":9700,"ĠObamacare":9701,"ĠSab":9702,"Ġspectrum":9703,"Ġcompat":9704,"Ġknee":9705,"Ġ53":9706,"Ġinfo":9707,"Ġchicken":9708,"Ġpossess":9709,"elf":9710,"ĠOp":9711,"Ġtowns":9712,"Ġkitchen":9713,"Ġcircle":9714,"Ġpersu":9715,"Ġdispute":9716,"ï¿":9717,"ĠHold":9718,"orship":9719,"Ġinstructions":9720,"ĠFall":9721,"Ġfollowers":9722,"Ġjudgment":9723,"ĠUtah":9724,"Fi":9725,"ocument":9726,"ixture":9727,"Ġnewsletter":9728,"uz":9729,"Ġnic":9730,"ĠSS":9731,"Ġmanaging":9732,"ĠSean":9733,"Ġsubstance":9734,"itudes":9735,"Ġshell":9736,"Ġphysically":9737,"Ġvirus":9738,"ĠNintendo":9739,"ĠGary":9740,"ĠLeon":9741,"Dem":9742,"Ġcow":9743,"Ġshadow":9744,"ctic":9745,"Ġcoinc":9746,"Ġalter":9747,"Ġlegally":9748,"Ġfunctional":9749,"Ġscrut":9750,"ois":9751,"ĠTrust":9752,"Ġoccurs":9753,"Ġeducational":9754,"Ġpromising":9755,"Ġstaying":9756,"Ġcounterpart":9757,"Ġanswered":9758,"dy":9759,"ĠMach":9760,"Ġdefeated":9761,"ĠTennessee":9762,"Ġcollaps":9763,"ompson":9764,"Ġstrategies":9765,"eals":9766,"Ġstamp":9767,"Ġspeaker":9768,"urns":9769,"Ġpulling":9770,"Ġfrequency":9771,"ĠHamilton":9772,"ĠHa":9773,"ateral":9774,"ĠBuddh":9775,"rix":9776,"Ġgathering":9777,"Ġpicks":9778,"Ġviolations":9779,"even":9780,"Ġorganic":9781,"Ġhighlights":9782,"itual":9783,"Ġsurviv":9784,"Ġbirds":9785,"Ġease":9786,"Christ":9787,"Ġassass":9788,"cest":9789,"hire":9790,"Ġ1950":9791,"Ġtransaction":9792,"ennis":9793,"Ġcapitalism":9794,"Ġbottle":9795,"Watch":9796,"Ġlapt":9797,"ĠVik":9798,"Ġoutrage":9799,"Ġengineer":9800,"sa":9801,"Ġrequiring":9802,"herent":9803,"Ġdefending":9804,"Ġrecruit":9805,"Ġinterf":9806,"Ġsentenced":9807,"Ġblockchain":9808,"Ġves":9809,"gered":9810,"oir":9811,"Ġunderlying":9812,"Ġsearching":9813,"ï¿½":9814,"omy":9815,"ĠMrs":9816,"Ġhosted":9817,"Mich":9818,"Ġintr":9819,"ĠYeah":9820,"Ġcenturies":9821,"Ġhopefully":9822,"\">":9823,"TP":9824,"Ġwedd":9825,"Ġlux":9826,"ĠHarris":9827,"igenous":9828,"ĠCra":9829,"ĠMit":9830,"Ġovercome":9831,"Ġassigned":9832,"Ġunprecedented":9833,"sl":9834,"Ġax":9835,"Ġgif":9836,"Ġunve":9837,"Ġeligible":9838,"bered":9839,"ige":9840,"ĠAccess":9841,"ĠBridge":9842,"Ġperiods":9843,"ĠTok":9844,"ĠHong":9845,"ĠArsenal":9846,"Ġrebels":9847,"ĠWales":9848,"third":9849,"ĠFal":9850,"ormal":9851,"Ġpharm":9852,"ĠMarx":9853,"Ġpicking":9854,"Ġtables":9855,"ĠMain":9856,"Ġ56":9857,"Ġ95":9858,"Ġfrequent":9859,"Ġcooperation":9860,"Ġeggs":9861,"mic":9862,"ishop":9863,"Ġparticipation":9864,"Ġheroes":9865,"ĠPres":9866,"Ġshoes":9867,"Ġenhance":9868,"amous":9869,"Ġseed":9870,"Ġroots":9871,"Ġadviser":9872,"bits":9873,"rif":9874,"Ġconstitu":9875,"van":9876,"Ġelder":9877,"ĠKeep":9878,"Ġutility":9879,"Ġratings":9880,"Ġdialogue":9881,"ptions":9882,"Ġmini":9883,"Ġtopics":9884,"Ġdistingu":9885,"ration":9886,"ĠSound":9887,"Pre":9888,"ĠJonathan":9889,"ĠKentucky":9890,"Ġvig":9891,"child":9892,"Ġalias":9893,"arted":9894,"Ġaged":9895,"Ġmanagers":9896,"Ġ1991":9897,"ĠPentagon":9898,"Top":9899,"Ġmath":9900,"Ġentreprene":9901,"Ġpassage":9902,"Ġdonations":9903,"will":9904,"akh":9905,"ĠDick":9906,"Ġexecutives":9907,"Ġrequirement":9908,"Ġtiming":9909,"Ġprocedure":9910,"83":9911,"ĠPict":9912,"Ġconsent":9913,"Ġemp":9914,"Ġexplaining":9915,"ĠConst":9916,"ĠCode":9917,"vertisements":9918,"section":9919,"Ġ54":9920,"scribe":9921,"stal":9922,"ĠMedicaid":9923,"omed":9924,"ĠNon":9925,"apore":9926,"ogy":9927,"vision":9928,"Ġnerv":9929,"Ġstruggled":9930,"SU":9931,"string":9932,"Ġmigrants":9933,"ista":9934,"thood":9935,"ĠPriv":9936,"Ġparallel":9937,"TE":9938,"Ġ250":9939,"Update":9940,"Ġë":9941,"ernand":9942,"Ġstops":9943,"Ġbattles":9944,"ĠSarah":9945,"eness":9946,"ĠCoal":9947,"Ġrestrict":9948,"Ġopens":9949,"ĠEconomic":9950,"View":9951,"Ġrecipe":9952,"Ġrelation":9953,"Ġsubur":9954,"Ġpollution":9955,"ĠComey":9956,"Ġextraordinary":9957,"Ġvocal":9958,"ĠLi":9959,"Ġbillions":9960,"Def":9961,"Ġsne":9962,"Ġseized":9963,"Ġbirthday":9964,"TR":9965,"cor":9966,"Ġna":9967,"ĠFinal":9968,"Ġconsensus":9969,"atively":9970,"ĠUber":9971,"ĠInstagram":9972,"DC":9973,"orable":9974,"Ġpartly":9975,"Ġimpression":9976,"Ġpromoting":9977,"Ġpublishing":9978,"Ġrhetoric":9979,"ĠHart":9980,"ĠDer":9981,"Ġcler":9982,"Ġstudying":9983,"ĠTax":9984,"ĠPerson":9985,"Ġsections":9986,"riv":9987,"Ġengineers":9988,"Ġinequality":9989,"ĠMORE":9990,"agger":9991,"Ġperceived":9992,"Ġbadly":9993,"Ġstance":9994,"ĠAssembly":9995,"Ġarrival":9996,"ĠNetflix":9997,"Ġconvince":9998,"ĠSimon":9999,"lly":10000,"Ġshipping":10001,"Ġharassment":10002,"ĠExper":10003,"value":10004,"Ġrocket":10005,"EP":10006,"ĠTower":10007,"ĠGO":10008,"licop":10009,"liest":10010,"Ġinterpre":10011,"Ġgenes":10012,"Ġmagnet":10013,"Ġlogo":10014,"Ġdemanded":10015,"Ġclothing":10016,"Cur":10017,"Error":10018,"rated":10019,"ĠTrib":10020,"abe":10021,"Ġunfair":10022,"91":10023,"Ġclip":10024,"ĠManagement":10025,"Ġmood":10026,"Ġglad":10027,"Ġburden":10028,"Ġregistration":10029,"ĠFinally":10030,"Thanks":10031,"Ġtons":10032,"ĠCapital":10033,"bing":10034,"Ġmask":10035,"estyle":10036,"osystem":10037,"Ġideology":10038,"Ġaddresses":10039,"Ġbold":10040,"Ġlineup":10041,"Ġsustainable":10042,"Ag":10043,"ĠHeart":10044,"Ġlessons":10045,"Ġbullet":10046,"Ġcontemporary":10047,"lee":10048,"thodox":10049,"ĠStore":10050,"Ġundert":10051,"Ġclinical":10052,"bury":10053,"Ġoxy":10054,"Ġsegment":10055,"ĠDO":10056,"Ġtraged":10057,"necess":10058,"Ġrepair":10059,"ĠLibrary":10060,"uter":10061,"arency":10062,"duction":10063,"ĠLeft":10064,"player":10065,"wa":10066,"Ġ120":10067,"Ġadequ":10068,"ĠKick":10069,"Ġpoison":10070,"alties":10071,"mir":10072,"ĠIM":10073,"Ġmargin":10074,"olving":10075,"istical":10076,"Ã±":10077,"Ġtut":10078,"ĠIron":10079,"Ġreserved":10080,"week":10081,"Ġtoxic":10082,"AF":10083,"Ġpocket":10084,"Ġhire":10085,"boys":10086,"Ġpunishment":10087,"oting":10088,"VE":10089,"ĠSom":10090,"Ġradiation":10091,"ĠOntario":10092,"Ġgene":10093,"tainment":10094,"java":10095,"Ġinsight":10096,"Ġtrends":10097,"Ġneighbors":10098,"Ġhospitals":10099,"Ġhelicop":10100,"2016":10101,"ĠPlace":10102,"ĠCreat":10103,"ĠWH":10104,"Ġdramatically":10105,"Ġciting":10106,"alysis":10107,"Ġinterviewed":10108,"Ġcommander":10109,"Ġathe":10110,"ĠGiants":10111,"Ġfabric":10112,"Ġarts":10113,"Ġshocked":10114,"Ġlect":10115,"Ġasset":10116,"Ġrecommendations":10117,"ï¼":10118,"ĠBow":10119,"Comm":10120,"Ġriding":10121,"Ġpresentation":10122,"Ġcock":10123,"ĠSci":10124,"Ġoutlets":10125,"Ġbuck":10126,"Ġcolour":10127,"Ġcommunicate":10128,"ental":10129,"Ġstere":10130,"rowing":10131,"Ġflour":10132,"Ġdistricts":10133,"FO":10134,"ds":10135,"achel":10136,"Ġsignals":10137,"00000000":10138,"Ġaims":10139,"Ġdiseases":10140,"Mod":10141,"Ms":10142,"gus":10143,"ĠSure":10144,"ĠEvent":10145,"ĠLibya":10146,"iac":10147,"atern":10148,"Ġdiplomatic":10149,"roph":10150,"ĠOcc":10151,"Ġintellig":10152,"Ġparad":10153,"Ġadopt":10154,"Ġ~":10155,"strong":10156,"Å£":10157,"Ġsed":10158,"aders":10159,"ĠHide":10160,"umph":10161,"Ġmetaph":10162,"Ġemployers":10163,"Ġaccompan":10164,"Ġridiculous":10165,"Ġtheories":10166,"Ġstro":10167,"Ġrolling":10168,"ĠExecutive":10169,"Ġsuperior":10170,"Ġremoval":10171,"Ġsetup":10172,"ĠRepresent":10173,"Ġpleased":10174,"Ġgest":10175,"Ġpatent":10176,"opyright":10177,"Earlier":10178,"itter":10179,"emic":10180,"Ġinvasion":10181,"Ġmoderate":10182,"Ġcoaching":10183,"Ġdisappointed":10184,"Ġplayoffs":10185,"ribed":10186,"ĠBoe":10187,"Ġinteraction":10188,"Ġinstances":10189,"ĠPhoenix":10190,"***":10191,"Ġencouraging":10192,"ĠCapitol":10193,"Ġdating":10194,"ĠAndre":10195,"Ġcheaper":10196,"2015":10197,"Ġacknowledge":10198,"olas":10199,"html":10200,"ĠMichel":10201,"hero":10202,"Ġlin":10203,"Ġecho":10204,"ibl":10205,"Ġboxes":10206,"eh":10207,"Ġobsc":10208,"ĠAlan":10209,"Ġdrunk":10210,"Ġburst":10211,"Mus":10212,"ĠJere":10213,"Ġprize":10214,"igration":10215,"Ġcoup":10216,"Ġtraveling":10217,"Ġow":10218,"ĠVen":10219,"Ġbacking":10220,"Ġ85":10221,"Ġmanufacturers":10222,"cur":10223,"Ġpill":10224,"Ġhanging":10225,"ĠTes":10226,"Name":10227,"Ġbeach":10228,"Ġdeployed":10229,"Ġprofessionals":10230,"Reg":10231,"Ġinsult":10232,"Ġconcerning":10233,"ĠMorgan":10234,"enezuel":10235,"Rem":10236,"Ġresolve":10237,"Ġexclud":10238,"div":10239,"eria":10240,"Ġcouples":10241,"Ġcorrectly":10242,"Ġecosystem":10243,"acre":10244,"eling":10245,"ĠEve":10246,"Ġarc":10247,"Ġorganisation":10248,"Ġsixth":10249,"Ġprospects":10250,"orneys":10251,"father":10252,"Ðº":10253,"Ġperception":10254,"Ġmaintenance":10255,"Ġcharity":10256,"rot":10257,"Dis":10258,"ĠON":10259,"ĠReagan":10260,"ĠCole":10261,"ĠMcK":10262,"Ġprompted":10263,"Out":10264,"Ġexport":10265,"Ġconcepts":10266,"Ġemotions":10267,"ĠAuthority":10268,"CO":10269,"Ġdeadline":10270,"Ġsessions":10271,"acher":10272,"Ġshirt":10273,"Ġscar":10274,"Ġsheet":10275,"Ġeliminate":10276,"ĠBrooklyn":10277,"hard":10278,"Ġanonymous":10279,"left":10280,"ĠDV":10281,"ĠRoll":10282,"arget":10283,"ĠShort":10284,"ĠPhill":10285,"ĠOrder":10286,"check":10287,"unicipal":10288,"Â°":10289,"isdom":10290,"istant":10291,"Ġcredits":10292,"Ġattractive":10293,"Ġweakness":10294,"Ġasylum":10295,"Book":10296,"Ġkiss":10297,"ulty":10298,"Ġrookie":10299,"erer":10300,"Ġgameplay":10301,"Ġathletes":10302,"Finally":10303,"ĠMess":10304,"ĠKal":10305,"Ġtempor":10306,"Ġutter":10307,"Ġfleet":10308,"Ġbutter":10309,"assy":10310,"Ġsignature":10311,"ceptions":10312,"Ġposting":10313,"Ġbias":10314,"Ġdisplayed":10315,"Ġfatal":10316,"ĠTrek":10317,"Ġminimal":10318,"rell":10319,"ĠWrit":10320,"Ġprinted":10321,"ĠSav":10322,"Ġcheese":10323,"Ġdesigner":10324,"Ġassociate":10325,"Ġbankrupt":10326,"Ġlifetime":10327,"Ġpsychological":10328,"Ġnose":10329,"ĠHoll":10330,"Ġeveryday":10331,"Ġapproaches":10332,"ĠOfficer":10333,"Ġvend":10334,"Ġscream":10335,"Äģ":10336,"ĠRun":10337,"ĠRather":10338,"fit":10339,"ighth":10340,"Ġjumped":10341,"Ġsurrounded":10342,"ĠMLS":10343,").[":10344,"ĠTherefore":10345,"Ġlanded":10346,"chell":10347,"market":10348,"Ġoccupied":10349,"Ġ1989":10350,"Ġmystery":10351,"Ġinspiration":10352,"Ã¨":10353,"Trans":10354,"ĠSheriff":10355,"Cal":10356,"NBC":10357,"Paul":10358,"Ġaccum":10359,"ĠReserve":10360,"ĠCharlie":10361,"lu":10362,"Ġknock":10363,"Ġgenre":10364,"Ġpreferred":10365,"GA":10366,"Ġescal":10367,"Ġoccasionally":10368,"Ġfel":10369,"Ġinstant":10370,"2014":10371,"Ġadvocate":10372,"Ġisolated":10373,"ĠGil":10374,"ĠHarper":10375,"hattan":10376,"->":10377,"oj":10378,"abet":10379,"Ġcarries":10380,"Ġmaintaining":10381,"Ġannoy":10382,"ĠOrlando":10383,"cott":10384,"rac":10385,"Ġstating":10386,"oca":10387,"ĠLim":10388,"Ġsolo":10389,"Ġperformances":10390,"Ġracing":10391,"Ġnu":10392,"ĠGiven":10393,"ĠDelhi":10394,"Ġinher":10395,"Ġowns":10396,"Ġearthqu":10397,"ĠWhether":10398,"ele":10399,"Ġspell":10400,"Ġmales":10401,"screen":10402,"annon":10403,"Next":10404,"QL":10405,"elle":10406,"Ġdefender":10407,"limited":10408,"Ġphysics":10409,"Ġconsiderable":10410,"rock":10411,"grade":10412,"Ġwitnesses":10413,"Ġembrace":10414,"ureauc":10415,"Ġexclusively":10416,"Ġingredients":10417,"ĠBi":10418,"ollar":10419,"Black":10420,"Ġvolunteers":10421,"Ġpunch":10422,"Ġdoct":10423,"Ġrefuse":10424,"Ġfights":10425,"rate":10426,"ĠMun":10427,"ublished":10428,"ĠRoger":10429,"Ġsli":10430,"Ġrend":10431,"Ġcorrupt":10432,"Ġloop":10433,"track":10434,"ĠMurray":10435,"Ġsubsequently":10436,"ĠChildren":10437,"Ġnotable":10438,"ĠYOU":10439,"Ġexpense":10440,"Ġmodified":10441,"ĠSupport":10442,"ĠCase":10443,"Ġdelight":10444,"ĠFive":10445,"bourne":10446,"has":10447,"atus":10448,"Ġconfused":10449,"media":10450,"Ġtalented":10451,"Ġinch":10452,"ĠBu":10453,"Ġarr":10454,"Ġcollaboration":10455,"ĠChannel":10456,"Ġimposed":10457,"Ġoppose":10458,"ATCH":10459,"Ġric":10460,"ĠEff":10461,"ĠThompson":10462,"Ġsuspic":10463,"Ġprosecutor":10464,"ĠSingapore":10465,"Ġbits":10466,"abies":10467,"izza":10468,"Ġcompensation":10469,"yes":10470,"ĠHal":10471,"ĠHand":10472,"missions":10473,"rend":10474,"ĠEver":10475,"appropri":10476,"Ġburied":10477,"ĠDigital":10478,"attered":10479,"Ġguests":10480,"ĠBarb":10481,"some":10482,"Ġgri":10483,"ĠFestival":10484,"ĠEntertainment":10485,"Gu":10486,"Net":10487,"Ġretro":10488,"HD":10489,"reck":10490,"ĠLink":10491,"Ġacceptable":10492,"early":10493,"Ġcorrel":10494,"Ġjournalism":10495,"Ġrevolutionary":10496,"isd":10497,"Ġintegrity":10498,"ĠWright":10499,"riors":10500,"ĠPitts":10501,"election":10502,"ĠJavaScript":10503,"Ùİ":10504,"income":10505,"Ġintegration":10506,"Ġcertific":10507,"Ġtear":10508,"ĠKnow":10509,"ĠZe":10510,"ĠAlliance":10511,"Ġdisappear":10512,"Ġinquiry":10513,"??":10514,"js":10515,"ĠTreasury":10516,"Ġtaxpayers":10517,"base":10518,"Ġlesson":10519,"adesh":10520,"starter":10521,"Ġreserv":10522,"Ġattending":10523,"ĠSteel":10524,"UST":10525,"Ġexplosion":10526,"inst":10527,"adgets":10528,"Ġcharging":10529,"Ġsits":10530,"owned":10531,"Ġembed":10532,"Ġexecuted":10533,"Instead":10534,"map":10535,"ĠFriend":10536,"Ġquit":10537,"gged":10538,"Ġstruggles":10539,"ĠPlayer":10540,"Ġmerch":10541,"ĠCould":10542,"ĠStaff":10543,"Ġamendment":10544,"Ġcriminals":10545,"Ġirre":10546,"Click":10547,"Ñĥ":10548,"Ġrefers":10549,"Ġeru":10550,"Israel":10551,"Ġvariables":10552,"Ġkidn":10553,"Ġswit":10554,"ĠLam":10555,"Ġrepresentation":10556,"Ġinterpretation":10557,"Ġfert":10558,"Ġunderground":10559,"Ġimpacts":10560,"Ġreferences":10561,"ĠMissouri":10562,"250":10563,"elling":10564,"Ġfails":10565,"Ġmeal":10566,"achment":10567,"Ġexpenses":10568,"Ġmomentum":10569,"Ġpregnant":10570,"Ġhip":10571,"ĠMA":10572,"Ġremoving":10573,"ĠLeban":10574,"Ġblocking":10575,"Ġperm":10576,"oub":10577,"ĠBol":10578,"Ġdominated":10579,"Ġrepeal":10580,"ĠWi":10581,"Ġ58":10582,"ĠClark":10583,"Ġsummit":10584,"ĠMontreal":10585,"ĠExp":10586,"ĠUsing":10587,"EF":10588,"Ġorient":10589,"commun":10590,"Ġentity":10591,"Ġhomosexual":10592,"ussell":10593,"Whe":10594,"vi":10595,"ĠBan":10596,"Ġexisted":10597,"Ġagreements":10598,"ĠEveryone":10599,"function":10600,"Ġdreams":10601,"Ġharsh":10602,"Ġupload":10603,"Thank":10604,"Ġpassword":10605,"Ġeconomics":10606,"ĠProtection":10607,"Ġstimul":10608,"Gl":10609,"via":10610,"ĠCPU":10611,"Ġinterior":10612,"Ġelectoral":10613,"Ġlabour":10614,"Ġguaranteed":10615,"NS":10616,"Ġterr":10617,"Ġbiological":10618,"Ġoccasional":10619,"Ġpoet":10620,"Ġspeculation":10621,"Ġanalysts":10622,"Ġentrance":10623,"Ġther":10624,"ishers":10625,"ĠML":10626,"Ġfundra":10627,"Ġlift":10628,"osa":10629,"Ġknife":10630,"Ġguid":10631,"iox":10632,"Ġcamps":10633,"2013":10634,"Ġtweets":10635,"acles":10636,"ĠPers":10637,"ĠWeiss":10638,"ĠNevada":10639,"LY":10640,"reated":10641,"Ġcabinet":10642,"ĠSEC":10643,"news":10644,"Ġnervous":10645,"ĠSa":10646,"ĠKings":10647,"Ġtremendous":10648,"Ġjunior":10649,"Ġguards":10650,"ĠArea":10651,"Ġconfusion":10652,"Ġdescribing":10653,"Ġacquis":10654,"Ġoutcomes":10655,"books":10656,"Ġcycl":10657,"Ġsoldier":10658,"Share":10659,"700":10660,"test":10661,"Ġteeth":10662,"ĠThings":10663,"Ġprofound":10664,"olid":10665,"Ġsteady":10666,"oft":10667,"stop":10668,"ĠBul":10669,"ĠStation":10670,"security":10671,"Ġloaded":10672,"ĠiPad":10673,"Ġmortgage":10674,"var":10675,"ĠGordon":10676,"ĠKit":10677,"ÅŁ":10678,"ĠJenn":10679,"Cor":10680,"oned":10681,"ĠMove":10682,"ĠDu":10683,"Ġcurious":10684,"Ġstrengthen":10685,"Ġbrutal":10686,"Gener":10687,"thur":10688,"ĠOx":10689,"bound":10690,"Ġ!":10691,"Ġbureauc":10692,"Ġholes":10693,"ĠArgent":10694,"ĠManhattan":10695,"Ġengaging":10696,"Ġkicked":10697,"Ġdependent":10698,"Ġinevitable":10699,"human":10700,"nan":10701,"Ġleaked":10702,"Ġjer":10703,"Ġintegrated":10704,"ĠStanford":10705,"ĠNazi":10706,"ĠGro":10707,"Ġally":10708,"Ġdesperate":10709,"JP":10710,"ĠPope":10711,"okÃ©":10712,"Ġuncon":10713,"Ġjustify":10714,"ĠChange":10715,"Ġevident":10716,"Ġcreatures":10717,"Ġpromotion":10718,"Ġhunting":10719,"Ġsophistic":10720,"Ġbacteria":10721,"AB":10722,"Ġstrip":10723,"ĠEdition":10724,"150":10725,"Ġancest":10726,"Ġhiring":10727,"Ġconcert":10728,"ĠFollowing":10729,"Ġconclus":10730,"ĠSpir":10731,"Ġyeah":10732,"oser":10733,"angle":10734,"ĠCommand":10735,"Ġlane":10736,"Ġadap":10737,"Ġbombing":10738,"Ġdies":10739,"llor":10740,"ĠCas":10741,"ĠOcean":10742,"riminal":10743,"leans":10744,"ĠLear":10745,"Ġforgotten":10746,"mble":10747,"Ġendors":10748,"ĠMountain":10749,"Ġ57":10750,"lihood":10751,"Ġ600":10752,"Ġartificial":10753,"town":10754,"Ġfingers":10755,"Ġlobb":10756,"Ġabstract":10757,"Ġwondering":10758,"dep":10759,"Ġflavor":10760,"Ġ62":10761,"Ġpackages":10762,"inite":10763,"Ġghost":10764,"Ġchips":10765,"iens":10766,"grad":10767,"âĢ¦.":10768,"ĠEgyptian":10769,"ĠPant":10770,"Ġconvert":10771,"agen":10772,"Ġ72":10773,"Ã§":10774,"Ġdeemed":10775,"ĠEb":10776,"Ġtower":10777,"Ġmile":10778,"Ġministers":10779,"Ġbreast":10780,"odge":10781,"Speaking":10782,"onz":10783,"Ġsurprisingly":10784,"Ã³n":10785,"Ġdual":10786,"Ġstack":10787,"ĠMail":10788,"agine":10789,"endar":10790,"ĠAnna":10791,"Ġpleasure":10792,"etheless":10793,"Ġgym":10794,"istle":10795,"Ġ1000":10796,"ials":10797,"Ġprovider":10798,"2012":10799,"Google":10800,"ĠHug":10801,"Ġflee":10802,"Ġsimultaneously":10803,"oga":10804,"ĠVenezuel":10805,"Ġnowhere":10806,"Ġregarded":10807,"Br":10808,"ĠHung":10809,"ĠHaving":10810,"ĠDuke":10811,"about":10812,"Ġdevelopments":10813,"utter":10814,"urse":10815,"apper":10816,"Ġpeaceful":10817,"may":10818,"Ġinaug":10819,"ĠUSB":10820,"block":10821,"Ġspeakers":10822,"Ġcomplexity":10823,"Ġbombs":10824,"instein":10825,"Ġprovisions":10826,"white":10827,"reshold":10828,"Ġcontrary":10829,"Ġkiller":10830,"bes":10831,"Ġventure":10832,"Ġpride":10833,"ĠConvention":10834,"Ġlibr":10835,"amine":10836,"ĠPage":10837,"Ġeditorial":10838,"Ġsurvived":10839,"Ġburned":10840,"rition":10841,"elve":10842,"ĠGard":10843,"Ġtrailer":10844,"Ġtorn":10845,"untu":10846,"ĠStudies":10847,"Bar":10848,"Time":10849,"ĠLes":10850,"Ġchip":10851,"ĠYah":10852,"Ġdropping":10853,"Ġbriefly":10854,"Ġreluct":10855,"ĠMarine":10856,"Ġoxygen":10857,"izarre":10858,"Ġunre":10859,"Ġrecalled":10860,"ĠUnivers":10861,"Ġhosts":10862,"Ġcognitive":10863,"nie":10864,"ĠSN":10865,"ĠBond":10866,"Ġvit":10867,"ĠGib":10868,"ĠBelow":10869,"Ġagriculture":10870,"Pal":10871,"ante":10872,"ĠET":10873,"MAN":10874,"gate":10875,"Ġnurs":10876,"Ġdecor":10877,"Ġ66":10878,"Ġpassenger":10879,"Ġfigured":10880,"?âĢĻ":10881,"million":10882,"Ġdiver":10883,"ĠDream":10884,"ĠNone":10885,"ĠAbu":10886,"Ġepic":10887,"ĠSource":10888,"ĠGh":10889,"Ġsake":10890,"Ġchecking":10891,"Ġpacked":10892,"Ġattracted":10893,"imize":10894,"ĠLater":10895,"Ġleak":10896,"oop":10897,"ĠØ":10898,"Ġconsecut":10899,"ĠDal":10900,"Ġinfluential":10901,"Ġmurdered":10902,"Ġchaos":10903,"DR":10904,"Ġbands":10905,"Ġforum":10906,"Ġoperator":10907,"ĠOnline":10908,"ĠHan":10909,"ĠDur":10910,"opt":10911,"ouses":10912,"Ġunnecess":10913,"Ġdesp":10914,"ĠSoft":10915,"ãģ®":10916,"uther":10917,"ĠRow":10918,"ĠRome":10919,"Ġboom":10920,"ĠOrleans":10921,"Ġchoosing":10922,"idal":10923,"Ġexpecting":10924,"ĠEdit":10925,"Ġdiam":10926,"Ġroutes":10927,"TERS":10928,"ĠCS":10929,"Ġproportion":10930,"ocated":10931,"Ġflav":10932,"isms":10933,"Red":10934,"ĠÙ":10935,"ĠBC":10936,"Ġprobe":10937,"istically":10938,"HT":10939,"Ġda":10940,"ailable":10941,"Ġslot":10942,"looking":10943,"Ġmotivated":10944,"Ġfucking":10945,"ewart":10946,"Hey":10947,"ĠStandard":10948,"Ġtragedy":10949,"Right":10950,"Ġbelt":10951,"Ġ/>":10952,"Ġrobust":10953,"Ġresearcher":10954,"ĠRaj":10955,"ĠVlad":10956,"ĠAdams":10957,"ĠQuest":10958,"Ġresidential":10959,"Ġdesktop":10960,"Ġbases":10961,"oup":10962,"struct":10963,"ĠYan":10964,"Ġchallenged":10965,"Ġvert":10966,"Ġtheft":10967,"ĠFuture":10968,"Ġvisits":10969,"Ġtransparency":10970,"oning":10971,"imir":10972,"ĠSche":10973,"ĠCanadians":10974,"ippi":10975,"zone":10976,"ĠAren":10977,"Ġassembly":10978,"Ġrestore":10979,"Ġparks":10980,"Ġsinger":10981,"ĠRobinson":10982,"List":10983,"link":10984,"Ġbone":10985,"ĠDak":10986,"Station":10987,"ĠTaiwan":10988,"hr":10989,"Ġtears":10990,"err":10991,"Ġprol":10992,"Ġlean":10993,"aste":10994,"Ġoutstanding":10995,"ĠBeing":10996,"irates":10997,"Ġevolved":10998,"Ġtelephone":10999,"ols":11000,"ĠHIV":11001,"Ġdocumented":11002,"Ġlifestyle":11003,"ĠSin":11004,"ĠWould":11005,"rior":11006,"Ġcontroller":11007,"Ġbatter":11008,"words":11009,"âĤ¬":11010,"ĠAaron":11011,"ĠUb":11012,"Ġsubtle":11013,"Ġavo":11014,"asm":11015,"Ġ800":11016,"WA":11017,"Ġbulk":11018,"Ġtum":11019,"Ġ63":11020,"Ġmilitants":11021,"Ġprosecution":11022,"Ġintimid":11023,"Ġreass":11024,"Ġconcentration":11025,"ĠKa":11026,"Ġmonster":11027,"ĠNether":11028,"non":11029,"Ġought":11030,"Ġcigare":11031,"ĠMother":11032,"ĠDor":11033,"Ġhes":11034,"Ġenfor":11035,"Ġfilter":11036,"Ġfu":11037,"Ġkeen":11038,"2017":11039,"ĠSU":11040,"Ġneighborhoods":11041,"Ġshelter":11042,"ĠAntonio":11043,"Car":11044,"uates":11045,"ĠJun":11046,"Ġ59":11047,"Ġpanels":11048,"Ġclosest":11049,"Ġpresents":11050,"Ġconfiguration":11051,"Ġcompromise":11052,"Ġsynd":11053,"ĠWikipedia":11054,"ĠCR":11055,"Ġattorneys":11056,"Ġorganis":11057,"Ġshops":11058,"Ġcontinu":11059,"Ġopposing":11060,"Ġcharacteristics":11061,"ĠResp":11062,"Ġoccasion":11063,"wind":11064,"ĠHamp":11065,"una":11066,"ubs":11067,"Ġbacks":11068,"ĠUnlike":11069,"former":11070,"Ġtransferred":11071,"ĠSnowden":11072,"ĠPittsburgh":11073,"gal":11074,"Ñı":11075,"Ġbarg":11076,"ĠNature":11077,"Ġscrew":11078,"Ġelectron":11079,"Ġapplies":11080,"ĠMPs":11081,"ĠSummer":11082,"anim":11083,"Ġbags":11084,"ĠPsych":11085,"Ġevac":11086,"ĠShould":11087,"Ġcomplained":11088,"Ġfunctionality":11089,"ĠModi":11090,"breaking":11091,"Ġuncertainty":11092,"rifice":11093,"otte":11094,"msg":11095,"Ġraises":11096,"Ġproductive":11097,"Ġcourtesy":11098,"Ġadoption":11099,"Ġexplicitly":11100,"ĠAy":11101,"forward":11102,"ilst":11103,"Three":11104,"Ġranking":11105,"Ġcens":11106,"Ġassemb":11107,"ĠHad":11108,"ĠCON":11109,"Ġexpects":11110,"cap":11111,"Ġaccord":11112,"Fl":11113,"good":11114,"Ġwise":11115,"ĠThink":11116,"Ġrecovered":11117,"puter":11118,"ĠMorris":11119,"ĠUkrainian":11120,"Ġsubscribe":11121,"Ġgig":11122,"Ġscared":11123,"rators":11124,"Ġanalys":11125,"Ġconsecutive":11126,"Ġinteractions":11127,"ART":11128,"Gr":11129,"icating":11130,"being":11131,"ĠMississ":11132,"Ġdepartments":11133,"Ġhouseholds":11134,"ĠCollins":11135,"ĠPhilippines":11136,"Ġwedding":11137,"ĠFather":11138,"Ġorbit":11139,"ĠModel":11140,"ĠCorporation":11141,"Ġmice":11142,"ĠWarner":11143,"ĠMoreover":11144,"Ġrefugee":11145,"ĠWy":11146,"Ġvent":11147,"ĠOil":11148,"Ġengagement":11149,"Ġpromoted":11150,"Ġcooking":11151,"Ġgraphic":11152,"cat":11153,"Ġbeta":11154,"Ġmart":11155,"Ġinbox":11156,"Inter":11157,"ĠAndy":11158,"Ġhandled":11159,"Ġcaps":11160,"Ġnationwide":11161,"Ġautomatic":11162,"ĠChairman":11163,"?)":11164,"Ġalliance":11165,"Ġfiling":11166,"Ġ);":11167,"SL":11168,"mented":11169,"Ġsuck":11170,"ĠOpp":11171,"Ġmirror":11172,"ĠIV":11173,"Ġpolling":11174,"ampa":11175,"Obama":11176,"pg":11177,"inge":11178,"leep":11179,"Ġpreserve":11180,"Former":11181,"Ġkeyboard":11182,"pack":11183,"Ġcinem":11184,"ĠPear":11185,"Ġassists":11186,"ĠIndones":11187,"scar":11188,"Ġconviction":11189,"Ġrenewable":11190,"Ġimpressed":11191,"Ġpatri":11192,"ĠGrant":11193,"Ġjurisd":11194,"Ġmic":11195,"immer":11196,"Ġrecession":11197,"Ġdefended":11198,"Ġplanes":11199,"ĠLouisiana":11200,"ĠCoalition":11201,"Ġinhab":11202,"Ġheaven":11203,"ĠBor":11204,"ĠBand":11205,"user":11206,"ĠLevel":11207,"Ġpolitician":11208,"ĠSteam":11209,"Ġquantum":11210,"DB":11211,"Ġ`":11212,"Ġwet":11213,"Ġblamed":11214,"Ġexploration":11215,"ĠNothing":11216,"ĠReds":11217,"Ġfires":11218,"ĠTotal":11219,"ĠJane":11220,"ĠReddit":11221,"Ġlayers":11222,"Ġrobots":11223,"Ġgarden":11224,"aments":11225,"Ġsimilarly":11226,"Ġangle":11227,"cal":11228,"desc":11229,"ĠPokÃ©":11230,"ĠLad":11231,"ĠJerry":11232,"Ġdecrease":11233,"ĠHitler":11234,"Ġlens":11235,"ĠBir":11236,"ĠEst":11237,"Ġinfluenced":11238,"ĠOttawa":11239,"Ġdestination":11240,"ĠDragon":11241,"ĠOthers":11242,"Ġproduces":11243,"Ġsexually":11244,"Ben":11245,"overs":11246,"ping":11247,"rike":11248,"Ġhappiness":11249,"ĠFilm":11250,"uating":11251,"Ġdressed":11252,"ĠBM":11253,"friendly":11254,"Ġconvenient":11255,"Ġdetention":11256,"Ġengines":11257,"Ġpublish":11258,"Ġcops":11259,"Ġaccepting":11260,"dog":11261,"ĠWhit":11262,"ricane":11263,"GO":11264,"such":11265,"âĢĲ":11266,"unity":11267,"Ġbrands":11268,"Ġdisappeared":11269,"Ġignor":11270,"bat":11271,"ĠEPA":11272,"Ġconsists":11273,"Ġsenators":11274,"Ġsilent":11275,"Further":11276,"Ġbump":11277,"leading":11278,"ĠNi":11279,"Ġmodest":11280,"Ġreleasing":11281,"Ġadvent":11282,"Ġcreature":11283,"Ġbeaten":11284,"Ġsolely":11285,"graph":11286,"ikh":11287,"shore":11288,"fortable":11289,"Ġsustained":11290,"Ġjihad":11291,"rying":11292,"Ġdesert":11293,"Ġqualified":11294,"Ġdeparture":11295,"Ġpledge":11296,"ĠBaker":11297,"Ġdonors":11298,"century":11299,"offs":11300,"ĠType":11301,"aucus":11302,"ĠTesla":11303,"ateful":11304,"Ġimprison":11305,"ophob":11306,"Perhaps":11307,"Supp":11308,"ĠFA":11309,"ĠOR":11310,"Ġdisabled":11311,"Ġcleared":11312,"Ġaccompanied":11313,"Ġtheater":11314,"Ġreign":11315,"ĠSH":11316,"Ġchocolate":11317,"Ġflights":11318,"arson":11319,"Ġprojected":11320,"Ġlaunching":11321,"citation":11322,"lied":11323,"ĠTam":11324,"terror":11325,"arded":11326,"Ġpainting":11327,"Ġvolunt":11328,"Ġrifle":11329,"ĠNorm":11330,"icked":11331,"Ġidentical":11332,"Ġbother":11333,"Ġpublisher":11334,"ĠForest":11335,"Ġdimin":11336,"Ġcompelling":11337,"Ġbeef":11338,"Ġpremie":11339,"SE":11340,"gly":11341,"rup":11342,"Ġinsist":11343,"Ġoperated":11344,"ĠPoland":11345,"ĠGriff":11346,"Ġconstructed":11347,"Ġmeth":11348,"Ġtechnological":11349,"Ġresemb":11350,"owski":11351,"Ġpodcast":11352,"Ġawards":11353,"Ġbol":11354,"ĠHu":11355,"Ġsauce":11356,"Ġaffects":11357,"fish":11358,"Ġovernight":11359,"Ġelabor":11360,"Ġchecked":11361,"ĠPerry":11362,"Ġalgorithm":11363,"Ġguidance":11364,"IO":11365,"Ġpour":11366,"ĠSeveral":11367,"seless":11368,"Yeah":11369,"Ġpolar":11370,"olitan":11371,"kes":11372,"chron":11373,"ĠPosts":11374,"first":11375,"ĠCold":11376,"ĠChristopher":11377,"Ġarrests":11378,"Ġemphasis":11379,"wich":11380,"armed":11381,"Ġbears":11382,"Ġsurge":11383,"Ġbene":11384,"Ġcaution":11385,"Ġpraised":11386,"vas":11387,"ĠLog":11388,"ardo":11389,"Ġinnovative":11390,"Ġfut":11391,"Ġfits":11392,"Ġgut":11393,"usting":11394,"Ġamongst":11395,"Ġadministrative":11396,"ĠRaid":11397,"Ġheadlines":11398,"ĠCorp":11399,"Good":11400,"Ġranging":11401,"ĠManning":11402,"ASH":11403,"ĠFinancial":11404,"Ġiconic":11405,"omic":11406,"Ġgolf":11407,"ĠDa":11408,"onduct":11409,"ockets":11410,"Ġluxury":11411,"laim":11412,"Ġrewards":11413,"Ġteammates":11414,"Ġcourage":11415,"Ġinvested":11416,"ĠFlash":11417,"di":11418,"ĠMarg":11419,"Ġrivals":11420,"Ġchamber":11421,"Ġprivilege":11422,"ðŁ":11423,"rah":11424,"Ġgolden":11425,"hyth":11426,"ĠVictoria":11427,"MB":11428,"orical":11429,"Ġinex":11430,"Ġwhis":11431,"ĠBart":11432,"Ġenabled":11433,"merce":11434,"Ġentities":11435,"Ġworship":11436,"Ġmanual":11437,"Ġslide":11438,"Ġdestro":11439,"hill":11440,"ĠChampions":11441,"Ġrolled":11442,"ixel":11443,"ĠReid":11444,"ĠAlaska":11445,"ĠDeb":11446,"too":11447,"Ġcompetitors":11448,"rons":11449,"istance":11450,"ĠRs":11451,"eren":11452,"Ġemployer":11453,"bitious":11454,"Ġreflects":11455,"ĠThird":11456,"Ġspotted":11457,"Ġacted":11458,"Ġnights":11459,"ĠNaz":11460,"Ġtent":11461,"Ġproductivity":11462,"cular":11463,"opp":11464,"isode":11465,"leted":11466,"ĠHoly":11467,"ĠGill":11468,"Ġdrinks":11469,"ĠNetherlands":11470,"code":11471,"reek":11472,"ĠAlp":11473,"ĠSwedish":11474,"Ġsafely":11475,"Ġcourses":11476,"Ġtel":11477,"Ġtissue":11478,"aco":11479,"Ġarena":11480,"Ġviolated":11481,"Ġawful":11482,"Ġunfortunately":11483,"Michael":11484,"Ġwore":11485,"ulse":11486,"Ġliberty":11487,"olitical":11488,"Ġreck":11489,"Ġcounties":11490,"Ġhighway":11491,"Ġglobe":11492,"vironments":11493,"kward":11494,"Ġquietly":11495,"piece":11496,"Ġbeneath":11497,"ĠMap":11498,"ĠPa":11499,"ques":11500,"Ġlegislature":11501,"Ġmigration":11502,"ĠDA":11503,"ressing":11504,"comp":11505,"Ġpossibilities":11506,"Ġprotections":11507,"Ġ1988":11508,"Ġexamine":11509,"Ġscrutiny":11510,"Each":11511,"large":11512,"aro":11513,"ĠFO":11514,"Ġorange":11515,"Ġseeks":11516,"urities":11517,"assion":11518,"Ġcolleg":11519,"Ġrealistic":11520,"Ġbathroom":11521,"rics":11522,"ĠBlood":11523,"Ġmissiles":11524,"Ġaccuracy":11525,"ĠSD":11526,"ĠEnt":11527,"Ġconflicts":11528,"ĠJeremy":11529,"ĠRussell":11530,"ĠNa":11531,"Ġhorrible":11532,"conscious":11533,"Did":11534,"Ġbip":11535,"Ġpy":11536,"Ġanonym":11537,"Ġduration":11538,"llers":11539,"Ġvoc":11540,"Ġchronic":11541,"Ġinterven":11542,"government":11543,"Ġoccasions":11544,"ĠJimmy":11545,"fi":11546,"tte":11547,"ĠKl":11548,"ĠDisc":11549,"Ġcriteria":11550,"ĠImm":11551,"ĠCampbell":11552,"Ġbizarre":11553,"Ġdirty":11554,"ĠLuke":11555,"ĠVar":11556,"eller":11557,"ĠComics":11558,"Ġreviewed":11559,"Ġmysterious":11560,".]":11561,"CD":11562,"uri":11563,"ĠRap":11564,"ĠDeep":11565,"coins":11566,"Ġboards":11567,"ĠRussians":11568,"Ġcease":11569,"ĠContinue":11570,"Ġaccusations":11571,"Ġtheoret":11572,"aukee":11573,"anyahu":11574,"Ġdesignated":11575,"Ġparticipating":11576,"dict":11577,"esides":11578,"Ġstatic":11579,"rencies":11580,"Ġlibert":11581,"ĠMedicare":11582,"Ġoccupation":11583,"ĠTs":11584,"Ġabsurd":11585,"ĠPlayStation":11586,"winning":11587,"Ġhunt":11588,"ĠDog":11589,"ĠGPU":11590,"Ġalert":11591,"ĠUI":11592,"Ġlongtime":11593,"Ġmeters":11594,"keley":11595,"Ġdelayed":11596,"ĠIndependent":11597,"Ġintelligent":11598,"Em":11599,"wart":11600,"otion":11601,"Ġconced":11602,"ĠRest":11603,"Ġquestioning":11604,"Only":11605,"Ġcollecting":11606,"ĠNap":11607,"Ġresort":11608,"Ġcountless":11609,"aha":11610,"Ġposter":11611,"Ġaddressing":11612,"Ġintrig":11613,"neg":11614,"Ġinvestigated":11615,"Ġradar":11616,"Ġgentle":11617,"Ġfer":11618,"ĠEmer":11619,"Ġregret":11620,"Ġ68":11621,"ĠBeat":11622,"omach":11623,"Among":11624,"KE":11625,"Ġriders":11626,"ĠNash":11627,"Ġmeanwhile":11628,"Ġ1984":11629,"anguage":11630,"Ġseparated":11631,"EMENT":11632,"uccess":11633,"}}":11634,"Ġtu":11635,"ĠLen":11636,"Ġrelie":11637,"Ġphotographs":11638,"Ġbubble":11639,"ĠCowboys":11640,"atre":11641,"alid":11642,"Ġlyr":11643,"Ġfavourite":11644,"Ġpainful":11645,"ĠQuebec":11646,"ĠCraig":11647,"izations":11648,"ĠProduct":11649,"China":11650,"ĠPeace":11651,"Ġdevastating":11652,"ĠAw":11653,"Ġviewing":11654,"Check":11655,"ben":11656,"itate":11657,"Ġislands":11658,"Ġannually":11659,"Ġimmune":11660,"Ġstopping":11661,"ĠEverything":11662,"Ġcombine":11663,"Ġcrossed":11664,"Ġverify":11665,"Ġsuspension":11666,"ĠHotel":11667,"CP":11668,"Ġpose":11669,"ĠNiger":11670,"Ġformula":11671,"Ġballs":11672,"waukee":11673,"orate":11674,"Ġthreshold":11675,"ching":11676,"Ġcurve":11677,"Republic":11678,"Jo":11679,"Ġrestricted":11680,"ĠMind":11681,"ĠFact":11682,"iah":11683,"Ġ1986":11684,"ĠPortug":11685,"Following":11686,"Ġsophisticated":11687,"size":11688,"ĠSong":11689,"Ġdetained":11690,"Ġ''":11691,"Ġexcuse":11692,"Ġcircuit":11693,"Ġsupposedly":11694,"Ġelectrical":11695,"arently":11696,"Ġ1979":11697,"Ġaccomplished":11698,"master":11699,"Ġtension":11700,"aman":11701,"Ġbackup":11702,"Ġdocumentation":11703,"Ġconverted":11704,"ĠSport":11705,"ĠHub":11706,"ĠRangers":11707,"Ġoverd":11708,"Ġexperimental":11709,"bably":11710,"Ġwisdom":11711,"ĠMand":11712,"incial":11713,"ĠIRS":11714,"Ġreplacing":11715,"Ġexploit":11716,"ĠTokyo":11717,"Ġthro":11718,"Ġcomed":11719,"ĠLarry":11720,"ĠKnight":11721,"ĠParker":11722,"Ps":11723,"Ġtale":11724,"Ġhiding":11725,"Ġlady":11726,"ĠLions":11727,"Ġoverl":11728,"awks":11729,"Ġcommentary":11730,"Ġstir":11731,"ersion":11732,"Ġmeets":11733,"Ġspray":11734,"ierre":11735,"Ġlighting":11736,"ifier":11737,"ĠWard":11738,"ERE":11739,"Ġcreator":11740,"Ġ1987":11741,"atal":11742,"beat":11743,"incinn":11744,"Ġpreventing":11745,"Ġnewsletters":11746,"natural":11747,"Ġendless":11748,"ernel":11749,"Ġspeeds":11750,"Ġexamined":11751,"Ġforestry":11752,"Ġobservations":11753,"Ġvenue":11754,"Ġwrap":11755,"aba":11756,"Ġpm":11757,"ĠPH":11758,"Ġdrum":11759,"iors":11760,"Ġsons":11761,"ĠStock":11762,"Ġimpose":11763,"Ġ67":11764,"ocur":11765,"ĠStewart":11766,"Ġfinishing":11767,"product":11768,"ĠHampshire":11769,"file":11770,"ori":11771,"Ġmouse":11772,"ĠGa":11773,"ĠKr":11774,"Ġthemes":11775,"Ġappearing":11776,"Ġlogical":11777,"Ġgrave":11778,"Ġalign":11779,"itement":11780,"Ġsecular":11781,"Bel":11782,"Ġash":11783,"ĠRain":11784,"Ġworlds":11785,"incinnati":11786,"owder":11787,"Ġchap":11788,"ĠPhys":11789,"Ġpressing":11790,"Ġcrowds":11791,"Unfortunately":11792,"Ġhonestly":11793,"Ġmandate":11794,"ĠFergus":11795,"pot":11796,"Ġtune":11797,"ĠLady":11798,"Ġtrains":11799,"ryption":11800,"Ġwinners":11801,"Ġfrustration":11802,"Ġspy":11803,"ugby":11804,"Ġparameters":11805,"Ġmisc":11806,"Ġlun":11807,"Ġambitious":11808,"Ġoldest":11809,"Ġchemicals":11810,"ĠHawaii":11811,"ĠMormon":11812,"ĠNik":11813,"ĠMcDonald":11814,"Ġ1985":11815,"profile":11816,"ĠWayne":11817,"Ġexchanges":11818,"ĠDrug":11819,"ighting":11820,"bery":11821,"Ġrebel":11822,"ĠMarshall":11823,"Bre":11824,"CT":11825,"drop":11826,"pin":11827,"ĠNelson":11828,"ivan":11829,"Ġenvironments":11830,"oyd":11831,"Ġdealt":11832,"Ġprevented":11833,"Ġpraise":11834,"Ġtraded":11835,"Ġaltogether":11836,"Ġwireless":11837,"Ġorientation":11838,"Ġtends":11839,"Ġvoid":11840,"Ġcelebrated":11841,"Ġbugs":11842,"Ġpreparation":11843,"ND":11844,"ĠElection":11845,"Ġsupplement":11846,"ĠCorps":11847,"lib":11848,"Ġanimation":11849,"ĠRobin":11850,"Ġappointment":11851,"Ġwalks":11852,"Ġdelegates":11853,"UD":11854,"isive":11855,"Ġpartially":11856,"Ġstartup":11857,"bu":11858,"rin":11859,"ĠAwards":11860,"Ġindication":11861,"Ġequipped":11862,"Ġpension":11863,"Ġcoins":11864,"ĠDean":11865,"ĠArkansas":11866,"Ġtoss":11867,"ĠSessions":11868,"Ġviable":11869,"ĠLocal":11870,"Ġ61":11871,"Ġantib":11872,"arios":11873,"ĠOlympics":11874,"gi":11875,"tics":11876,"alin":11877,"Ġmakers":11878,"ilation":11879,"oda":11880,"Ġcommands":11881,"Ġexploring":11882,"Ġoperators":11883,"Ġhosting":11884,"Ġambassador":11885,"ĠRonald":11886,"Ġabund":11887,"Ġadj":11888,"Ġpredec":11889,"ĠMelbourne":11890,"Ġpermitted":11891,"Ġpricing":11892,"Ġcrossing":11893,"Ġcatast":11894,"Ġdemonstration":11895,"Ġshooter":11896,"CAA":11897,"Ġdiscipline":11898,"Big":11899,"Ġindu":11900,"ĠFig":11901,"Ġfrustrated":11902,"ĠMitchell":11903,"Mart":11904,"Ġdeserves":11905,"Ġbuilds":11906,"Ġincorrect":11907,"Ġmechanisms":11908,"Ġfascinating":11909,"Ġtoile":11910,"Ġcompr":11911,"Ġcomposed":11912,"lected":11913,"Ġearning":11914,"Ġoperational":11915,"Ġcoordinator":11916,"Ġlone":11917,"Ġreactions":11918,"ĠNich":11919,"ĠOw":11920,"Ġsentences":11921,"Ġtraveled":11922,"ĠMagazine":11923,"ĠStanley":11924,"del":11925,"Ġanch":11926,"ĠFant":11927,"elcome":11928,"Ġbitter":11929,"Ġsignificance":11930,"ĠProfile":11931,"ĠAlberta":11932,"Down":11933,"lesh":11934,"Ġdamn":11935,"ĠKurdish":11936,"Ġlaptop":11937,"Ġmunicipal":11938,"ello":11939,"ATION":11940,"Ġfishing":11941,"Ġmm":11942,"aya":11943,"ailing":11944,"erald":11945,"ambling":11946,"Ġpending":11947,"Ġfaculty":11948,"Ġsacrifice":11949,"Ġfo":11950,"Ġstats":11951,"ipher":11952,"Ġcarrier":11953,"Maybe":11954,"Ġuncomfortable":11955,"Euro":11956,"iper":11957,"Ġforb":11958,"Ġcommod":11959,"Ġcapability":11960,"ĠCommissioner":11961,"ĠOrganization":11962,"hl":11963,"ĠJets":11964,"Ġcoin":11965,"ĠCloud":11966,"Ġinfant":11967,"ĠFederation":11968,"Ġpregnancy":11969,"mn":11970,"asted":11971,"Ġsinging":11972,"Ġensuring":11973,"Ġagricultural":11974,"arians":11975,"ĠNO":11976,"ĠLie":11977,"Ġinstantly":11978,"Ġawkward":11979,"âĢĿ)":11980,"ĠStorm":11981,"Ġ360":11982,"Mon":11983,"World":11984,"erving":11985,"Ġwound":11986,"Ġreserve":11987,"ĠClar":11988,"Ġreflected":11989,"Ġtanks":11990,"charg":11991,"Ġadvocacy":11992,"Ġflew":11993,"ĠFurthermore":11994,"Ġdisplays":11995,"gence":11996,"named":11997,"Ġwitnessed":11998,"Ġconfirmation":11999,"Ġsuprem":12000,"Ġrevenues":12001,"Ġgrants":12002,"ĠMadrid":12003,"Ac":12004,"ĠPoll":12005,"Ġsupporter":12006,"Ġsocialist":12007,"Ġavailability":12008,"Ġsuggestions":12009,"ĠQueens":12010,"Ġaggression":12011,"ĠCry":12012,"Ġseeds":12013,"elled":12014,"Ġsuggestion":12015,"Ġcitizenship":12016,"Second":12017,"uably":12018,"story":12019,"abling":12020,"ĠGene":12021,"Ġadvised":12022,"Ġcontrolling":12023,"Ġlibraries":12024,"ĠCitiz":12025,"ugs":12026,"Ġtrips":12027,"Ġpoorly":12028,"utt":12029,"quer":12030,"Ġinfection":12031,"Ġcomplain":12032,"ĠMississippi":12033,"Med":12034,"Several":12035,"bin":12036,"ĠSA":12037,"ĠCL":12038,"Ġaspir":12039,"Their":12040,"Ġpeer":12041,"ĠArts":12042,"2010":12043,"ucker":12044,"ĠManager":12045,"Ġprosper":12046,"Ġboundaries":12047,"ĠJacob":12048,"ĠDest":12049,"accept":12050,"ĠWord":12051,"Ġjokes":12052,"Ġresidence":12053,"Ġtablet":12054,"Att":12055,"TO":12056,"oa":12057,"Ġduties":12058,"ĠAFP":12059,"Ġdivorce":12060,"ĠFCC":12061,"ologically":12062,"Ġcalculated":12063,"Ġhacking":12064,"Ġimperial":12065,"Ġtill":12066,"Ġtob":12067,"Ġstun":12068,"ĠBiden":12069,"orer":12070,"Ġsentiment":12071,"lynn":12072,"Ġdensity":12073,"Ġlung":12074,"outing":12075,"arer":12076,"anches":12077,"Ġpatrol":12078,"Ġgradually":12079,"ĠFerguson":12080,"Ġessay":12081,"ĠMulti":12082,"Ġremembered":12083,"when":12084,"Ġstunning":12085,"Ġorg":12086,"ĠJa":12087,"ĠChristie":12088,"vious":12089,"acular":12090,"Ġstomach":12091,"Ġshorter":12092,"ĠCommons":12093,"Ġyard":12094,"ĠJess":12095,"Ġrelatives":12096,"Ġmechanics":12097,"ĠFranklin":12098,"ĠSciences":12099,"dec":12100,"two":12101,"Ġdil":12102,"ĠSection":12103,"ĠBenn":12104,"ĠHans":12105,"ĠFR":12106,"Ġscratch":12107,"Ġzones":12108,"ĠModern":12109,"founder":12110,"ĠVladimir":12111,"reation":12112,"leton":12113,"Ġdrones":12114,"Ġexperiencing":12115,"bet":12116,"Ġineff":12117,"osit":12118,"ĠInn":12119,"Ġdistribut":12120,"char":12121,"Ġinterrupt":12122,"Ġrespected":12123,"ĠLynch":12124,"ĠPatriots":12125,"ĠKickstarter":12126,".),":12127,"ĠSE":12128,"ĠCrit":12129,"ĠDrive":12130,"outheast":12131,"Ġadvertisement":12132,"Ġoffseason":12133,"ĠClimate":12134,"Ġconservation":12135,"Ġgreenhouse":12136,"Ġlimitations":12137,"Ġassumption":12138,"zb":12139,"Ġinsect":12140,"Ġstressed":12141,"ĠBlock":12142,"Ġcircles":12143,"Ġtoug":12144,"Ġinstallation":12145,"Ġcruel":12146,"icut":12147,"Ġpriest":12148,"Ġsleeping":12149,"ĠAgainst":12150,"cup":12151,"ĠMas":12152,"ĠFisher":12153,"ĠChrome":12154,"udeau":12155,"Ġdefenders":12156,"oria":12157,"anded":12158,"oples":12159,"Ġsummary":12160,"Ġtendency":12161,"Ġdelivering":12162,"Ġnewspapers":12163,"arenthood":12164,"because":12165,"784":12166,"Ġcrown":12167,"ĠMuch":12168,"ateur":12169,"ĠWiz":12170,"unct":12171,"ĠCongressional":12172,"ĠKirk":12173,"CNN":12174,"IE":12175,"Ġsher":12176,"Ġalike":12177,"Ġpays":12178,"ĠFle":12179,"Ġapplying":12180,"ĠVin":12181,"Ġprobability":12182,"La":12183,"wid":12184,"ims":12185,"Ġdirections":12186,"Ġreceives":12187,"ĠNetanyahu":12188,"ĠÃ®":12189,"Ġbabies":12190,"Ġwhites":12191,"Ġserial":12192,"Ġfemales":12193,"ĠHTML":12194,"War":12195,"bles":12196,"brew":12197,"fs":12198,"ĠRh":12199,"abel":12200,"Ġprocessor":12201,"Ġdevoted":12202,"Eng":12203,"ĠPel":12204,"Ġritual":12205,"ĠHuff":12206,"Ġjet":12207,"ĠMotor":12208,"ighed":12209,"ĠCrown":12210,"Ġabort":12211,"pling":12212,"Ġfastest":12213,"appropriate":12214,"Ġhearts":12215,"orig":12216,"ĠBuilding":12217,"ĠTrue":12218,"Ġeditors":12219,"Ġdistant":12220,"Ġenjoying":12221,"Ġattendance":12222,"Ġbio":12223,"Ġbones":12224,"urches":12225,"RED":12226,"Ġbonds":12227,"fold":12228,"ĠTob":12229,"Ġhaz":12230,"ĠNative":12231,"ĠED":12232,"ousing":12233,"Ġcontents":12234,"Ġdemo":12235,"Ġtreaty":12236,"Ġconversion":12237,"Ġspreading":12238,"Ġsizes":12239,"ected":12240,"Ġscary":12241,"Ġbalanced":12242,"Ġtempt":12243,"requ":12244,"icts":12245,"Ġsatisfied":12246,"Figure":12247,"ĠDraft":12248,"thal":12249,"ovie":12250,"ACK":12251,"ĠLawrence":12252,"ĠJamie":12253,"western":12254,"Ġbicy":12255,"Ġpowered":12256,"Ġdispar":12257,"Ġpreview":12258,"Ġaddiction":12259,"ĠOrange":12260,"ĠChristianity":12261,"ĠLiberty":12262,"Ġhighlighted":12263,"rc":12264,"Ġnaked":12265,"rait":12266,"ĠKy":12267,"comed":12268,"White":12269,"Ġfocuses":12270,"Ġrespective":12271,"Ġrevealing":12272,"specific":12273,"ĠArena":12274,"FS":12275,"Ġturb":12276,"Ġactress":12277,"Ġcorn":12278,"Ġillegally":12279,"ĠMalays":12280,"Ġmarginal":12281,"jan":12282,"rank":12283,"Ġprayer":12284,"DAY":12285,"Ġexpertise":12286,"mid":12287,"ĠNS":12288,"Ġresigned":12289,"econom":12290,"Ġmonetary":12291,"liver":12292,"ĠScar":12293,"IST":12294,"flow":12295,"ĠLock":12296,"Ġtouched":12297,"Ġhistorically":12298,"ĠPython":12299,"sized":12300,"Ġfurn":12301,"Ã©s":12302,"ĠEvans":12303,"Given":12304,"Ġtrapped":12305,"Ġdebates":12306,"Ġdrops":12307,"Fe":12308,"itably":12309,"ĠCB":12310,"Ġabol":12311,"ĠUniverse":12312,"Ġepid":12313,"feld":12314,"gary":12315,"wall":12316,"ĠGerm":12317,"ĠSpeaker":12318,"Ġcrops":12319,"ĠPokÃ©mon":12320,"ĠSud":12321,"agraph":12322,"oche":12323,"Ġfract":12324,"ortunate":12325,"Advertisements":12326,"ĠAdditionally":12327,"py":12328,"Ġcomposition":12329,"ĠChron":12330,"---":12331,"Num":12332,"Ġpor":12333,"ĠCincinnati":12334,"ĠProm":12335,"ĠNixon":12336,"ĠLot":12337,"Ġshake":12338,"ĠOwn":12339,"Ġstrongest":12340,"ĠEnvironmental":12341,"Hist":12342,"Sem":12343,"igers":12344,"igma":12345,"ects":12346,"ellar":12347,"Ġinsane":12348,"Ġliberals":12349,"Ġeleph":12350,"Ġqualify":12351,"ĠSingh":12352,"written":12353,"Ġstyles":12354,"ĠBloomberg":12355,"Ġfet":12356,"Ġweaken":12357,"ĠRy":12358,"Ġneur":12359,"Ġassured":12360,"Ġharvest":12361,"mother":12362,"zes":12363,"Ġmild":12364,"âĢ³":12365,"ĠIBM":12366,"Ġnotably":12367,"ttes":12368,"ĠHunter":12369,"initely":12370,"Ġmixture":12371,"ĠTan":12372,"Ġcontributing":12373,"ĠOccup":12374,"Ġunnecessary":12375,"itivity":12376,"Ġlake":12377,"cha":12378,"ĠRio":12379,"ĠâĪĴ":12380,"storm":12381,"Ġears":12382,"ĠFOR":12383,"Ġsecured":12384,"Ġsensor":12385,"Ġderived":12386,"ĠWatson":12387,"Ġgrocer":12388,"olo":12389,"Ġspacecraft":12390,"ĠHispan":12391,"Ġacceptance":12392,"ĠRemember":12393,"ĠText":12394,"Ġfirearms":12395,"Ġhopeful":12396,"Phot":12397,"Ġdivide":12398,"Ġworthy":12399,"ILL":12400,"data":12401,"Ġlanes":12402,"ĠProgress":12403,"abbing":12404,"?'":12405,"sky":12406,"aughters":12407,"Ġinstruments":12408,"Ġflexible":12409,"Best":12410,"mons":12411,"Ġdign":12412,"Ġacquisition":12413,"iar":12414,"Ġcous":12415,"ĠToy":12416,"formed":12417,"Ġconclusions":12418,"lli":12419,"Ġrice":12420,"Ġouter":12421,"Ġ69":12422,"Ġcultiv":12423,"ĠBerkeley":12424,"df":12425,"jamin":12426,"Ġpist":12427,"Ġgreet":12428,"Ġheritage":12429,"Ġdemol":12430,"arma":12431,"Ġpanic":12432,"half":12433,"Ġincomp":12434,"Ġrotation":12435,"ĠEC":12436,"Ġreserves":12437,"Ġrespondents":12438,"Ġ1967":12439,"Ġsubsidies":12440,"atile":12441,"Ġcave":12442,"ĠFind":12443,"ĠNin":12444,"Ġvague":12445,"Ġcricket":12446,"ĠSmart":12447,"Ġlip":12448,"Ġbreach":12449,"ĠMilwaukee":12450,"Ġconsequence":12451,"ĠCuba":12452,"Ġfrozen":12453,"connect":12454,"Ġcelebration":12455,"gadgets":12456,"uming":12457,"ĠLaur":12458,"Ġshocking":12459,"ĠPartners":12460,"Ġbass":12461,"ĠTodd":12462,"ĠSaint":12463,"ĠNCAA":12464,"Ġplacing":12465,"Ġclever":12466,"Ġdifficulties":12467,"Ġmountains":12468,"atter":12469,"Ġfare":12470,"Ġugly":12471,"ĠBund":12472,"ĠGand":12473,"Ġtraditions":12474,"Ġbeneficial":12475,"Ġmandatory":12476,"Ġpedest":12477,"Twitter":12478,"acies":12479,"ĠEX":12480,"getError":12481,"Ġarguably":12482,"Ġapproaching":12483,"Ġvariation":12484,"Ġoptimistic":12485,"iatric":12486,"(\"":12487,"olar":12488,"apiculture":12489,"Ġformally":12490,"Ġflexibility":12491,"ĠTampa":12492,"Ġrecount":12493,"Ġexpend":12494,"Ġdesigners":12495,"Ġtreating":12496,"liminary":12497,"Ġcontainer":12498,"Ġmotivation":12499,"getErrorState":12500,"dev":12501,"Ġfest":12502,"Ġfru":12503,"Ġincons":12504,"Ġknocked":12505,"Ġmutual":12506,"South":12507,"Ġplanets":12508,"ĠHamas":12509,"oni":12510,"Ġmamm":12511,"owners":12512,"Through":12513,"ĠMcM":12514,"lements":12515,"agu":12516,"ĠEditor":12517,"Ġjudicial":12518,"Ġdeclare":12519,"Ġdispos":12520,"Ġtobacco":12521,"ĠHP":12522,"Ġcultures":12523,"Ġenterprise":12524,"Ġdetected":12525,"Ġinitiatives":12526,"best":12527,"roc":12528,"ella":12529,"Ġtechnically":12530,"Ġunderstands":12531,"Ġbottles":12532,"ĠLaure":12533,"Ġseventh":12534,"Ġpione":12535,"Ġunl":12536,"Ġsla":12537,"ĠExpress":12538,"Ġmothers":12539,"Ġemerge":12540,"Ġwithdrawal":12541,"Ð¼":12542,"Ġcake":12543,"ĠMerc":12544,"Ġlongest":12545,"Ġinstinct":12546,"Ġ81":12547,"ATED":12548,"valid":12549,"oard":12550,"ifferent":12551,"Ġgrasp":12552,"Ġdeliberately":12553,"ĠCircuit":12554,"Ġoversight":12555,"TIS":12556,"UTERS":12557,"Ġcompound":12558,"Ġfrank":12559,"ĠMcCon":12560,"minded":12561,"Ġshar":12562,"ĠChall":12563,"ĠQual":12564,"ĠSmall":12565,"ĠLegisl":12566,"Ġelderly":12567,"ji":12568,"Ġrocks":12569,"umbled":12570,"ĠRecords":12571,"ĠHindu":12572,"Tom":12573,"ĠTa":12574,"Ġpray":12575,"Ġdesired":12576,"Ġfright":12577,"Ġannouncing":12578,"ĠHeat":12579,"rator":12580,"Ġvaccine":12581,"ĠDakota":12582,"sur":12583,"Ġft":12584,"Ġtoll":12585,"Ġ1930":12586,"witzer":12587,"ĠAmb":12588,"ĠBarry":12589,"ĠAbbott":12590,"ĠHann":12591,"ĠFa":12592,"Ġcompletion":12593,"afi":12594,"Ġpenalties":12595,"emption":12596,"ocus":12597,"Ġmechanical":12598,"Ġshifted":12599,"pop":12600,"ulu":12601,"ĠMorning":12602,"Ġdisclosure":12603,"Ġearthquake":12604,"ĠâĢĭ":12605,"ĠGab":12606,"Ġcompliance":12607,"Ġminorities":12608,"ĠCommunist":12609,"Ġanticipated":12610,"ĠHend":12611,"ĠBlu":12612,"Ġideological":12613,"Ġlineback":12614,"Ġscenarios":12615,"Ġsucceeded":12616,"Ġcryptocur":12617,"ĠSac":12618,"ĠTea":12619,"ĠBrandon":12620,"ĠDVD":12621,"RO":12622,"ÙĬ":12623,"Ġwrapped":12624,"Ġparticipated":12625,"Ġinnings":12626,"glas":12627,"burn":12628,"have":12629,"Ġnan":12630,"stock":12631,"apor":12632,"onda":12633,"ĠVery":12634,"Ġrefusing":12635,"Ġparticles":12636,"Ġdeclaration":12637,"Ġwelcomed":12638,"LO":12639,"Ġtar":12640,"ĠRound":12641,"Ġpainted":12642,"Ġimagination":12643,"ĠAnti":12644,"Ġfloating":12645,"Ġrehab":12646,"ĠBos":12647,"2011":12648,"Ġpopul":12649,"Ġbarriers":12650,"Ġreminded":12651,"Ġpledged":12652,"Ġincentives":12653,"ernandez":12654,"ĠTheatre":12655,"perial":12656,"Ġresolved":12657,"onds":12658,"Ġstructural":12659,"\":\"":12660,"Aust":12661,"Take":12662,"stan":12663,"start":12664,"ĠDJ":12665,"ĠEli":12666,"Ġpeers":12667,"Ġattributed":12668,"ahn":12669,"iciary":12670,"Ġhatred":12671,"aghd":12672,"dig":12673,"Ġstabil":12674,"ĠMD":12675,"ĠWinter":12676,"ĠFun":12677,"Ġaffair":12678,"ĠLucas":12679,"Ġwarnings":12680,"God":12681,"wer":12682,"handed":12683,"Ġslavery":12684,"Ġ).":12685,"Ġgrip":12686,"ĠPrin":12687,"Ġresponding":12688,"Ġearnings":12689,"!!!!!!!!!!!!!!!!!!!!!!!!!!!!!!!!":12690,"Ġaftermath":12691,"Ġfinan":12692,"prising":12693,"Ġsafer":12694,"Ġtriggered":12695,"Video":12696,"onia":12697,"ĠFif":12698,"ĠKarl":12699,"formance":12700,"Ġceiling":12701,"witzerland":12702,"Never":12703,"dale":12704,"wal":12705,"Ġfilling":12706,"ĠMO":12707,"arding":12708,"Ġsurvivors":12709,"Media":12710,"ding":12711,"gments":12712,"Ġstocks":12713,"Ġdeciding":12714,"ĠFormer":12715,"Ġpressed":12716,"ĠCentury":12717,"gregation":12718,"Ġhostile":12719,"ĠStein":12720,"Ġethics":12721,"Ġconclude":12722,"Ġpresumably":12723,"Ġdoctrine":12724,"Mal":12725,"bage":12726,"quality":12727,"Ġattitudes":12728,"ĠLeaf":12729,"ĠMaria":12730,"Ġsword":12731,"forcement":12732,"Ġsteam":12733,"Ġachievement":12734,"Ġobservation":12735,"Have":12736,"acer":12737,"Ġmagical":12738,"otypes":12739,"olphins":12740,"Ant":12741,"Bet":12742,"km":12743,"Ġhub":12744,"ĠSad":12745,"emin":12746,"Ġ1981":12747,"Ġfluid":12748,"ĠEagles":12749,"Ġhackers":12750,"Ġembedded":12751,"zo":12752,"ilateral":12753,"arest":12754,"Ġinterrog":12755,"ĠÂ°":12756,"Ġcomputing":12757,"Ġaudiences":12758,"ĠSusan":12759,"Sch":12760,"Ġwhistle":12761,"than":12762,"Ġsuitable":12763,"Which":12764,"orient":12765,"asting":12766,"Ġfraction":12767,"2009":12768,"Ġsparked":12769,"Ġê":12770,"ĠFried":12771,"ĠEarly":12772,"Ġdetain":12773,"Ġearliest":12774,"oons":12775,"ĠPod":12776,"ĠHum":12777,"ĠRaven":12778,"think":12779,"Ġvibr":12780,"ĠJake":12781,"Ġgrabbed":12782,"EX":12783,"Min":12784,"Ġexempt":12785,"udge":12786,"roller":12787,"controlled":12788,"celona":12789,"ioxide":12790,"Pat":12791,"count":12792,"las":12793,"ĠTable":12794,"ĠRoom":12795,"ardless":12796,"Ġbreakdown":12797,"Ġlifted":12798,"Ġdrafted":12799,"ĠJefferson":12800,"NY":12801,"North":12802,"Ġsends":12803,"Ġtoken":12804,"Ġrhyth":12805,"Ġmemo":12806,"Ġapprove":12807,"speed":12808,"ĠConservatives":12809,"THE":12810,"Har":12811,"Ġconstrain":12812,"Ġbuyers":12813,"Ġtrusted":12814,"Ġteenager":12815,"Ġmanufacturer":12816,"Sand":12817,"ĠNeil":12818,"Ġacquire":12819,"Ġdecreased":12820,"Ġfeminist":12821,"Ġtransf":12822,"closure":12823,"ĠBlog":12824,"ĠGlass":12825,"ÂĶ":12826,"istani":12827,"Ġbuzz":12828,"azy":12829,"ĠIslands":12830,"ĠSwiss":12831,"Ġdisturbing":12832,"Ġavoided":12833,"UM":12834,"âĦ":12835,"ĠPinterest":12836,"ĠGre":12837,"Ġbless":12838,"Ġvolunteer":12839,"Ġgrain":12840,"Ġprinting":12841,"Ġclicking":12842,"Val":12843,"athon":12844,"Ġunfortunate":12845,"ĠMB":12846,"Ġintensity":12847,"byn":12848,"mare":12849,"Ġwings":12850,"ĠPur":12851,"Ġanimated":12852,"ĠPhilip":12853,"Key":12854,"ĠIss":12855,"ĠFarm":12856,"ĠStars":12857,"Ġnonprofit":12858,"Ġdenial":12859,"ĠConnecticut":12860,"Ġlyrics":12861,"five":12862,"nor":12863,"encer":12864,"ĠDom":12865,"Ġreply":12866,"Ġoperates":12867,"ĠSwift":12868,"Ġwidth":12869,"Id":12870,"hol":12871,"iop":12872,"ĠAqu":12873,"Ġ74":12874,"Ġwaited":12875,"Ġcapitalist":12876,"ĠCampaign":12877,"display":12878,"Men":12879,"Par":12880,"supp":12881,"Ġrushed":12882,"ĠNeed":12883,"ĠForces":12884,"Ġessence":12885,"PDATE":12886,"tit":12887,"Ġposed":12888,"Ġgaining":12889,"Ġcontam":12890,"Ġsecrets":12891,"backed":12892,"ĠVermont":12893,"Ġcam":12894,"ĠBeng":12895,"ĠKas":12896,"Ġprototype":12897,"Ġviral":12898,"Ġcondemn":12899,"Ġtaxpayer":12900,"inging":12901,"shot":12902,"ĠBrus":12903,"Ġmasses":12904,"ICE":12905,"Ġindicating":12906,"ĠBroncos":12907,"Ġunity":12908,"ĠShan":12909,"Ġpreval":12910,"Ġediting":12911,"Ġurge":12912,"alyst":12913,"matic":12914,"ulent":12915,"ĠImp":12916,"Ġpursuing":12917,"Ġrumors":12918,"VERTIS":12919,"ĠBuffalo":12920,"iva":12921,"Ġconducting":12922,"Ġharmful":12923,"Data":12924,"ĠMMA":12925,"ĠBou":12926,"Ġleaf":12927,"ĠChance":12928,"Ġtransmission":12929,"Ġgrows":12930,"Ġassuming":12931,"Ġadaptation":12932,"isen":12933,"ĠFro":12934,"version":12935,"ĠMurphy":12936,"Ġlegendary":12937,"ridge":12938,"Ġlib":12939,"Ġrall":12940,"ĠKu":12941,"Ġcomply":12942,"Ġexped":12943,"Ġ76":12944,"Ġslave":12945,"ĠMario":12946,"Ġdamaging":12947,"Ġunveiled":12948,"inance":12949,"ĠIan":12950,"ĠKerry":12951,"ĠCommunications":12952,"Ġadmits":12953,"cu":12954,"mart":12955,"Ġreaches":12956,"resa":12957,"Ġundermin":12958,"Ġundermine":12959,"Ġinvesting":12960,"Ġequity":12961,"ĠPrinc":12962,"Four":12963,"sign":12964,"orph":12965,"Ġnull":12966,"ĠTalk":12967,"ĠParenthood":12968,"Ġtragic":12969,"Ġraid":12970,"Ġcommissioner":12971,"uto":12972,"aret":12973,"Ġgray":12974,"ĠArthur":12975,"ropolitan":12976,"Ġcalendar":12977,"ĠTyler":12978,"References":12979,"Ġbuttons":12980,"acent":12981,"ĠFinn":12982,"ĠNumber":12983,"Ġcrude":12984,"Ġfreely":12985,"prot":12986,"keeper":12987,"lie":12988,"ĠFitz":12989,"essional":12990,"ĠAirport":12991,"Ġalternatives":12992,"RT":12993,"zi":12994,"atoes":12995,"opes":12996,"Ġrealm":12997,"Ġ700":12998,"gov":12999,"ĠMobile":13000,"ĠNort":13001,"Ġdispro":13002,"anka":13003,"beit":13004,"ĠOrthodox":13005,"Ġexcessive":13006,"ĠSafety":13007,"Ġcollapsed":13008,"ĠFDA":13009,"anti":13010,"plex":13011,"Start":13012,"Ġtransformed":13013,"/.":13014,"Ġaest":13015,"ĠWorks":13016,"Ġtestified":13017,"================":13018,"stra":13019,"Ġasc":13020,"Ġfinancing":13021,"Ġdirectors":13022,"Ġbrows":13023,"verning":13024,"ocate":13025,"Ġcocaine":13026,"vo":13027,"Ġpink":13028,"Ġrib":13029,"raham":13030,"Ġquotes":13031,"cker":13032,"ĠIndians":13033,"angelical":13034,"heric":13035,"ĠDomin":13036,"ĠUntil":13037,"ĠChapter":13038,"Ġrecy":13039,"Ġcontacts":13040,"Ġreminder":13041,"Life":13042,"haul":13043,"ĠSM":13044,"ults":13045,"aws":13046,"Ġ78":13047,"ĠMadison":13048,"Ġtransformation":13049,"Ġexplosive":13050,"aton":13051,"Ġinhib":13052,"Ġbeers":13053,"ĠDanny":13054,"ĠGates":13055,"Ġfeared":13056,"Ġ77":13057,"ublin":13058,"ĠBuck":13059,"ĠOscar":13060,"note":13061,"borne":13062,"Ġsuspicious":13063,"Ġintentions":13064,"Ġtutorial":13065,"âĦ¢":13066,"ĠBeh":13067,"Ġcartoon":13068,"ĠSoftware":13069,"Ser":13070,"Set":13071,"ĠTreat":13072,"Ġtrucks":13073,"ango":13074,"Ġbund":13075,"Ġsocieties":13076,"Ġromantic":13077,"eu":13078,"ĠUC":13079,"Ġbeloved":13080,"Ġmoder":13081,"Ġidentification":13082,"Ġportfol":13083,"Ġcycling":13084,"Ġvacation":13085,"ĠREUTERS":13086,"Ġsuspicion":13087,"SM":13088,"Ġriot":13089,"Ġoffset":13090,"never":13091,"ĠMilitary":13092,"Ġcondemned":13093,"ĠMcConnell":13094,"ĠTrudeau":13095,"Ġcredibility":13096,"Ġsteep":13097,"ĠSpeed":13098,"ĠWWE":13099,"maximum":13100,"\",\"":13101,"iary":13102,"ĠMaine":13103,"Ġdece":13104,"Ġdecides":13105,"Ġ1983":13106,"Ġ1973":13107,"iasm":13108,"ĠPeters":13109,"Ġarrangement":13110,"Ġroyal":13111,"Ġinmates":13112,"Ġnick":13113,"ĠCass":13114,"Ġconj":13115,"ĠHait":13116,"Ġimmense":13117,"Ġcolleague":13118,"Ġtransparent":13119,".âĢľ":13120,"ĠFigure":13121,"uns":13122,"nered":13123,"ĠCohen":13124,"ĠGray":13125,"Ġpriorities":13126,"Ġbreathing":13127,"ector":13128,"Ġcreep":13129,"Ġidentifying":13130,"Ġsponsored":13131,"idding":13132,"Ġbreakfast":13133,"Ġsquee":13134,"Ġemotion":13135,"Ġrenewed":13136,"Ġprohibited":13137,"enc":13138,"ĠSide":13139,"Ġhabits":13140,"aux":13141,"Ġadvances":13142,"Ġdraws":13143,"Type":13144,"Having":13145,"Ġnons":13146,"Ġappeals":13147,"Ġencryption":13148,"Ġtreatments":13149,"ĠCa":13150,"ĠMason":13151,"Ġthereby":13152,"Ġinsurg":13153,"ĠVerizon":13154,"ĠJoined":13155,"Ġrecruiting":13156,"dam":13157,"earchers":13158,"Ġdose":13159,"Ġagrees":13160,"Ġbelieving":13161,"Ġorganizing":13162,"Ġvisa":13163,"Ġaffecting":13164,"addy":13165,"Ġcasting":13166,"Ġtunnel":13167,".:":13168,"ĠSwitzerland":13169,"seud":13170,"ationally":13171,"shirt":13172,"Ġadvantages":13173,"Ġdiagnosed":13174,"ĠMitt":13175,"Ġindirect":13176,"ollah":13177,"uerto":13178,"claimed":13179,"group":13180,"iability":13181,"Ġcats":13182,"ogg":13183,"Ġdonation":13184,"Ġbrains":13185,"Ġprovincial":13186,"Ġregulators":13187,"Ġpurchases":13188,"Clinton":13189,"Ġpilots":13190,"ĠBooks":13191,"Ġhelicopter":13192,"Ġfuels":13193,"Ġnode":13194,"ĠRice":13195,"Ġtourists":13196,"Ġbatteries":13197,"giving":13198,"oner":13199,"ĠNatural":13200,"Ġscrap":13201,"Ġpresc":13202,"boards":13203,"icials":13204,"Ġtranslation":13205,"ĠYahoo":13206,"Ah":13207,"none":13208,"Ġauction":13209,"Ġsilly":13210,"ĠSox":13211,"pring":13212,"Ġ1978":13213,"idays":13214,"ĠNep":13215,"ĠSolar":13216,"ĠOxford":13217,"Ġburg":13218,"ĠName":13219,"Ġgenerous":13220,"etta":13221,"ĠStudios":13222,"ructive":13223,"NT":13224,"ĠCell":13225,"abl":13226,"Ġsuppose":13227,"ĠUSD":13228,"Ġmarine":13229,"ADVERTIS":13230,"Ġterritories":13231,"ãĢģ":13232,"Ġtensions":13233,"ĠCos":13234,"charge":13235,"ĠGear":13236,"Ġdescript":13237,"Ġthrows":13238,"UP":13239,"Ġanarch":13240,"Ġ71":13241,"Ġhumanitarian":13242,"ARD":13243,"Ġtraditionally":13244,"Ġpassionate":13245,"Ġlau":13246,"ountered":13247,"urned":13248,"Ġcheer":13249,"Ġinfring":13250,"Ġcareers":13251,"Ġencountered":13252,"Ġtexts":13253,"Ġunders":13254,"ĠRubio":13255,"ĠRaiders":13256,"home":13257,"Ġlaser":13258,"imens":13259,"ussion":13260,"Ġpleaded":13261,"Ġverdict":13262,"Ġobserve":13263,"writer":13264,"Ġlobbying":13265,"BE":13266,"days":13267,"Ġwolf":13268,"Ġcodes":13269,"Ġdioxide":13270,"Ġfailures":13271,"Ġgenet":13272,"Ġhybrid":13273,"ĠKeith":13274,"('":13275,"ĠMort":13276,"Ġ88":13277,"Ġproceedings":13278,"struction":13279,"ĠTerry":13280,"Ġgoverning":13281,"ĠUnit":13282,"Ġshoulders":13283,"Ġisolation":13284,"WH":13285,"gel":13286,"powered":13287,"whe":13288,"ĠEmb":13289,"Ġfounding":13290,"ĠMcL":13291,"Ġfilming":13292,"Ġ1968":13293,"Ġorganisations":13294,"Sy":13295,"ignt":13296,"ĠLev":13297,"Ġfuneral":13298,"Ġ==":13299,"Ġaccountable":13300,"Ġcleaning":13301,"ĠBenjamin":13302,"Ġgravity":13303,"Ġadequate":13304,"bie":13305,"lude":13306,"abetes":13307,"Ġcolleges":13308,"roduction":13309,"ALL":13310,"ĠLtd":13311,"Ġtemporarily":13312,"fil":13313,"ĠLane":13314,"Ġhumor":13315,"Ġkills":13316,"ĠConfed":13317,"Sign":13318,"pur":13319,"alog":13320,"Ġflip":13321,"ĠMerkel":13322,"ĠCambridge":13323,"card":13324,"Ġdirt":13325,"owell":13326,"peror":13327,"Ġconsiders":13328,"Ġlasted":13329,"Ġgrateful":13330,"Ġexcitement":13331,"Ġpursuit":13332,"Ġdestroying":13333,"vation":13334,"ĠSex":13335,"ppy":13336,"Ġcounted":13337,"Ġdistinction":13338,"Ġcorporation":13339,"Ġpurely":13340,"ĠGermans":13341,"ĠBrussels":13342,"arents":13343,"Ġdoubled":13344,"ĠPlayers":13345,"Ġraped":13346,"ĠNorway":13347,"Ġvertical":13348,"Ġreun":13349,"Ġurging":13350,"CR":13351,"rint":13352,"isers":13353,"urred":13354,"Ġempire":13355,"ooting":13356,"Ġeconomist":13357,"ĠArticle":13358,"ĠRosen":13359,"ĠGer":13360,"ĠJu":13361,"Ġreson":13362,"Ġvegetables":13363,"ĠBryant":13364,"COM":13365,"Ġdaughters":13366,"ĠTR":13367,"ĠBJP":13368,"ĠRT":13369,"Ġchurches":13370,"Ġindict":13371,"ĠPolitical":13372,"Ġsheriff":13373,"rape":13374,"uez":13375,"Ġcreativity":13376,"Ġroutinely":13377,"Ġfict":13378,"ĠPAC":13379,"Ġattacker":13380,"Ġeconomies":13381,"ĠPhone":13382,"Ġbarrier":13383,"Ġ{\\":13384,"ĠCountry":13385,"ĠPlanned":13386,"big":13387,"stage":13388,"ĠSaints":13389,"Ġunh":13390,"Ġrepublic":13391,"Ġfarming":13392,"Ġbuses":13393,"orns":13394,"ĠDeputy":13395,"Ġpurchasing":13396,"Ġawa":13397,"Ġlengthy":13398,"Ġdubbed":13399,"Ġbankruptcy":13400,"Ġanime":13401,"utical":13402,"Ġ()":13403,"Ġshed":13404,"Ġinterference":13405,"visor":13406,"xx":13407,"Ġmock":13408,"Ġmasc":13409,"chi":13410,"Ġampl":13411,"Ġfarms":13412,"ĠGuide":13413,"Ġmeantime":13414,"ĠHolland":13415,"esis":13416,"ĠFish":13417,"Ġdonated":13418,"Ġedited":13419,"Ġexecute":13420,"Ġconsumed":13421,"ĠStudy":13422,"Ġeliminated":13423,"Ġendorsed":13424,"Ġfont":13425,"ĠThor":13426,"bean":13427,"Ġarmor":13428,"iosity":13429,"Ġsequel":13430,"utenant":13431,"Ġlicensing":13432,"Ġpermits":13433,"Ġtrash":13434,"cca":13435,"Ġworkforce":13436,"Ġmonsters":13437,"ĠSenior":13438,"ĠBarcelona":13439,"Ġvillages":13440,"Ġenhanced":13441,"Ġcertificate":13442,"fox":13443,"respect":13444,"ĠJen":13445,"ĠKoch":13446,"Ġgrace":13447,"Ġpublishers":13448,"Ġblacks":13449,"Ġmillenn":13450,"Ġwrestling":13451,"Ġscreaming":13452,"Hill":13453,"Ġrecept":13454,"Ġhence":13455,"ĠChap":13456,"ĠVP":13457,"tech":13458,"Ġtriple":13459,"Ġcreators":13460,"Ġretailers":13461,"Ġcounterparts":13462,"acceptable":13463,"ulative":13464,"ĠGarden":13465,"Ġdism":13466,"ĠMemorial":13467,"Ġterminal":13468,"ĠCastle":13469,"mi":13470,"ĠReed":13471,"ĠQaeda":13472,"Ġimplementing":13473,"Whether":13474,"Europe":13475,"ĠBears":13476,"ĠEdd":13477,"ĠKyle":13478,"Ġunrest":13479,"Ġinvite":13480,"Ġeconomists":13481,"Ġstatistical":13482,"Ġescaped":13483,"Ġkingdom":13484,"Ġwishes":13485,"ĠAF":13486,"...\"":13487,"Ġvegan":13488,"Ġauthorized":13489,"ĠHarvey":13490,"Ġmagnetic":13491,"tail":13492,"Ġhier":13493,"estone":13494,"ĠFame":13495,"ĠLiving":13496,"velt":13497,"Ġbetray":13498,"Ġstrain":13499,"ĠSpider":13500,"ĠWiki":13501,"ĠTurner":13502,"pace":13503,"Ġdys":13504,"ĠDNC":13505,"Ġsued":13506,"Ġstreak":13507,"Ġlandl":13508,"Ġsensors":13509,"Ġmortality":13510,"ĠUbuntu":13511,"UC":13512,"Ver":13513,"around":13514,"Ġlabels":13515,"Ġarriving":13516,"ĠSerge":13517,"rose":13518,"ĠPick":13519,"Ġprox":13520,"Ġabsent":13521,"ĠCorbyn":13522,"Ø§ÙĦ":13523,"NET":13524,"Ġvel":13525,"ĠMM":13526,"ĠFlynn":13527,"Ġ73":13528,"ĠBrand":13529,"second":13530,"space":13531,"ĠSpirit":13532,"live":13533,"ÙĨ":13534,"ĠÏ":13535,"inos":13536,"Ġbust":13537,"Ġhed":13538,"ĠDE":13539,"izable":13540,"ignty":13541,"ĠFel":13542,"kh":13543,"Ġcu":13544,"ĠMom":13545,"ĠEV":13546,"neath":13547,"enna":13548,"Ġethical":13549,"Ã¥":13550,"Ġwreck":13551,"Ġparagraph":13552,"Ġspecialist":13553,"Ġpaths":13554,"Ġclosure":13555,"--------------------------------":13556,"Ġthoroughly":13557,"mel":13558,"ĠHud":13559,"astically":13560,"Ġoffshore":13561,"Ġ1920":13562,"Ġslower":13563,"Ġcommented":13564,"Orig":13565,"Ġtang":13566,"Ġdisg":13567,"Ġfitness":13568,"Ġcomparable":13569,"Ġmidfielder":13570,"German":13571,"Ñĭ":13572,"Ġtong":13573,"ulpt":13574,"Ġexports":13575,"ools":13576,"Tor":13577,"rane":13578,"Ġsisters":13579,"Ġdumb":13580,"Ġjack":13581,"Ġindigenous":13582,"Ġwildlife":13583,"Stud":13584,"Ġpractically":13585,"Ġjumping":13586,"Dec":13587,"Rich":13588,"bart":13589,"school":13590,"keys":13591,"Ġchampions":13592,"osevelt":13593,"Ġquery":13594,"Ġpreference":13595,"Ġwarfare":13596,"Ġinvestor":13597,"ĠLebanon":13598,"Ġboring":13599,"eded":13600,"Ġresume":13601,"ordable":13602,"Ġclinic":13603,"Ġaveraged":13604,"Ġhill":13605,"ĠAve":13606,"Ġintu":13607,"Ġfeeding":13608,"ĠEbola":13609,"Met":13610,"ski":13611,"ĠNA":13612,"aceutical":13613,"Ġsmugg":13614,"Ġwondered":13615,"Ġdancing":13616,"Ġtrace":13617,"Ġaging":13618,"Ġinvented":13619,"ĠGuy":13620,"Ġintroducing":13621,"Ġimmigrant":13622,"Ġcorresponding":13623,"Ġgamers":13624,"Ġlicensed":13625,"Ġaired":13626,"reach":13627,"itated":13628,"Ġfence":13629,"Ġhorm":13630,"ĠBh":13631,"Ġreset":13632,"Ġ82":13633,"Ġpenet":13634,"frame":13635,"ĠBelgium":13636,"deg":13637,"Ġbite":13638,"Ġpig":13639,"Ġretreat":13640,"Ġ92":13641,"Ġmetres":13642,"Ġsooner":13643,"itative":13644,"Ġtraits":13645,"ugging":13646,"ĠAMD":13647,"Ġdamages":13648,"Ġexamination":13649,"Ġexceptions":13650,"Ġinfected":13651,"Cap":13652,"James":13653,"Ġnit":13654,"urable":13655,"Ġrage":13656,"ĠJohnny":13657,"Ġprivately":13658,"Ġcrying":13659,"Ġnovels":13660,"ĠFinance":13661,"Ġdeployment":13662,"IVE":13663,"ĠRogers":13664,"Ġmagnitude":13665,"UE":13666,"also":13667,"ĠACL":13668,"ĠDublin":13669,"Ġleverage":13670,"Ġlikelihood":13671,"Ġcounting":13672,"Ġ79":13673,"Ġgenerating":13674,"Ġwinds":13675,"Ġ>>>":13676,"Ġultra":13677,"ĠPrize":13678,"Ġaccurately":13679,"Jan":13680,"ickets":13681,"Ġgovernance":13682,"Ġthreaten":13683,"Ġconnecting":13684,"venture":13685,"ĠBetween":13686,"Ġswimming":13687,"West":13688,"ĠBE":13689,"people":13690,"orses":13691,"Ġwherever":13692,"Ġglob":13693,"Ġesp":13694,"ĠISBN":13695,"ĠInterest":13696,"Ġnominated":13697,"Ġsweat":13698,"Ġwillingness":13699,"Ġdisappointing":13700,"Ġinstitutional":13701,"ADVERTISEMENT":13702,"Bit":13703,"Work":13704,"aru":13705,"asi":13706,"Ġconvey":13707,"Ġintake":13708,"ĠArctic":13709,"ĠAnne":13710,"Ġaccounting":13711,"Ġ1977":13712,"Ġtimeline":13713,"ĠVenezuela":13714,"Ġhalt":13715,"Ġlos":13716,"ĠGreens":13717,"Ġregards":13718,"Ġcontinuous":13719,"Ġclassical":13720,"Ġveto":13721,"etermin":13722,"Ġbloody":13723,"ĠBradley":13724,"Ð²":13725,"Ġbell":13726,"ĠMission":13727,"plan":13728,"Ġintercept":13729,"Ġskilled":13730,"Ġboyfriend":13731,"Islam":13732,"ĠPhotograph":13733,"ĠTemple":13734,"Ġgifts":13735,"Ġtoy":13736,"Ġtoys":13737,"ĠPap":13738,"ĠPere":13739,"Ġalph":13740,"Ġune":13741,"Ġ1982":13742,"Ġdisclose":13743,"inery":13744,"ĠSay":13745,"Ġstarter":13746,"ĠBash":13747,"ĠBird":13748,"ĠPuerto":13749,"ĠRams":13750,"ĠChuck":13751,"Ġdirectory":13752,"ĠExchange":13753,"Ġunfold":13754,"Ġpsychology":13755,"Ġshifts":13756,"ĠTell":13757,"issa":13758,"rowth":13759,"Ġmemorial":13760,"Ġconsume":13761,"hammad":13762,"Ġseparation":13763,"Ġnegotiate":13764,"four":13765,"viol":13766,"Ġcents":13767,"otton":13768,"ĠSomething":13769,"ĠBaghd":13770,"ĠPence":13771,"rien":13772,"ĠKam":13773,"cycle":13774,"ĠWithin":13775,"Ġpredictions":13776,"Ġimagined":13777,"ĠSunni":13778,"GM":13779,"lem":13780,"ĠGA":13781,"ĠOliver":13782,"Ġinteractive":13783,"Ġmentally":13784,"Ġsolidarity":13785,"names":13786,"oler":13787,"Ġrated":13788,"tha":13789,"ĠFab":13790,"ĠBetter":13791,"Ġbrave":13792,"ĠUrban":13793,"Ġfierce":13794,"redict":13795,"Ġtrap":13796,"actor":13797,"ĠThunder":13798,"iph":13799,"Ġjustified":13800,"issance":13801,"bris":13802,"âĢ¦âĢĿ":13803,"ĠÂ©":13804,"Ġswift":13805,"Ġindependently":13806,"Ġprecious":13807,"edi":13808,"ĠHamm":13809,"Ġstrings":13810,"Ġtemple":13811,"ĠDouglas":13812,"Ġpupp":13813,"Ġthirty":13814,"ĠTun":13815,"ĠSearch":13816,"ĠMoney":13817,"Ġsectors":13818,"Ġincentive":13819,"Ġhypothesis":13820,"Green":13821,"omer":13822,"ĠSoul":13823,"ĠEss":13824,"Ġcrashed":13825,"Ġmedi":13826,"Ġlimiting":13827,"Ġrankings":13828,"gian":13829,"national":13830,"~~":13831,"Ġhealing":13832,"ppo":13833,"ĠRail":13834,"ĠURL":13835,"Ġsheer":13836,"tees":13837,"Ġafterwards":13838,"Ġreflection":13839,"Ġtribal":13840,"Using":13841,"Ġholy":13842,"ĠMaj":13843,"Ġshore":13844,"Ġcompiled":13845,"Ġdefic":13846,"Ġtriumph":13847,"Ġmatching":13848,"ĠBrowns":13849,"ĠDoug":13850,"illo":13851,"ĠLess":13852,"usters":13853,"Ġpreliminary":13854,"amps":13855,"insula":13856,"Ġinfer":13857,"String":13858,"ĠBrady":13859,"INGTON":13860,"ugged":13861,"Ġautonomous":13862,"General":13863,"ĠClarke":13864,"arcer":13865,"asse":13866,"ĠBL":13867,"ĠUser":13868,"Ġtwist":13869,"Ġbranches":13870,"Ġ1972":13871,"width":13872,"source":13873,"ÃĹ":13874,"Ġmedication":13875,"ĠTeh":13876,"Ġsuperhero":13877,"ãģĦ":13878,"Ġplea":13879,"stitutional":13880,"Gold":13881,"iche":13882,"imated":13883,"pelled":13884,"ocker":13885,"Ġlasting":13886,"Ġfirmly":13887,"ĠHighway":13888,"Ġpizza":13889,"ĠWii":13890,"Ġplaint":13891,"aley":13892,"ĠPalace":13893,"Ġshifting":13894,"Ġinclusion":13895,"pse":13896,"health":13897,"ĠMI":13898,"Ġtrauma":13899,"Ġmidnight":13900,"Ġheroin":13901,"usterity":13902,"ĠTitle":13903,"âĸĪ":13904,"driven":13905,"Rober":13906,"Tunes":13907,"Ġwolves":13908,"Ġdivers":13909,"olutions":13910,"ĠPed":13911,"ĠStalin":13912,"Ġreasoning":13913,"Ġinevitably":13914,"Ġdelicious":13915,"Ġconsultant":13916,"();":13917,"ioned":13918,"store":13919,"ĠVe":13920,"Ġcivilization":13921,"Ġoccurring":13922,"Ġlayout":13923,"Ġstroke":13924,"roots":13925,"wealth":13926,"airy":13927,"Ġeffectiveness":13928,"ĠFriends":13929,"Ġloving":13930,"Ġ110":13931,"ĠVA":13932,"Ġmetab":13933,"ĠQB":13934,"Ġadapted":13935,"iots":13936,"Ġtub":13937,"ĠGB":13938,"ĠLED":13939,"ĠLisa":13940,"Ġadverse":13941,"Ġtranscript":13942,"Brit":13943,"Sometimes":13944,"your":13945,"eno":13946,"ĠGarc":13947,"qual":13948,"Ġdiffer":13949,"Ġinstruction":13950,"Ġcelebrity":13951,"Ġfundamentally":13952,"ĠGMT":13953,"Super":13954,"ĠTigers":13955,"ĠSent":13956,"ĠCarson":13957,"ĠBah":13958,"ĠDR":13959,"abul":13960,"Ġchains":13961,"Ġadmission":13962,"Ġairline":13963,"Ġlacking":13964,"Ġbehaviors":13965,"Åį":13966,"ĠAth":13967,"ĠIslamist":13968,"Ġseverely":13969,"Ġhij":13970,"ĠSi":13971,"ĠBuy":13972,"usk":13973,"Ġabused":13974,"apy":13975,"Ġteens":13976,"Ġpeoples":13977,"Ġdiscour":13978,"ĠHarrison":13979,"Ġsounded":13980,"Ġspirits":13981,"Ġestablishing":13982,"Everyone":13983,"Ġlecture":13984,"BL":13985,"Mem":13986,"sk":13987,"tor":13988,"Ġneat":13989,"ĠTruth":13990,"Ġforests":13991,"Ġparliamentary":13992,"ĠMovement":13993,"ĠArgentina":13994,"ĠCC":13995,"irable":13996,"ften":13997,"Ġtenure":13998,"ĠPun":13999,"ĠHem":14000,"Ġcompassion":14001,"Ġconvinc":14002,"Ġspectacular":14003,"writing":14004,"ĠUniversal":14005,"Ġabortions":14006,"\";":14007,"Sl":14008,"Wind":14009,"Ġbikes":14010,"Ġoverlook":14011,"Ġpartial":14012,"ĠNewton":14013,"azed":14014,"Ġfriendship":14015,"Prof":14016,"Ġhungry":14017,"ocumented":14018,"ĠTribune":14019,"direct":14020,"amy":14021,"Ġunanim":14022,"Ġmodules":14023,"ervation":14024,"ĠPakistani":14025,"ĠBrazilian":14026,"public":14027,"uum":14028,"Ġpowder":14029,"ĠSalt":14030,"ĠHockey":14031,"Ġshaped":14032,"Ġenables":14033,"Ġexpose":14034,"Ġmarry":14035,"Ġphysician":14036,"Mike":14037,"nik":14038,"à¹":14039,"adows":14040,"Ġunlimited":14041,"Ġspare":14042,"ĠInv":14043,"umbling":14044,"ĠAgree":14045,"cs":14046,"table":14047,"ĠSor":14048,"ĠSpect":14049,"iri":14050,"Ġleaks":14051,"Ġworkplace":14052,"Ġunderway":14053,"Ġcorners":14054,"Ġgenius":14055,"black":14056,"Ġlaughing":14057,"Does":14058,"Ġlap":14059,"ieval":14060,"Ġmeals":14061,"Ġfelony":14062,"fly":14063,"gt":14064,"Ġtrop":14065,"Ġjazz":14066,"Ġlesser":14067,"Ġliterary":14068,"ĠRah":14069,"ĠGonz":14070,"Ġoutright":14071,"Ġoutdoor":14072,"ĠCho":14073,"ĠBros":14074,"arthy":14075,"Ġscreening":14076,"ECT":14077,"Ġcompatible":14078,"oubted":14079,"Rob":14080,"Ġcomparing":14081,"ĠReading":14082,"Ġorigins":14083,"Ġmaintains":14084,"Ġbattlefield":14085,"Oct":14086,"vals":14087,"ĠWATCH":14088,"Ġjew":14089,"ĠIndex":14090,"Make":14091,"SR":14092,"advant":14093,"ĠBY":14094,"ĠDate":14095,"ĠKrist":14096,"Ġstraightforward":14097,"ĠWallace":14098,"Ġsacrific":14099,"Ġinhabit":14100,"ĠMust":14101,"ueller":14102,"Ġprey":14103,"Ġcontinent":14104,"Ġsuccessor":14105,"Ġobligation":14106,"Day":14107,"ĠCBC":14108,"Chris":14109,"Ġvariations":14110,"Ġaccidentally":14111,"Ġexhibition":14112,"Ġwallet":14113,"Qaeda":14114,"hew":14115,"Ġsupportive":14116,"Ġkillings":14117,"proof":14118,"ĠRoosevelt":14119,"Ġrendering":14120,"2000":14121,"die":14122,"selling":14123,"ĠCu":14124,"Ġwhilst":14125,"ĠBuzz":14126,"ĠGate":14127,"Ġtranslated":14128,"Ġgenuinely":14129,"Ġswitched":14130,"ĠIndonesia":14131,"Alex":14132,"render":14133,"Ġwand":14134,"Ġpir":14135,"Ġmonop":14136,"Ġinsists":14137,"Ġfilmed":14138,"Ġproblematic":14139,"Ġdarkness":14140,"ĠBernard":14141,"ĠCharlotte":14142,"Ġaccompany":14143,"Ġastronaut":14144,"Ġhoney":14145,"ĠCant":14146,"ĠDri":14147,"Ġacres":14148,"Ġlocally":14149,"DE":14150,"Ġdisorders":14151,"ĠZero":14152,"Ġeducated":14153,"Ġtrafficking":14154,"escope":14155,"ĠTitan":14156,"Ġrubber":14157,"Ġdesperately":14158,"Ġmate":14159,"egu":14160,"hou":14161,"yang":14162,"ĠTory":14163,"ĠDub":14164,"Ġaccountability":14165,"gs":14166,"Â®":14167,"Ġtribute":14168,"Ġhood":14169,"ĠDiam":14170,"Ġplates":14171,"eches":14172,"ĠWarriors":14173,"Ġappealing":14174,"Ġexercises":14175,"Leaks":14176,"Indeed":14177,"Ġathletic":14178,"ĠCorn":14179,"osures":14180,"artisan":14181,"Ġconsolid":14182,"Ġinfamous":14183,"Ġbillionaire":14184,"Ġgarbage":14185,"Ġfiber":14186,"ĠRou":14187,"Ġconsiderably":14188,"uki":14189,"Ġevaluation":14190,"Ġfacilitate":14191,"hal":14192,"inates":14193,"asma":14194,"Ġreception":14195,"ĠShi":14196,"Ġ180":14197,"ĠMarco":14198,"Ġdealers":14199,"Ġcelebrating":14200,"tem":14201,"talk":14202,"Ġflesh":14203,"arts":14204,"aku":14205,"ĠQatar":14206,"Ġapology":14207,"holder":14208,"ĠCardinals":14209,"onge":14210,"Ġcort":14211,"Ġdive":14212,"othy":14213,"php":14214,"Ġencrypt":14215,"Ġ1975":14216,"ESS":14217,"Ġcooling":14218,"Ġgods":14219,"Russia":14220,"bull":14221,"itbart":14222,"Ġliver":14223,"umns":14224,"Ġchase":14225,
[...]
